[PAD]
[UNK]
[CLS]
[MASK]
[SEP]
!
"
&
'
(
)
*
+
,
-
.
/
:
;
<
=
>
?
@
[
\
]
^
`
a
b
c
d
e
f
g
h
i
j
k
l
m
n
o
p
q
r
s
t
u
v
w
x
y
z
{
}
~
æ
ø
đ
ħ
ı
ĸ
ł
ŋ
œ
ƀ
ƃ
ƈ
ƒ
ƙ
ƛ
ƞ
ƣ
ƥ
ƭ
ƴ
ƶ
ƿ
ǀ
ǁ
ǃ
ǝ
ȥ
ȷ
ȼ
ɉ
ɋ
ɍ
ɐ
ɑ
ɒ
ɓ
ɔ
ɕ
ɖ
ɗ
ə
ɚ
ɛ
ɜ
ɞ
ɟ
ɠ
ɡ
ɢ
ɣ
ɤ
ɥ
ɦ
ɨ
ɪ
ɫ
ɬ
ɭ
ɮ
ɯ
ɰ
ɱ
ɲ
ɳ
ɴ
ɵ
ɸ
ɹ
ɺ
ɻ
ɽ
ɾ
ʀ
ʁ
ʂ
ʃ
ʄ
ʈ
ʉ
ʊ
ʋ
ʌ
ʎ
ʏ
ʐ
ʑ
ʒ
ʔ
ʕ
ʖ
ʘ
ʙ
ʛ
ʝ
ʟ
ʠ
ʡ
ʢ
ʰ
ʹ
ʺ
ʻ
ʾ
ʿ
ˀ
˂
˃
˄
ˆ
ˇ
ˈ
ˉ
ˌ
ˏ
ː
ˑ
˒
˓
˔
˙
˚
˛
˜
˝
˧
α
β
γ
δ
ε
η
θ
ι
κ
λ
μ
ν
ξ
ο
π
ρ
ς
σ
τ
υ
φ
χ
ω
ϒ
ϕ
ϡ
а
б
в
г
д
е
ж
з
и
к
л
м
н
о
п
р
с
т
у
ф
х
ц
ч
ш
щ
ъ
ы
ь
э
ю
я
ѕ
і
ґ
ҫ
ҳ
ӆ
՞
ա
բ
դ
ե
զ
թ
ի
լ
խ
ծ
կ
հ
ձ
մ
յ
ն
շ
ո
չ
պ
ս
վ
տ
ր
ց
ւ
ք
օ
׃
א
ב
ד
ה
ו
ז
ח
ט
י
כ
ל
ם
מ
ן
נ
ס
ע
פ
ץ
צ
ר
ש
ת
״
،
؍
؛
؟
ء
ا
ب
ة
ت
ث
ج
ح
خ
د
ذ
ر
ز
س
ش
ص
ض
ط
ظ
ع
غ
ف
ق
ل
م
ن
ه
و
ى
ي
٠
١
٢
٣
٤
٥
٦
٧
٨
٩
٪
٫
٬
٭
ٮ
ٱ
ٲ
ٴ
ٶ
ٸ
ٹ
ٺ
ٽ
پ
ځ
ڃ
څ
چ
ڈ
ڌ
ڑ
ڔ
ڕ
ڗ
ژ
ڟ
ڤ
ک
ګ
گ
ڱ
ڵ
ں
ھ
ہ
ۃ
ۆ
ۇ
ی
ۍ
ێ
ې
۔
ە
۞
ۥ
۩
۰
۱
۲
۳
۴
۵
۶
۷
۸
۹
ۺ
ۻ
ܓ
ܨ
ः
अ
आ
इ
ई
उ
ऊ
ए
ऐ
ओ
औ
क
ख
ग
ङ
च
छ
ज
झ
ञ
ट
ठ
ड
ढ
ण
त
थ
द
ध
न
प
फ
ब
भ
म
य
र
ल
ळ
व
श
ष
स
ह
ा
ि
ी
ॉ
ो
ौ
ॐ
।
॥
०
१
२
३
४
५
६
७
८
९
ং
অ
ঈ
উ
ঊ
ক
খ
গ
ঘ
ঙ
চ
জ
ঞ
ট
ড
ত
থ
দ
ন
প
ফ
ব
ম
য
র
ল
শ
স
হ
া
ি
ী
ে
ৈ
ৰ
৳
ਅ
ਆ
ਇ
ਕ
ਖ
ਗ
ਘ
ਚ
ਜ
ਡ
ਣ
ਤ
ਦ
ਧ
ਨ
ਪ
ਫ
ਬ
ਭ
ਮ
ਰ
ਲ
ਵ
ਸ
ਹ
ਾ
ਿ
ੀ
ੜ
ઃ
અ
આ
ઇ
ઈ
ઉ
ઊ
ઋ
ઍ
એ
ઐ
ઑ
ઓ
ઔ
ક
ગ
ચ
જ
ટ
ણ
ત
થ
દ
ધ
ન
પ
ફ
બ
ભ
મ
ય
ર
લ
વ
ષ
સ
હ
ા
િ
ી
ૉ
ો
ૌ
૧
૨
૩
૪
૫
૬
૭
૮
૯
ଂ
ଆ
ଦ
ଧ
ବ
ସ
அ
ஆ
இ
ஈ
உ
எ
ஏ
ஒ
க
ங
ச
ஜ
ஞ
ட
ண
த
ந
ன
ப
ம
ய
ர
ற
ல
ள
ழ
வ
ஸ
ா
ி
ு
ூ
ெ
ே
ை
ం
ఆ
ఉ
క
గ
చ
జ
ట
డ
ణ
త
ద
ధ
న
ప
బ
భ
మ
య
ర
ల
వ
శ
ష
స
హ
ు
ూ
ృ
ಂ
ಅ
ಕ
ಗ
ಚ
ಜ
ಟ
ಡ
ಣ
ತ
ಥ
ದ
ನ
ಪ
ಬ
ಮ
ಯ
ರ
ಲ
ಳ
ವ
ಶ
ಸ
ಹ
ಾ
ು
ೂ
ೕ
ೖ
೯
ം
ക
ഖ
ട
ത
ദ
ന
പ
ബ
മ
ര
റ
ല
ള
ഴ
വ
ശ
ഷ
ാ
ി
ീ
െ
േ
൦
൧
൨
൩
൪
൫
൬
൭
൮
൯
ർ
ං
අ
ආ
උ
එ
ඔ
ක
ග
ජ
ඥ
ට
ඩ
ණ
ත
ද
ධ
න
ඳ
ප
බ
භ
ම
ය
ර
ල
ව
ශ
ස
හ
ළ
ා
ැ
ෙ
ก
ข
ค
ง
จ
ฉ
ช
ซ
ฑ
ณ
ด
ต
ถ
ท
ธ
น
บ
ป
ผ
พ
ฟ
ภ
ม
ย
ร
ล
ว
ศ
ษ
ส
ห
อ
ฮ
ะ
า
ำ
เ
แ
โ
ใ
ไ
๐
๑
๒
๓
๔
๕
๖
๗
๘
๙
ກ
ຂ
ງ
ດ
ຕ
ທ
ນ
ບ
ມ
ລ
ວ
ສ
ຫ
ະ
າ
ເ
ໄ
་
།
ཀ
ག
ང
ཅ
ཆ
ཏ
ཐ
ད
ན
པ
ཕ
བ
མ
ཚ
འ
ར
ལ
ས
က
ခ
ဂ
င
ဆ
ည
တ
ဒ
န
ပ
မ
ယ
ရ
လ
သ
ဟ
အ
ာ
ေ
း
ျ
ြ
ა
ბ
გ
დ
ე
ვ
ზ
თ
ი
კ
ლ
მ
ნ
ო
პ
ჟ
რ
ს
ტ
უ
ფ
ქ
ღ
ყ
შ
ჩ
ც
ძ
წ
ჭ
ხ
ჯ
ჰ
ᄉ
ሃ
ለ
ሌ
ል
ሕ
መ
ማ
ም
ሞ
ሠ
ረ
ራ
ር
ሱ
ስ
ሶ
ቀ
ቅ
በ
ባ
ቤ
ቦ
ተ
ት
ነ
ና
ን
ኛ
አ
ኩ
ክ
ወ
ዋ
ዓ
ዕ
ዘ
ዝ
ዞ
የ
ዪ
ያ
ይ
ዮ
ደ
ዲ
ዳ
ዴ
ድ
ጃ
ጋ
ግ
ጎ
ጭ
ጼ
ጽ
ፈ
ፊ
ፋ
ፍ
ᐃ
ᐊ
ᐸ
ᑎ
ᑐ
ᑕ
ᑦ
ᑯ
ᒃ
ᓄ
ᖅ
ᗩ
ᚦ
ᛋ
ក
ខ
គ
ឃ
ង
ច
ជ
ញ
ដ
ឋ
ណ
ត
ថ
ទ
ធ
ន
ប
ផ
ព
ភ
ម
យ
រ
ល
វ
ស
ហ
អ
ឮ
ឱ
ា
ើ
ឿ
ៀ
េ
ែ
ៃ
ោ
ៅ
ះ
។
ᴀ
ᴇ
ᴓ
ᴗ
ᴘ
ᴛ
ᴠ
ᴧ
ᴨ
ᵻ
ᵽ
ᶕ
‐
‑
‒
–
—
―
‖
‗
†
‡
•
‣
…
‰
′
″
‹
›
※
‼
‿
⁃
⁄
⁉
⁴
⁺
⁻
₁
₂
₃
₆
₣
₺
⃣
℃
℅
№
℗
℞
™
℧
℩
⅓
⅔
⅕
⅗
⅟
ⅱ
ⅲ
←
↑
→
↓
↔
↕
↗
↘
↙
↠
↦
↯
↵
⇄
⇌
⇐
⇒
⇔
∀
∂
∃
∅
∆
∇
∈
∊
∋
∎
∏
∑
−
∓
∕
∖
∗
∘
∙
√
∝
∞
∟
∠
∥
∧
∨
∩
∪
∫
∴
∶
≃
≅
≈
≡
≤
≥
≪
≫
⊂
⊃
⊆
⊇
⊕
⊗
⊢
⊤
⊥
⊨
⋅
⋆
⋯
⌂
⌈
⌉
⌊
⌋
⌐
⌘
⎯
⏘
⏮
⏹
⑥
##و
##م
##ر
##ا
##ی
##ن
##د
##گ
##l
##a
##w
##i
##t
##e
##۶
##۷
##۵
##۲
##ع
##ل
##ت
##ب
##ش
##ه
##س
##ز
##۰
##۳
##۴
##ص
##ک
##پ
##ف
##چ
##n
##k
##ق
##ذ
##s
##m
##r
##h
##g
##۱
##خ
##ح
##o
##c
##x
##ج
##۸
##۹
##ى
##b
##ژ
##p
##u
##d
##f
##q
##ط
##ض
##ي
##v
##ء
##غ
##y
##ث
##ة
##٤
##ظ
##j
##z
##٠
##١
##ˈ
##ھ
##٧
##٢
##ڌ
##ۆ
##ı
##≈
##٣
##٦
##र
##ध
##म
##ा
##न
##ە
##ə
##٥
##ව
##න
##ே
##ல
##⃣
##ł
##ч
##а
##с
##т
##о
##к
##ா
##ய
##٨
##⋅
##ɾ
##٩
##ہ
##ค
##ร
##ศ
##ธ
##ม
##า
##ช
##α
##ो
##ए
##œ
##ක
##в
##ʾ
##ე
##მ
##ო
##კ
##რ
##ა
##ტ
##ი
##უ
##ლ
##क
##प
##−
##ɪ
##स
##ल
##व
##ड
##ी
##˝
##đ
##ɑ
##ʃ
##ʿ
##ɺ
##ि
##य
##თ
##ы
##г
##н
##ස
##ා
##ග
##ල
##ம
##ை
##˓
##ں
##ɦ
##ા
##ર
##ན
##ڵ
##ф
##е
##ង
##ស
##ក
##ត
##រ
##ា
##ដ
##ែ
##ល
##ប
##ទ
##ថ
##ម
##۩
##۞
##ป
##เ
##อ
##ไ
##ฮ
##ว
##ย
##→
##б
##р
##ь
##п
##л
##и
##˔
##ਗ
##ਤ
##™
##ख
##ब
##द
##ვ
##ს
##ห
##ล
##ง
##ਫ
##ਰ
##ਨ
##ਾ
##ਮ
##≥
##ٹ
##м
##त
##ʒ
##ٺ
##з
##д
##я
##ท
##พ
##น
##ፋ
##ሌ
##ण
##ज
##ێ
##ħ
##ხ
##ա
##ն
##ք
##√
##у
##∃
##ʊ
##ŋ
##ʂ
##ɨ
##ٴ
##ɛ
##∨
##←
##ʁ
##ர
##ண
##ி
##ٱ
##த
##ጋ
##∈
##ნ
##ष
##ठ
##↓
##च
##ह
##ැ
##ើ
##ខ
##ញ
##ព
##ះ
##អ
##គ
##ზ
##ב
##י
##ת
##ٽ
##∪
##ང
##ས
##ก
##ส
##ณ
##ภ
##⁄
##ʘ
##ਹ
##ਜ
##โ
##ฟ
##ต
##บ
##გ
##ც
##ε
##μ
##σ
##ι
##ς
##⇒
##ڑ
##↔
##ბ
##ɒ
##ʻ
##श
##ग
##ʌ
##დ
##შ
##∗
##ե
##մ
##ڗ
##₁
##₂
##வ
##ு
##ற
##ਿ
##ਦ
##∆
##≤
##ද
##ර
##ƒ
##ɔ
##ː
##ǁ
##∂
##ʔ
##ց
##ನ
##ಾ
##೯
##ಟ
##ಕ
##ფ
##ʝ
##ω
##ɱ
##ங
##க
##ත
##थ
##ள
##ʎ
##भ
##ǀ
##ำ
##წ
##ყ
##ई
##ೕ
##ವ
##ಸ
##ಥ
##බ
##∫
##ಲ
##ದ
##ಣ
##ڤ
##ɡ
##ʹ
##స
##റ
##മ
##ഖ
##ം
##ქ
##≡
##छ
##₆
##ю
##ᴧ
##ោ
##យ
##ន
##ឿ
##វ
##េ
##ណ
##ជ
##ਸ
##∩
##ප
##ෙ
##վ
##ღ
##ட
##ன
##ः
##˃
##ቀ
##ፍ
##⊆
##ៀ
##ᓄ
##ᒃ
##ᑎ
##ᑐ
##ᑦ
##ौ
##∧
##ʀ
##ट
##ʉ
##ж
##๐
##ڱ
##ڈ
##ळ
##ɐ
##ി
##ര
##വ
##ന
##ത
##പ
##ਣ
##ੀ
##ր
##ூ
##ப
##≫
##લ
##વ
##સ
##ඩ
##ම
##फ
##η
##υ
##γ
##ˆ
##τ
##ढ
##ˇ
##ಜ
##ಡ
##শ
##চ
##ি
##ম
##ব
##ঙ
##গ
##ძ
##ˌ
##ґ
##પ
##ણ
##ત
##હ
##ી
##આ
##ङ
##β
##आ
##उ
##∋
##ʏ
##ɭ
##మ
##త
##ʟ
##র
##ⅲ
##ƿ
##ો
##દ
##ะ
##ာ
##ရ
##က
##န
##ဟ
##င
##ဂ
##ျ
##ʙ
##ฑ
##ெ
##∕
##ګ
##∘
##ළ
##ɵ
##ය
##ར
##ο
##ॉ
##મ
##ન
##ગ
##ಂ
##ಬ
##ʺ
##ਆ
##ۍ
##ජ
##ত
##উ
##๑
##দ
##ɕ
##ใ
##ו
##ד
##ה
##∞
##จ
##ข
##ೖ
##ೂ
##ರ
##ು
##ڃ
##ᛋ
##ঈ
##щ
##θ
##জ
##া
##ী
##ప
##ు
##ం
##క
##డ
##ս
##ಳ
##ச
##ృ
##ష
##ణ
##ଦ
##ଧ
##ଆ
##న
##శ
##ర
##య
##ۃ
##జ
##ܨ
##ܓ
##ץ
##λ
##х
##⎯
##ল
##ে
##হ
##ጎ
##ን
##ደ
##ር
##ρ
##ڟ
##ո
##հ
##կ
##լ
##ւ
##թ
##յ
##∅
##⊥
##ງ
##ໄ
##ຫ
##ນ
##ሠ
##ञ
##π
##ந
##∠
##ш
##ν
##ĸ
##བ
##ц
##ஜ
##ៃ
##ด
##ڕ
##ٮ
##ਬ
##ਇ
##ผ
##ಗ
##і
##ਵ
##ƛ
##ǝ
##ɻ
##⇌
##ષ
##ટ
##ય
##ʑ
##േ
##ാ
##ശ
##˧
##⁺
##ஞ
##ɴ
##ɬ
##ড
##३
##ઉ
##ಮ
##ʰ
##ɤ
##ˉ
##ᴠ
##ག
##ហ
##ឋ
##ษ
##ʕ
##ɲ
##ɟ
##ေ
##သ
##ਲ
##ถ
##જ
##ಶ
##း
##ဒ
##ြ
##ᗩ
##ל
##ඳ
##ਧ
##δ
##∇
##ల
##గ
##ድ
##ዋ
##נ
##כ
##ᑯ
##ᑕ
##ᖅ
##ழ
##ള
##χ
##κ
##ક
##ט
##˙
##झ
##इ
##ચ
##अ
##ተ
##≪
##ჩ
##ቦ
##ት
##ۥ
##በ
##ባ
##አ
##ክ
##ሱ
##ም
##ɚ
##↑
##ਘ
##ɹ
##แ
##ฉ
##ٶ
##ҳ
##ກ
##ບ
##ລ
##າ
##ວ
##ං
##ል
##ዴ
##ې
##ঞ
##ʖ
##զ
##স
##য
##ם
##ъ
##⅓
##∙
##⅔
##⅕
##⅗
##ሞ
##ዲ
##ስ
##ക
##ഷ
##ദ
##ീ
##ৰ
##প
##դ
##ᵻ
##ሃ
##ነ
##ና
##ጃ
##ዝ
##ማ
##ጭ
##ᴘ
##ɣ
##∶
##ৈ
##থ
##හ
##ផ
##ឱ
##פ
##ট
##ন
##ի
##ණ
##˛
##િ
##ယ
##ပ
##အ
##ခ
##צ
##ע
##ɳ
##ˑ
##ቅ
##˚
##ግ
##ኛ
##ട
##ല
##ר
##ɸ
##ۻ
##ٸ
##የ
##ᴇ
##ᴛ
##չ
##պ
##⁴
##མ
##မ
##ઈ
##െ
##ٲ
##ബ
##ർ
##ਡ
##ੜ
##ያ
##ξ
##ফ
##ሕ
##ལ
##ూ
##ಪ
##↵
##⊕
##⊨
##ক
##ং
##०
##భ
##ɜ
##ɖ
##ʐ
##∊
##ש
##ჭ
##ᴀ
##ረ
##ፊ
##ഴ
##ۇ
##ਪ
##ઃ
##ధ
##⇐
##ద
##ڔ
##ະ
##ມ
##ສ
##ດ
##ຕ
##ן
##מ
##პ
##ჯ
##տ
##ራ
##တ
##ɓ
##⇔
##э
##ይ
##ᶕ
##ለ
##ਚ
##ຂ
##ʋ
##ཚ
##ঘ
##થ
##ዕ
##ծ
##ట
##చ
##ז
##ጽ
##ፈ
##˄
##ច
##ៅ
##ૉ
##φ
##ૌ
##↯
##ʢ
##ऊ
##ҫ
##ɫ
##∴
##ད
##ធ
##ਕ
##൦
##ફ
##ધ
##₃
##ತ
##వ
##ឃ
##པ
##⊢
##ɞ
##ည
##æ
##ዘ
##ዞ
##˒
##ឮ
##ଂ
##⑥
##ɮ
##འ
##ට
##ઇ
##અ
##ઓ
##ဆ
##ان
##ای
##ار
در
##ین
##ست
به
##ند
##ود
##ور
##ام
از
با
##اد
##های
##ال
##یر
این
بر
می
است
که
##رد
##ید
را
ان
##ات
##اه
##یم
##لی
##فت
##ها
ام
##شت
##ری
##اب
##ون
##ده
هم
##ول
##از
##اری
##رو
کرد
##یت
##اس
رو
##انی
برای
##زار
##وان
یک
##ارد
من
##مان
##لا
خود
##سی
بود
##را
##گر
##خت
شد
مو
##وی
##کن
نی
تو
تا
##رک
##زی
کش
##تر
##می
##تی
##ایی
سال
ال
ایر
##بر
کن
بی
##اشت
اف
کار
شده
مح
##گاه
##هر
مع
##اده
کشور
گفت
پی
ایران
اس
##انه
ار
اق
خو
میش
مس
انت
فر
##گی
##امه
##مای
##یل
##که
##اره
مد
دو
##ادی
##اید
##شد
سر
##بت
##عت
##بی
##لام
۱۳
##نی
##الی
##وز
##جه
##ورد
##اند
##به
##وری
دی
وی
ای
قر
داشت
مت
##رف
##له
##شن
مش
##عه
خبر
دست
میشود
##اف
##اق
##عی
مج
افز
او
نیز
##نگ
##ما
یا
نظ
ما
##دی
##انک
روز
##شی
مر
##وم
دار
##قی
گر
##یس
مق
جم
دارد
##توان
۱۳۹
اما
##اخت
داد
اج
تح
بانک
##شان
هر
##اط
سی
##رکت
رس
##گیر
دول
هست
##است
##اهد
باید
اد
##فته
##نده
عم
گذ
مرد
اع
میک
ساز
بخ
##ایش
کرده
##هم
پیش
##ستان
##تص
شرکت
کم
##مین
قرار
##رای
##ههای
گزار
##نامه
دولت
اقتص
##شار
اص
جه
##وع
##اک
میلی
##دید
انها
تاری
گزارش
پای
میتوان
تاریخ
##فر
##عد
نق
##صد
ری
دان
ات
##جود
##اتی
##امل
##کل
دیگر
انج
اینکه
باز
بین
شود
##خص
##شته
تول
##ورت
##هار
##۰۰
تص
##گان
اب
تولید
##نین
بازار
مدیر
##ریک
##وت
##لس
میکن
کد
##اح
اش
عن
حال
توس
انتشار
اخ
مط
##ازی
ند
پس
افزایش
کند
##اسی
نو
باشد
هزار
برخ
##رح
ماه
اح
همچ
##در
##قه
##کی
تن
میکند
قیم
##ترین
##من
شهر
پر
نمای
بد
بسی
##ادر
شه
هی
تر
ده
صن
##وه
اگر
مص
خودرو
خواهد
تم
مورد
##دم
راه
امریک
دانش
عنوان
بازی
قیمت
مردم
نم
##ونی
بخش
وجود
سه
##نا
##امی
نس
##فی
##وند
صورت
##اص
بیم
##ره
انجام
سازمان
##اور
##هایی
درصد
کنند
نظر
##خو
##گذ
##زش
##فاده
##بار
##کر
نفت
##گو
ري
هستند
##نج
یکی
##هران
بیشت
زی
باش
نیست
کل
فع
استفاده
ادامه
برنامه
##یه
نش
وز
اول
دا
##ایت
##یده
اسلام
دور
عل
##خاب
##قل
داشته
ريیس
##بال
##وا
تهران
بز
حد
اعلام
##وب
حض
##مل
۲۰
نام
تج
اط
عر
##اض
گذشته
تع
جدید
کاه
##اران
دل
روی
میده
##دا
سو
##وش
توجه
سا
##سه
چند
میر
انتخاب
کاهش
##مند
امریکا
همچنین
خار
##وص
حس
##رین
همه
افزود
##فا
ارت
##وق
##عیت
زمین
##باره
شن
##لف
##مانی
فعال
اقتصادی
مرک
##بری
##ابل
##لیل
میلیون
شب
پرو
اشاره
بوده
شما
##ارت
ساخت
##کان
موض
برگ
خر
##جی
##گیری
اسلامی
بزر
بن
##روز
برخی
##زین
اعت
##کت
پرد
وارد
نر
##دام
ملی
میکنند
وزیر
شور
قب
داده
جمه
##یا
##روش
حضور
##هن
سرمای
اند
##مد
اطلا
۱۰
گرو
بیان
طرح
بار
استان
چه
نه
اخت
وزار
غیر
##رسی
نمی
وزارت
##ینی
تیم
بعد
##نان
زیر
##ولی
##لب
ور
نب
##عات
دارند
##کرد
مشکل
##ضا
جن
گرفت
##وس
اقتصاد
سرمایه
همین
میز
جام
موضوع
ساعت
##رات
قان
منت
امروز
تب
##صوص
##ندگی
مجلس
منط
افر
##گری
علی
واق
##جاد
درباره
فیل
خصوص
تق
مالی
نشان
نا
##چه
بیشتر
ایجاد
خان
مسي
##سال
گرفته
دید
تاک
۱۳۹۶
تش
اظ
توسعه
تومان
زمان
صنعت
قط
##غی
##سته
##تما
حق
هن
بزرگ
اقدام
پرداخت
##وط
##لاح
شدن
جای
شم
بل
##رایط
##هی
گو
مان
شرایط
وق
اظهار
##راي
##ژه
##ومی
نسبت
##کار
بسیار
##اي
کنید
نفر
##ستی
مث
##ضای
میدهد
هیچ
شورای
##راه
دلیل
##زاری
میلیارد
##با
صادر
##ران
تاکید
مید
مهم
##اون
رسید
##ندگان
##مت
خط
##کس
مخت
فیلم
دریا
سوی
میان
##شنبه
بال
سپ
چهار
نیر
##ثر
خرید
بیش
##امین
کس
##ونه
##بان
میتواند
داخ
کردند
۱۲
##یمی
مب
اغ
فروش
##صول
نیاز
همراه
حوز
خدم
##امد
۱۳۹۵
##اش
رفت
##باط
##جم
##سازی
##رب
رشد
دانشگاه
فعالیت
اموز
توسط
##غییر
مشت
تغییر
اجتما
##داشت
##کاری
##اپ
خی
اساس
تنها
##ژی
##شم
مخ
##حی
خواه
عمل
جهان
کردن
مه
نرخ
##کنون
گروه
جمهوری
منطقه
معاون
افت
حدود
رق
##ابی
افراد
تمام
مرا
محصول
مل
اجتماعی
##ازه
کنیم
مصرف
دلار
##سد
گرد
##وار
هد
بررسی
قانون
بح
##یری
##بته
##برد
##ریق
پایان
۱۹
مرکزی
وا
ارتباط
پاس
البته
سیاست
توان
مست
##ویت
ترک
##سان
ایرانی
سای
طی
۱۱
##قیق
##ودی
##زه
۲۰۱
گفته
حتی
۱۵
حوزه
##گرد
همان
##ریان
نخ
##ریم
##شه
دریافت
##شر
ولی
جهانی
زمینه
##کتر
چرا
کی
##نه
هفته
اه
انقل
خاط
زندگی
وض
مختلف
شبکه
میگو
اراي
##یز
##ضی
کال
کشاور
قابل
ندارد
##ارس
تعد
میزان
حمای
تلا
تامین
مجم
##ازم
ارايه
فرد
بیمه
یاد
سب
##ندی
شک
##ابر
رای
مذ
##ایل
مسکن
پنج
ره
علا
اغاز
##بط
قبل
نمایش
##ویی
##یدا
اطلاعات
##دن
اینده
##لو
جامعه
سیاسی
اجرای
##مال
ارز
تک
خبری
##فه
هزین
کمک
عض
دستگاه
بودند
خارجی
واح
حمایت
لی
##تاب
امن
تلاش
نز
انتخابات
سط
سخ
اصلی
واقع
نظام
کشورهای
نقل
##گذاری
##عث
بدون
##ریح
حاض
تل
##گیرد
اقای
روح
حالی
فق
بسیاری
گل
##افق
پاسخ
صح
##فق
اخیر
خاطر
مدیریت
باعث
انقلاب
##ابت
اور
زیادی
دنی
حاضر
شی
هدف
##بین
##ابع
ابت
سن
امور
##دار
امکان
کو
جمله
انتق
مرب
برگزار
امید
##فاق
پیدا
کشاورزی
مقام
نیرو
##ذیر
اشت
همکاری
خدمات
جز
امنیت
عرض
سود
##گران
مدت
نخست
بانکی
##رس
##داری
واحد
عمومی
مسيول
طرف
ارزش
طریق
##اسب
##میم
میکرد
##یلات
خانو
کمی
##الب
کود
مانند
میشوند
صد
شا
##مللی
##اهم
باشند
مشکلات
وضعیت
هوا
##ستم
رییس
##صر
میدان
۱۴
لازم
##ابط
اسی
جلس
اتفاق
قدر
ارو
جوان
##جا
موس
اپ
مهر
##رت
داخلی
جنگ
اصلاح
##خانه
##هنگی
نقش
##پا
۱۶
##لیس
##اهی
##وده
##ورس
سطح
دیگری
ته
دن
##ثیر
طور
سین
غذ
هایی
بده
طول
##واره
امار
##انس
ست
دوره
فرهنگی
دوم
فرا
فوت
شرکتهای
منابع
دنبال
امام
اموزش
##این
چنین
منتشر
بالا
##ابق
۳۰
شخص
##یار
##شناس
نداشت
مربوط
سام
##هاست
##گزاری
##لاف
مشخص
##ندان
طب
شدند
یع
بع
۱۸
اک
بهره
اولین
صادرات
موفق
برخورد
انتظ
مطرح
قرارد
شع
ازاد
تسه
فی
تعداد
تصمیم
تاثیر
زمانی
پول
محمد
کتاب
عرضه
تخ
پرس
##مکن
نتی
ثبت
عملی
##صل
برابر
ارد
حم
##رفی
خانه
عب
احت
یعنی
انگ
روابط
##ایع
تحریم
پیر
مرکز
کر
ویژه
وقتی
محصولات
خانواده
شهری
##امپ
۲۵
نزدی
میخو
##ادهای
چون
##رده
##ربی
عرا
مواد
پایگاه
جو
جان
جهت
کنار
خیلی
قدرت
##الت
شنبه
حک
بتوان
حل
چی
خبرگزاری
روحانی
گست
مشترک
##گونه
##جب
سری
سفر
اض
##جام
رسانه
نتیجه
نمیت
پزش
روسی
ممکن
هو
۱۷
##بیر
معت
خوبی
اذ
##تری
شر
##طور
تف
گاز
هنوز
##ادل
عضو
کلی
نمیتوان
##قد
##کیل
##سیون
ندار
##زد
رف
فره
عرب
تصریح
##گذار
بورس
اکنون
سیستم
کردهاند
##ساز
##یدی
##شنه
خبرنگ
سوری
علیه
فضای
شکل
ضر
هیات
##صی
دهد
میگوید
##بود
تحت
معرفی
سلام
۲۰۰
لح
سایت
تس
##راین
فنا
##کو
##تان
پیام
حا
دارای
یافت
هزینه
ایت
حقوق
##حه
##ظر
سایر
##شتی
ظرف
نگاه
خاص
بودن
##گه
پیشنه
بیماری
امسال
محل
کسب
##شهای
حرف
سف
##رایی
فناوری
جریان
محد
مذاک
##مول
فقط
##یط
##اسم
ایا
عراق
درامد
اخرین
موجود
میرسد
پار
خواست
##ریف
اث
۲۴
ریال
سل
##خه
سازی
نشست
##جر
روسیه
فوتبال
نشده
داریم
##ورم
##رژی
میل
دنیا
روند
گذاری
بحث
عد
خصوصی
##لم
سالهای
روست
حج
##اتر
کالا
بناب
تشکیل
تای
ورود
امد
جاری
دکتر
جلسه
تسهیلات
متن
##اوم
محیط
##تهای
کیل
دیدار
نخو
برق
توافق
اطلاع
نیم
پژ
##عا
##عیین
##اله
خارج
عدم
صف
تعیین
بنابراین
دستور
راست
مقابل
##دای
صند
اضاف
##بران
اختیار
میتوانند
سوریه
مبار
شوند
فرهنگ
کان
##وزی
##پیم
##اورد
کسی
انرژی
نوع
تیر
تحقیق
بانکها
ریاست
تد
امده
##نت
گوشی
۰۵
##ايل
هستیم
مسیر
قد
شو
نف
فکر
اثر
##ویر
جمهور
موارد
##راحی
بازیکن
شاهد
سمت
۱۳۹۴
دفا
##هایم
طبی
تجارت
##پی
عربستان
##یند
نبود
منظ
دانشج
حساب
مرت
بلکه
تروری
جشن
##اطق
خرد
##خش
##ادث
##مه
۲۲
ضمن
کارشناس
##گاههای
سوال
هنر
سوم
##دهم
نزدیک
نکرد
عامل
مرح
علمی
##مایی
##انهای
بودجه
##اساس
خوش
##دیل
الله
دولتی
زنان
خوب
احتمال
##وبی
اینتر
لب
کوچ
##عامل
##رافی
قرارداد
رابط
کاری
سخت
جذ
یافته
صنایع
شهرد
اجرایی
##رم
تبدیل
##قق
کمتر
مقاوم
شدهاند
انتظار
پذیر
براساس
شیر
مناسب
میبا
شاخص
##رش
چشم
گذاشت
میگیرد
درص
عملکرد
بهترین
##یان
رسیده
کیف
محس
ایشان
مناطق
سنگ
ورزش
حمل
اضافه
سع
##ورش
موجب
##بانی
علاوه
مغ
##شین
پرونده
##ابد
برگزاری
حف
##فاوت
کننده
مراسم
نیروهای
استاند
##جمه
##اجه
##وعه
۲۱
کمیسیون
میشد
ظرفیت
رقابت
شاید
کنتر
بخشی
عصر
اعضای
مک
##غال
##ضایی
جمعیت
##روع
عو
نماینده
صب
##ایج
واردات
نامه
۲۳
میکنیم
##ایند
صندوق
طبق
##صاص
گیر
مدیرعامل
اعتبار
کامل
##وست
فرمان
جلو
پلیس
مهمترین
ترکیه
اقدامات
نفتی
بیشتری
فارس
همس
کنترل
زن
بهداشت
نور
شامل
سهم
مواجه
شناس
هواپیم
چین
ملت
سلامت
بهتر
##ربه
خواهند
اجرا
فراهم
مسايل
مثل
تلف
مرداد
نمایندگان
##الله
##عتی
##گوی
فرص
برنامههای
درصدی
##دین
درمان
##شود
۵۰
بینال
میدهند
استقل
اتح
عالی
##لاین
پوش
اختصاص
رسمی
داخل
روزنامه
مطال
##بات
##ماه
رابطه
حرکت
تجربه
##نو
شروع
انتقال
گردش
موق
ایم
محدود
##مز
##ینه
##طه
##سل
معامل
امر
رون
هفت
##یره
انسان
شهرستان
##ایه
##اخ
ساله
کام
محم
##صه
##شک
فصل
اروپا
##پرد
امریکایی
صبح
##اظ
ارزی
مسل
میباشد
منظور
مدیران
سیم
میرود
##ابه
المللی
یار
مخال
استقلال
۱۰۰
ارتباطات
دش
دفاع
حفظ
مجموعه
بدن
ابر
##یشه
##خواست
احس
##کننده
طراحی
##لاق
##حس
صرف
هستهای
ایس
برجام
باشیم
##لال
##لیه
تایید
##خی
مادر
بیمار
چاپ
##نگی
سهام
صحبت
لو
##چار
مسيولان
خوان
زبان
زیرا
هنگ
عملیات
کیفیت
##افی
۲۷
ترامپ
نسخه
##گاهی
نگه
جمع
اهم
تاکنون
پیشر
##سم
رک
نباید
##ظه
پایین
متح
مراج
##راف
پل
دوست
خودروهای
شهید
نخواهد
الم
فرز
۴۰
رهبری
خدا
جدی
##تا
دوران
مرحله
پزشکی
سخن
##ژاد
پروژه
قانونی
##اسف
متر
خرداد
##لق
پژوه
##کنندگان
ارسال
انان
۱۳۹۳
۰۴
داشتند
بگیر
ویژ
##قیم
تهیه
جشنواره
##باری
دهند
نظارت
##گانی
##پر
بست
نظامی
روزهای
کارت
وقت
باشگاه
تمامی
##واج
اهمیت
##رار
نخستین
##اها
همچنان
##ازدهم
هوش
##شناسی
اسیب
##يی
نگر
دبیر
##ویب
قا
کوت
تصویب
فرو
انچه
۲۶
مطلب
##عش
نیروی
##یتر
رقم
اصول
سید
فشار
وظ
تورم
پیشنهاد
##ریب
ازد
مدل
حمله
سرد
اسف
اتحادی
دخت
درست
##ابقه
ماده
ران
طبیعی
##رانی
سرو
تلوی
##الم
چیزی
عکس
روش
احساس
##کند
رفتار
##پولی
##er
سرعت
##دهی
اورد
##ظیم
پدر
دانست
پشت
برداشت
۲۸
نوشت
شهرداری
نهای
خطر
خبرنگار
مز
بسته
هاش
اتاق
ایست
علت
##یب
##مندان
##ونهای
دقی
تلویزی
تخص
حاک
##نشان
زیاد
ایسنا
رخ
فعالیتهای
کوچک
##کته
اتحادیه
تجاری
حجم
اداره
دچار
جنوبی
##اقل
بینالمللی
جا
خارجه
دادن
جمعه
حز
بنی
نمیشود
مقر
برد
مبارزه
پت
فنی
نمایشگاه
سیاستهای
##ولو
داعش
غذایی
بش
محور
کسانی
##ویان
معاملات
ازدواج
##لیت
##اصله
مشاور
حذ
۹۵
##ارکت
علوم
حادث
کمیت
معتقد
میکنم
صنعتی
امیدوار
سق
قهر
یارانه
نت
تبلی
الع
خاطرنشان
##اهیم
##افت
متاسف
شناخت
بند
هشت
##تور
پاک
بینی
اثار
بیر
شکست
##نای
انلاین
##یدن
بهمن
جد
پرسپولی
اساسی
##گار
مف
##ایر
##وین
خون
##ادگی
کره
##ظم
۰۳
درخواست
##اج
اماده
عق
گی
اشتغال
وام
##يت
خام
##تیب
##فتر
##واع
حسن
تبلیغ
بهبود
نح
باشید
دیده
متاسفانه
سرمایهگذاری
جوانان
لیگ
##داف
جذب
##اهده
مسيله
انس
حالا
انواع
نهایی
##مر
دری
هوشمند
افرادی
حسین
فار
##قدر
##ماد
واکن
نوشته
ندارند
##تو
دادند
توضی
تقاض
الکتر
چهارشنبه
استق
##تل
همیشه
ساخته
موسی
حادثه
رنگ
نداشته
۲۹
هاشمی
رفع
مشارکت
مجوز
دقیقه
##شا
خودش
کردیم
##روی
مام
گسترش
بحران
استاندارد
زیست
کیلوم
##وال
حداقل
گرفتن
##یتی
##اصل
##غل
ترتیب
##ویه
شماره
نرم
پرسپولیس
تازه
مال
اجازه
توضیح
بو
ارام
مذاکرات
مین
جلوگیری
حی
ول
مشاهده
حذف
تلفن
سوخت
احمد
مشه
فرصت
رژ
کارشناسان
میلادی
دوشنبه
اخبار
##زمان
##نش
معمول
اردی
کودکان
##حت
##بهشت
ساختمان
فران
الکترونی
موسسه
شهرو
کاربران
میاید
##افع
اردیبهشت
##غان
##پرداز
حضرت
مجازی
کاملا
مرگ
نکته
انجمن
##ادت
بلند
شدهاست
میتوانید
##کز
جایگاه
بازگ
مجموع
نهایت
سرویس
طلا
##ویس
دفتر
۰۹
اعتماد
مبل
دشمن
##خصوص
تحقیقات
##بینی
معدن
گفتو
دقیق
کودک
##پانی
##خوان
قصد
دارو
##پذیر
پدید
رژیم
۰۲
##الات
انتقاد
گیری
شاه
منجر
##عف
سامانه
##دان
##بع
ماند
انکه
شناسایی
##قت
ستاد
اهداف
اینترنت
متو
دام
مبنی
۳۵
نج
مرز
کمیته
##اسیون
بالای
دهه
قوان
بزرگترین
تقویت
وس
یکشنبه
پیگیری
سراس
غرب
اوراق
اتش
حاشی
اسفند
##انت
خدمت
اصفه
متق
##ستانی
کشورها
لذ
##مینی
پخش
حزب
سپاه
##روشیمی
##عهد
قطع
چیز
مساله
تحلیل
رض
المان
فرانسه
ناشی
##ینگ
پتروشیمی
کوتاه
خیاب
واقعی
خرو
بگیرد
##چاق
##ولوژی
برخوردار
##اهای
نشد
متوس
##کور
مناس
قاچاق
فل
##تبه
مراجعه
##ویل
رع
وح
همچون
هند
پرورش
خودروی
مامور
قوانین
محسوب
##مرک
اصل
انجا
خورد
نص
عوامل
##وتی
تاب
اولیه
بازر
سپرده
پیشرفت
##ستگی
قل
روشن
جهاد
بروز
##ریه
##تن
##زاده
وب
##سیم
تهدید
##ماند
کافی
موفقیت
##طان
##نظر
##میل
ارتق
##بور
##ولیت
دع
##مندی
جل
نیمه
نهاد
فرود
مدر
تکن
فدر
رفته
گیرد
اشن
دیر
پن
میگویند
۰۰
داست
شش
رتبه
نتایج
همزمان
ابتدای
مثبت
رعایت
واکنش
امنیتی
مشتریان
##هاش
مرغ
##لیلی
معظم
لای
موسیقی
فوق
موثر
متع
##on
بدهی
مخالف
چال
ظاه
محقق
##خته
##خیص
حو
مراکز
۱۳۸
مخاط
پیروزی
فول
لغ
راستای
اصفهان
بیشترین
شمار
شدید
ابتدا
قاب
##اضی
روان
##عده
۳۱
زد
قس
میکردند
مهند
۵۰۰
غربی
سینما
جدیدی
کردم
##ایان
عرصه
رهبر
سابق
عه
##شده
##مون
##نوان
##in
زنج
ویژگی
قضایی
روزانه
۶۰
اموزشی
##لت
اعمال
خواهیم
عین
موسس
سعی
باقی
مستقیم
هماه
تصویر
موتور
کنم
خاک
رسیدن
سپس
شمال
داشتن
##لبان
##کش
۹۰
مقای
شان
تحول
رشته
##کلی
##طی
##نام
درح
خور
##نتی
ازمای
لحاظ
جایی
مطالب
مساف
اختلاف
کشورمان
صفحه
وال
مبت
اعتباری
ارتش
ذخ
بعضی
##دیگر
صدا
۰۸
بازارهای
تاس
متفاوت
تنظیم
دوباره
نیوز
واحدهای
۱۳۹۲
##ورتی
تحریمها
یازدهم
اندازه
درو
پوشش
گردشگری
توانست
##اهند
ابی
خس
مقاومتی
گروههای
انسانی
مقایسه
موافق
هنگام
##وردین
##وقی
صاح
فروردین
چگونه
تجه
کارگرد
دستگاههای
##وي
منفی
ترد
قالب
فاصله
هزینههای
تجهیز
۰۱
۹۶
##ناد
امتی
توزی
شرایطی
حکم
مرتبط
فلس
##اوری
شمالی
اولویت
ازادی
گونه
کیلومتر
نکرده
بعدی
بخشهای
##گفت
##پایی
##جد
##کهای
بنزین
نکن
رکود
ضد
کشت
امیر
مثال
##گون
مبلغ
##راک
متوسط
##وف
مسابق
بخو
همواره
سخنگ
تاسیس
تروریستی
فعلی
##کاران
##ar
##an
میهن
گفتوگو
برتر
پایه
شهریور
اینها
##گرام
صدور
توزیع
شدت
عبار
کدام
##برداری
##روف
گرم
مشابه
بنا
تشخیص
##حل
دم
جنوب
بیمارستان
##یتهای
حاشیه
سعودی
##قهای
##وانی
##چی
مالیات
بسیج
##ونت
۴۵
تحص
بدان
بانکهای
##جان
##بندی
##وله
ارزیابی
مقامات
حرفهای
##راض
نسل
بهع
باور
پست
شخصی
تاریخی
##زا
اندرو
حالت
خواب
##تم
فردی
خودروساز
معمولا
تصا
دارایی
##باز
برسد
ماج
الان
نمود
قسمت
تض
##سون
پیشبینی
میگیر
ممن
##ابله
فرایند
سخنگوی
حاکم
حجت
##جمهور
##دس
مقابله
حاصل
##گردد
فس
ابان
نتوان
دستی
مهدی
دانشجویان
گران
ابزار
رح
وظی
قطر
##سب
رسیدگی
بازگشت
اسیا
اشتب
قوه
وسی
اینجا
##الیا
گزین
مسابقات
عهده
مها
##افظ
بازدید
گوش
تغییرات
دهم
دسترسی
خیر
سریع
تقری
##کنان
رضا
##فاف
##ریزی
ژاپ
کلان
هوایی
طل
بازیکنان
معادل
حقوقی
تحویل
##گل
محک
چهر
سبب
دیگران
تولیدی
ابلا
هیيت
واقعیت
مانده
بالاتر
سبک
منص
رسانی
همایش
بس
۹۴
##غذ
امتیاز
##وک
خبرنگاران
رد
##زام
بازرگانی
گاهی
##وبه
ماهه
۷۰
برند
##الع
عص
استقبال
مجاز
پال
##انیه
##مدی
میگذ
یابد
عبد
ریزی
مذاکره
ببین
شای
ثابت
##قاد
بگو
##داران
یکدیگر
مجمع
کارهای
متهم
##وسی
مسو
۰۷
تحقق
واب
گذاشته
جامع
تعریف
تخصصی
مطل
شبکههای
##تاح
ایف
فاز
میبین
دارم
##وید
کا
پولی
##ونا
۸۰
بشکه
##روم
##وج
استاد
گوشت
مجد
امکانات
برج
##زل
خاصی
##خصص
۲۰۱۶
میکنید
سفید
نمیکن
بازیهای
##ورو
خیابان
تی
۰۶
پژوهش
فرمانده
نحوه
دهیم
الس
رونق
نگرانی
باره
دنیای
##تح
شرکتها
لغو
فدراسیون
بهعنوان
چهارم
دوربین
رود
اذر
پوست
متوجه
نار
سند
موسسات
خروج
بزرگی
رم
کشوری
متخصص
##le
نیستند
##or
نمید
گفتگو
ذکر
##هام
گذشت
وظیفه
نویس
##بیت
##گین
##گز
دومین
##کونی
داستان
تقریبا
ممنوع
بیرون
بتواند
سراسر
فعالان
##لاک
نژاد
##اسلام
الی
##ارهای
دلایل
پا
اسراي
دسته
های
##رافیک
قضا
امضا
فرزند
۲۰۱۷
رویکرد
سکه
اعتراض
##زان
جدا
نشود
وزن
افتتاح
میی
ماشین
اخر
دختر
بودیم
##بخت
توص
دادگاه
اشتباه
توصیه
مسيولیت
سخنان
نوعی
مصوبه
متحده
غذا
ارشد
دوستان
##عود
سرپر
معل
##راتور
زاده
گسترده
##غد
کاب
##اسان
مهار
گام
تلویزیون
##قیه
پور
سرم
دیپ
##ارچ
##ارک
##رفه
باب
طوری
یاداور
رسانهها
پنجشنبه
کشف
##مانان
##زم
انگلیس
حکوم
تکمیل
پاید
مصوب
خودشان
نامزد
##ژانس
قبلی
دارید
کنندگان
مثلا
بندی
##گزین
مشغ
اورده
طرحهای
شرق
نیازمند
زده
##طر
عدالت
هشد
سالانه
تماس
مهمی
خش
ابلاغ
افغان
نقطه
کالاهای
متعد
##ویم
##لیسی
کرمان
##۲۰
حتما
تعهد
##ملل
لحظه
پروژ
ورز
دیپلم
دین
خلی
##اندازی
قیمتها
پشتی
موب
سریال
مقاومت
مقررات
کشته
قبول
بیت
سرطان
##امت
چندین
هماهنگی
گمرک
۳۰۰
نوج
روزها
##علی
قطعا
تصاویر
ناب
شهروندان
ایالات
علیر
##عب
قم
بودم
شهرهای
اروپایی
##نیم
ملل
کشتی
دهید
درون
ابراز
ماز
سامان
فارسی
سنگین
##بیه
مای
تومانی
نمونه
شفاف
صورتی
سران
رفتن
دعوت
شناخته
عبارت
##شاد
مطالعه
ازمون
منافع
الح
نمیتواند
##امله
رسانههای
##کری
مدیره
##ودگی
کارخانه
اهل
تکنولوژی
فرم
##نز
مسجد
عمده
##ارف
۹۲
لیست
تحریمهای
انگی
ماهی
##ادار
نقاط
هنری
تفاوت
##ادن
تعامل
لذا
نمیکند
مشغول
ترا
اپل
##غم
##اصر
ازمایش
##۵۰
##ساخت
##وذ
خانم
##فاظ
##سنج
میوه
تکر
پرواز
فرودگاه
وعده
منبع
##الد
مذکور
پیشنهادی
تقد
ساده
مول
قران
مقدس
نظیر
دادهاند
استرات
##ربایج
پیم
معامله
اوپ
جزيی
عضویت
مردمی
تجهیزات
ایل
زنده
اپراتور
سابقه
کانال
اگاهی
بان
صحنه
زود
روغ
اذربایج
مختل
صهی
اهن
درد
##اء
تعدادی
استراتژی
##انده
علاقه
دخ
درجه
پایت
اظهارات
لایحه
کف
توجهی
حداک
##نهای
ویت
##ناک
سک
پارس
کارگران
##واری
میخ
کیلو
اصلا
فولاد
پالایش
علم
تخلف
تند
جبه
پایتخت
اید
فساد
وزارتخانه
##امبر
روب
نصب
چیست
انتظامی
مییابد
موقعیت
عزی
سایپا
جایگزین
کمبود
لباس
اسم
توانایی
زیب
##at
سبز
میداد
جایزه
##شهر
##st
اذربایجان
پاد
صلاح
یورو
مصاح
۳۲
تبلیغات
مالیاتی
صدای
ورزشی
مشهد
میگیرند
ویر
صهیونی
قابلیت
##رض
کنونی
درمانی
میبرد
##شاه
عبور
اعتقاد
##لات
##وقف
فهر
اندازی
معروف
کاند
غیرم
##او
استخ
هشدار
##en
سالها
صاحب
بازیگر
توق
##میلی
مقدم
##ri
##احت
ساختار
نبوده
تدوین
روستایی
سیاه
هرچ
##لیف
کمپانی
##طرف
افس
حفاظ
برداری
تور
تمای
کنس
برنامهریزی
تاز
انص
مدیرکل
تعط
چر
اندروید
##هها
متوقف
حساس
عش
ذهن
بازنش
اختلال
معم
##گرم
##خار
امادگی
انگلیسی
##صورت
ژاپن
تقاضا
انح
۳۶
تحلیلی
سالم
تي
اغلب
باغ
ترکیب
##ورده
فلسط
راهکار
کارکنان
ضرورت
عقب
جالب
رساند
نان
معاونت
کارشناسی
ريیسجمهور
سینمایی
اسرايیل
۳۳
##راج
ستاره
شخصیت
ششم
رفاه
ارایه
شعار
فرام
برنج
شهرسازی
ادم
مقدار
برادر
میخواهد
تما
افغانستان
##بردی
##بوب
انف
خراسان
سقف
پروژههای
نوجوان
مربی
##اما
منتقل
مردان
خلیج
##ایف
زیرساخت
عمر
فضا
صاد
##کات
مدرسه
پذیرش
##انههای
راهن
##هاید
نقد
##لهای
##حال
اوپک
ارا
چنان
مناسبی
منطقهای
قاي
انتخاباتی
واس
۴۲
##al
تمرین
بگذار
##ندم
نفوذ
خودروسازان
مخاب
۹۳
بتوانند
عربی
دستاورد
احتمالا
مدعی
اصولگر
نهادهای
شغل
##گانه
##وهای
موبایل
قرمز
۳۷
۴۴
اطلاعاتی
دف
مسکونی
##روس
قتل
احمدی
تفاهم
روس
سنتی
##زستان
بچه
رز
دیدگاه
سامسون
حقیق
افزار
اسناد
بم
##میه
جاده
##کا
قادر
خریداری
نداریم
طولانی
محمود
شرح
راهی
افزوده
سامسونگ
تصور
ریس
پسر
شبستان
##گویی
##ضان
اگرچه
جی
اینترنتی
خواستار
##بیل
مختلفی
##حیح
هرچند
فهرست
##جو
معد
پیچ
پارک
مسلح
تلگرام
بنیاد
##قان
ایین
لز
۳۸
زند
دیروز
حسینی
پیشگیری
گونهای
هدایت
##ثری
بیماریهای
خانوار
هستم
گوگل
رادی
هستید
##مي
پشتیبانی
نقدین
حوادث
الودگی
##حتی
تولیدکنندگان
رونمایی
شیوه
جبهه
نقدینگی
خاور
حفاظت
چینی
مسوول
الحس
بیست
درحالی
صفر
نقدی
سرمربی
داشتیم
میدانند
اتی
مطالبات
یون
واقعا
اینگونه
##اتیک
##پور
الف
##رهای
باد
##es
سرپرست
سنت
کارگ
زندان
روزی
##بد
نماز
نماد
##اکی
ضروری
زدن
حاوی
پرت
قطعه
بگیرند
عجی
نبا
کالای
حکومت
##عم
دریایی
۵۵
امیدواریم
عملیاتی
کلیه
##خیر
عادی
چندان
ذخیره
موافقت
##برند
مسابقه
مهندسی
بالایی
##عیف
۴۱
افتاد
قهرمانی
الکترونیکی
مغز
##اث
مانع
سرا
حداکثر
راستا
مجبور
مصر
##سید
ثبات
نباشد
محکوم
ادبی
۴۸
۴۰۰
##بل
گندم
ناح
ایمنی
رده
تردد
المپی
معنای
ارامش
اکثر
مطمي
رضایت
اباد
بهطور
روانی
محروم
الکترونیک
وجه
ارشاد
مراحل
##لح
##چسب
روغن
##مانه
مکانی
ایتالله
اصلاحط
##جانی
وقوع
واگذاری
مکان
بارها
محلی
##درضا
سوء
بیکاری
خوزستان
##کسی
##ینژاد
چارچ
نوسان
۴۳
میگردد
اسپ
درگیری
##يین
محدودیت
چقدر
چراکه
تحصیل
یمن
گوشیهای
تشریح
سخنرانی
اصلاحات
گروهی
مصاحبه
کابینه
مدارس
شرقی
قلب
منتظر
##ویش
ترافیک
مخالفت
اخذ
خلا
صرفا
##سر
جست
##زنی
##ونومی
اژانس
تمرک
جزو
ایام
موضوعات
میتوانیم
شکایت
جذاب
چای
درک
اکونومی
##یش
##تون
گزارشی
##میر
مدتی
۳۴
مصد
بازاری
مشتری
پنجم
حقیقت
عدد
صبحانه
سرز
دقت
دینی
##جع
##گرفت
اختصاصی
فیزی
پزشک
نهم
##سند
میراث
وابسته
تال
چارچوب
نمایندگی
تدری
روستا
شیمی
خز
بپرداز
فرار
وضع
خداوند
تروریست
پو
اشک
حملات
سلاح
قدیمی
##داث
۱۹۹
##اذ
محتر
##لاقی
خانگی
مور
کوه
نگران
عباس
جزيیات
داوط
اجاره
خاورمی
سردار
بتوانیم
خودم
ایرنا
پایانی
هواپیما
##افرین
ایتالیا
خمینی
اکونومیست
۴۶
اتهام
ویژگیهای
رسانهای
##مالی
۲۰۱۵
احداث
تلویزیونی
قیمتی
صدر
چالش
##جمهوری
تمرکز
سنج
روزه
دانشجو
##گن
تقسیم
##گاری
عدهای
فرزندان
نظرات
خالی
مطالعات
سیما
##گذاران
صحیح
##ههایی
محبوب
استانهای
ناحیه
شعب
ایفون
مشکلی
##اوی
خلاف
۱۳۹۱
##انیا
الا
مستند
رشت
##وح
خاورمیانه
##ساند
تبری
میداند
بیماران
مشمول
##ستر
اوب
تخریب
گذاران
کرب
خات
روشهای
##رسانی
مواردی
حمید
محسن
درس
خسارت
راحتی
برود
همسر
روبرو
بازداشت
اشنا
محمدرضا
##ثی
سقوط
برچسب
بهار
##بوع
بلو
۳۹
افتاده
۴۷
شهادت
فیلمهای
نامهای
نجات
مظ
تقاضای
جلسات
تکلیف
ارتقای
روبه
میب
تیمهای
اتوب
جمعی
خودروها
بنده
گرفتند
تکرار
نمیده
غل
میگفت
##قیب
نمیدان
##مزد
فراورده
جواب
احتر
##دت
اداری
هوای
##اضیان
معن
انقلابی
قدم
خورش
##روت
##پرس
انداز
ادعا
##نند
باند
اطمین
ضعف
جلب
وظایف
بالات
##ارش
گفتند
پرچ
جدول
شعبه
بهای
##لاس
بدهد
لط
##شید
مخدر
##الح
طبقه
##دامی
اخیرا
پرداز
عز
متقاضیان
سد
##اخر
##قر
ارزان
قز
صهیونیستی
##عان
عاش
##ویری
کردهایم
همانطور
تسنیم
زنگ
هرگونه
پیاده
تعاون
بوی
سهامد
عمد
تسهیل
فت
##گاهها
بانکداری
سم
رانندگی
##دایی
اطراف
##ذیری
لبنان
سینمای
قراردادهای
پایدار
##کران
صلاحیت
مخصوص
خوشبخت
پرسش
اوباما
مذه
محترم
ها
احمدینژاد
فردا
حوزههای
اطمینان
وسیله
حر
##ستند
مى
دهنده
مگ
مالک
مند
بندر
اعط
داي
منع
الاسلام
ظاهر
توی
الب
##افظه
##۳۰
ساماندهی
محققان
ایرانیان
توصی
سالن
مجدد
##صیلی
ارتباطی
##ویق
مفید
قطعات
تعرفه
توانسته
راهاندازی
افریق
شدم
شوید
گیاه
ویتامین
صادراتی
##یسی
##لیم
تدا
الق
الت
لزوم
میانگین
کانون
ظریف
زم
شورا
زاي
دون
پلاس
##وکر
کت
علاق
تحولات
سعید
کلاس
استانه
نگهداری
معتقدند
تغذ
نادر
پاکستان
خوردن
##خواه
عوار
پدیده
انب
جلوی
متعلق
##۸۰
دوازدهم
درامدهای
##زایی
معرض
جبران
ادع
محاس
برده
##غدغ
هرچه
مستقل
دلاری
ریسک
درگیر
شبیه
مراق
کارگردانی
توقف
بهر
سالی
سان
کامپ
میخواهند
##کم
مطابق
سختی
قطعی
اکت
نمایند
طبیعت
دغدغ
داشتهاند
##زای
##وعی
هویت
تولیدات
##لیکی
دستورالع
تمایل
گفتم
کلم
عجیب
مرور
ایده
کارگردان
میپرداز
##شنگ
اسپانی
##ولهای
نفع
تخم
##جار
قربانی
کنگر
##يو
##رز
صلح
موقع
المپیک
نع
کاربر
همکاریهای
خطوط
طلب
اسب
روید
کنفر
دستگیر
بابت
##عاد
بشر
جرم
مهاج
حامی
احترام
استی
سیب
##حات
تياتر
۴۹
##۷۰
منح
نفس
قلبی
بودهاند
امضای
پیوست
##باف
سرقت
تروریسم
افتخار
تقدیر
مربوطه
چک
سیر
سومین
##۶۰
علیرضا
هل
##انا
##ادف
تدبیر
تربیت
نوین
##ارتی
محاسبه
اعزام
نگهبان
پژو
ثروت
درخصوص
رایگان
اتم
اتفاقی
ماههای
زودی
یه
ترس
چهره
##ستری
بدین
##اغ
مطلوب
اون
ترکی
رکورد
مقط
اتوم
۹۱
کاخ
##پین
سازمانهای
۸۸
احتمالی
نویسنده
##ویا
افکار
##راری
##اهید
په
مشکلاتی
جنس
جنسی
ضربه
##کام
انداخت
معنی
تاخیر
فرانس
دشمنان
نیازهای
اواخر
هنرمندان
امدن
سیل
تابستان
کنگره
##اونی
##ژن
اگاه
شهردار
وحدت
کجا
میافت
خشک
برطرف
##اباد
منتقد
مبتلا
کلید
امارات
دستورالعمل
##گوییم
هرگز
موان
امروزه
مطبوع
تعاونی
هواپیمایی
کری
اصولگرایان
موشک
همراهی
شیمیایی
حافظ
ابعاد
اتخ
گزینه
رمضان
خودروسازی
##اموز
۲۰۱۴
##مدت
هتل
ماموران
##as
قرن
##امون
##ay
دیدن
قرض
کنفرانس
خلق
##املی
نماید
درخت
داری
مزای
##ic
عوارض
وارداتی
لوازم
کاندید
اتخاذ
##اندن
##گردان
نشانی
الهی
تز
فراموش
الملل
لاری
##ارات
اوایل
واسطه
شکر
##ورک
یارانهها
بگذ
مخاطبان
##وتر
شهرک
بریت
##اداران
وسایل
##کتور
کیلوگرم
##میق
واگذار
بافت
حدی
محدوده
##بتی
تماشا
اکس
زخ
اپلیکی
مگر
گاه
برقرار
قايم
مبنای
ظرفیتهای
##اع
۵۱
پیشین
چطور
قول
##وران
##ردگی
##ضل
تغذیه
لحظ
##نامهای
##رضا
سرباز
خواند
محت
موضع
همانند
خوشبختانه
خواسته
##خود
حاکی
صادق
گرفتهاند
قلم
دیوان
##اشی
خواهید
##داد
اخلاقی
قالی
همت
##شتر
بازرسی
ناک
##ro
##چر
رضوی
##بند
##ابری
##ایست
سرک
مازند
پارل
چش
اتوبوس
##ستا
تبریز
قوی
اعتی
ایمیل
بید
پرداخته
زیبا
ویژهای
دندان
دموکر
نمیر
اشنایی
##یترین
شار
##یلان
نگاهی
معدنی
برداشته
تفکر
اوری
##الص
کشاورزان
مناسبت
مجه
کاپ
اعتیاد
##ct
##قات
مخابرات
##شهری
کامپی
اپلیکیشن
میاورد
۶۰۰
گذر
دانشگاهها
راحت
تشکر
ماجرا
##ایب
لند
گذار
گازی
قاضی
قیمتهای
شیخ
##ادا
##ریمه
سراغ
رقابتهای
بیانیه
##صره
جزیره
۷۰۰
اردو
نمیکنند
خودمان
لاریجانی
ارتفا
##ایق
هواداران
داشتم
روایت
نوز
مدافع
##عفر
##ضاع
سرزمین
میخوان
##فرو
مسی
استر
کشیده
ریشه
اخلاق
شرط
۵۷
##ag
##انداز
##دهمین
متناسب
۱۵۰
ناو
برنده
سرانجام
فضایی
##صاب
ادبیات
اتفاقات
بالغ
##فاوتی
مشترکین
ابتلا
مار
جنب
درستی
براورد
همکاران
قهرمان
##قیقی
تحصیلی
سبزی
##it
رست
فرس
سرخ
##عل
##۴۰
همد
داور
##am
عید
موش
میزند
##ابتی
مقرر
مسافر
دستیابی
##الهای
موانع
##لود
درام
ولایت
صنفی
فری
##خاص
مساحت
خطرناک
دادستان
بردن
فراوردههای
تعهدات
##ed
وید
گردید
میخواست
مازندران
##اطع
هکت
##کتری
بازاریابی
تمدید
برقراری
البر
پروت
برزی
##ایتی
یزد
فکری
##کشی
چربی
نوروز
نسیم
اشتراک
فجر
##ایشی
فلسطین
زوج
۷۵
قدرتمند
##نشین
مفه
میزبان
##بخش
سفیر
هج
##افز
دونالد
گفتنی
نیوی
مذهبی
ايت
گونا
نات
دانلود
شهرها
قبیل
منطقی
هنگامی
##افزار
مبادل
مترو
موزه
ژان
خطاب
غر
متحد
مجهز
عشق
تداوم
بقیه
معتبر
سالگی
##خان
عزیز
مطمين
##خره
کامی
یادداشت
اجلاس
واری
پیرامون
نکنید
مخاطب
##وای
وزرای
زیبایی
برمی
##مع
شبه
انع
۸۰۰
میروند
سوي
اوج
خودتان
راههای
هما
اقدامی
تروی
##ظف
جدیدترین
##ذکر
۵۲
والدین
##احی
نزد
کلاه
منزل
##شند
افرا
زنجانی
فراوانی
تصادف
فرانسوی
مض
شعر
بازیگران
بوش
شهدا
مسوولان
سهامداران
بهصورت
شرک
مباح
دروغ
خبرد
بدهند
شهدای
بیاید
##گرا
استانها
##شدید
نشانه
##راحت
زمینی
اوضاع
محتو
گلکسی
چاق
عک
متعدد
موظف
##فرمای
تاثیرگذار
کلیدی
نزدیکی
۰۰۰
کمترین
دانشگاهی
##روه
واشنگ
اطلاعی
دفاعی
نده
پیشرفته
جس
روستای
نموده
فوری
دروازه
حافظه
مبتنی
اموال
گن
تشویق
متعددی
کنون
مجری
##انش
استرس
اتمام
واشنگتن
امداد
قی
تشدید
ببر
##یک
پزشکان
##نوشت
دستمزد
دخالت
بالاترین
##شای
##راح
مشهور
ضعیف
امیدوارم
##ولد
قض
##شنامه
تلاشهای
##pt
بگویم
تجدید
تنگ
۵۹
خشونت
گیگ
بومی
مراجع
جراحی
کارافرین
لین
قند
انقدر
##جات
موضوعی
شیراز
بهداشتی
##حسین
قالیباف
توپ
ترجی
لندن
مشرو
تیرماه
فارغ
##ing
علنی
خد
##امع
تقل
ردی
هکتار
پدیدار
##re
##کده
##اضع
سازنده
نکند
لر
میدهیم
افتاب
##اقع
علاي
مسعود
میخواهیم
توج
فرست
میرفت
قدس
۵۳
مدرن
طلاق
بهرهبرداری
بنیان
پیوند
##کسیون
کردستان
ادعای
فراوان
امریکاییها
ذخایر
##بههای
فن
##جز
۷۲
بهد
مایک
##جن
مسلمانان
له
##شب
نیازی
##دود
۵۸
ساکن
نیویورک
مخالفان
##تمع
زیان
تحمل
##عهده
ضرب
نعمت
ثانیه
اشخاص
شویم
##اورند
پلی
برخلاف
تازگی
ژوي
همشهری
حرم
کلیک
اتمی
۵۴
##زن
##اهن
مصل
ایالت
دستاوردهای
رها
ابه
قدیم
پاری
۵۶
ايتلاف
شغ
##جایی
تان
##انیهای
صحن
تبی
##گذشت
##بازی
##بهای
##اقد
بهادار
غلام
قبلا
بنگاههای
دختران
ناد
راهبردی
بدی
ورزشگاه
منتهی
فتنه
##ذر
دانشجویی
ورودی
##احل
کاست
شدیم
معادن
##انگی
مسلمان
بستر
منتخ
ازای
برگرد
املاک
میشن
گردد
پنه
افق
##وههای
صعود
مجتمع
حیات
رنج
##فس
امارهای
اکران
##کنی
بهانه
ماست
ویند
ناخ
ایلنا
مسيولین
والی
سبد
مرات
ترویج
قبال
##سیر
فاقد
جریمه
توجیه
##اکس
۸۵
محله
ملک
بله
مربع
بریتانیا
انگیزه
##فیق
۶۵
السلام
نود
سرنوشت
الن
##یص
خل
st
بازسازی
نوبت
زمینههای
نقشه
لذت
تری
##هایش
فراکسیون
فیزیکی
مهندس
نظری
برگشت
شیرین
میافتد
راس
##وکار
##مرد
کور
##ایم
اصط
تصویری
گش
ارشی
عبدال
##۱۰
تعطیل
ندارم
میگذارد
دریاچه
اسیبهای
##لز
نظارتی
سلط
لوله
اعتبارات
نقض
استانداردهای
فرمود
اضطر
بهتری
شری
عظیم
محیطی
سپرد
بخوان
برگز
فراب
بانوان
رقیب
اسپانیا
مبارک
هواپیمای
نسخ
##قام
حقیقی
خورده
مواضع
همدان
میبرند
طرفی
شغلی
برچسبها
اصلاحطلبان
راننده
برجسته
بحرین
ماجرای
مسافران
محمدی
احتی
بگیریم
عملا
بک
##el
##یما
دانشگاههای
تبلیغاتی
کارها
وج
دیوار
الگوی
کیش
##۷۹
واریز
##امید
هرک
بدنه
اقت
دورههای
##همند
##کارت
##افل
##منستان
##سنجانی
برعهده
موج
کشید
توه
نوری
قضاییه
میساز
مدال
سایه
سار
اسمان
##ندهای
استانی
##٠٠
تخلفات
##فیف
عوض
وزیران
##زدی
استاندار
پروانه
##ماع
خودداری
##انیان
##انز
موقت
##۷۵
استع
ملاح
دستگیری
خبرهای
جنایت
کشورهایی
عمیق
چندی
گری
اشکار
پذیرفته
سنجش
سنی
الزام
حاج
نوسازی
مسایل
##جاری
##غام
##بک
##لیک
انفجار
نمیتوانند
##وانه
نوجوانان
عقل
دریای
عف
گشت
مجازات
کارگر
نوروزی
تست
کارتهای
خویش
تخت
ابزارهای
##۸۲
عمرانی
##ion
پناه
##om
اسید
باتری
مقطع
نبرد
##يیه
گیگاب
مشاوره
هدفمندی
ناگه
##ad
کاربرد
بگیرید
بارش
##نیا
بت
##ایلی
چگون
##یاری
##ol
##هاب
انگل
المانی
اقا
فرض
سیگار
لبنی
بق
ارمان
##منی
نیا
##شدن
##جیت
##طل
پیچیده
دوستی
اعم
چگونگی
تحصیلات
##مدار
تنش
تضمین
برنامهها
##کیه
سفارت
##زاب
تبریک
گزارشهای
زرد
##سنجی
##جاز
##جاست
لیتر
پیامبر
فایل
رویداد
تولیدکننده
اسان
رشتههای
متری
دادیم
چنانچه
افسردگی
البرز
شاد
##امن
امتح
بابک
##رنگ
علايم
یافتن
اموزان
فقر
ابتدایی
مباحث
زح
ترجیح
##ثار
##یمان
روبهرو
##ومه
معنا
مصرفی
ویندوز
غنی
##پو
##ایات
ایفا
##گرایی
دسترس
بارد
فهم
بررسیهای
توصیف
مرجع
اعدام
صرفه
##واز
تون
زا
توهین
شریف
دیجیت
اینستا
##راتی
اتص
داروهای
انگیز
##ویسی
اوقات
برزیل
تعطیلات
اعطای
##ورهای
۱۳۹۰
تبادل
اصطلاح
##فتی
##خوانی
حرک
خدای
مستقر
بماند
کاربری
سراسری
هماکنون
##۱۵
تحریک
مترم
محتوای
سکوت
ایستگاه
معماری
جنگل
##۷۶
پرده
برنامهای
بزرگتر
عراقی
سور
نباش
##همان
اکبر
معلم
##اوز
ماموریت
##مح
تصمیمات
معلوم
جهانگیری
##پار
زنی
ظاهرا
کرمانشاه
موشکی
پاریس
ملاق
ابراهیم
تعادل
مصلحت
بور
اله
وار
مدار
جنبش
قلعه
احزاب
کریمی
دستگاهها
تلقی
بالاخره
##وریان
کامپیوتر
بای
تخصیص
خانوادههای
دانشکده
بینالملل
۱۲۰
شناسی
۸۴
نکنند
##ch
میخورد
##۱۲
مینمای
زايران
##ot
کمتری
عط
قزوین
##پرداخت
دراین
##سلمین
پهن
کرج
۱۳۵
سیستمهای
بلاف
زودتر
اراضی
سفارش
##۷۳
##پذیری
##قانونی
دارویی
استراتژیک
خلاق
تشکل
مدیریتی
اقس
مسکو
تالار
##۷۲
##جای
گوناگون
قضايیه
۶۲
کیفی
صحت
تراکتور
چپ
##زشکی
##دهنده
##۹۰
کالاها
##اژ
توانمندی
فاط
اندیشه
اولی
شبانه
غیرمجاز
وف
پالایشگاه
۲۰۱۳
##۷۴
باران
ایرانسل
مرزی
شاخصهای
منف
##os
بلافاصله
##جویی
مشخصات
تهم
مورخ
طلای
دیپلماسی
##زیستی
میگرفت
برسان
ارک
پژوهشی
خریداران
روسای
##اسمی
##ادین
بمب
ارتفاع
یخ
ظهر
سریعتر
فرش
ضرر
اوردن
مدارک
سوز
درگذشت
میایند
قطار
حیوان
##یترز
خواندن
##چههای
پرست
مفهوم
شنیده
حب
مایکروس
دولتهای
مرحوم
عناصر
چندانی
پیشتر
خانوادهها
چرخ
نداده
نمایید
کنسرت
بچهها
اهالی
خزانه
##۱۶
ارزشمند
نکات
اسد
گیلان
رفتارهای
متولد
عرو
والیبال
صندوقهای
##۷۸
ناوگان
چالشهای
##جاع
##اهر
سیمکارت
رویترز
انگلستان
##باس
رمز
##ومیت
دیدگاههای
واحدی
میگذرد
تبصره
العالم
۲۰۱۲
مون
بهینه
##فع
ابهام
دانشاموز
لا
غذاهای
اقداماتی
تردید
تزریق
صحبتهای
توت
هفتم
فیس
مقاله
ریز
##بول
هنرمند
کوتاهی
جواد
اقایان
محض
ایثار
##وسف
##نم
##ارض
خن
رودخانه
گرایش
##۱۴
وان
شارژ
دقیقا
رادیو
عج
حالیکه
امیدواری
دبیرکل
درم
اینستاگرام
شنا
معی
منتخب
##نظ
##ورا
##۱۳
im
درج
خبرنامه
کارگروه
##غیر
مایکروسافت
دشوار
اعتراف
تکمیلی
محاسب
##تهران
نداد
##ردهای
مجددا
رفسنجانی
##مرکز
یو
##طوری
دریافتی
th
مقت
تنوع
##فروش
بخواهد
هیجان
ساعات
نمایشگر
حماس
وگو
اندکی
براین
کانادا
مقصد
اهنگ
رقابتی
پردازنده
رغم
چهارمین
استرالیا
متخصصان
ملاقات
##قدم
فقیه
##رافیکی
حامل
نوزاد
کارکرد
فرابورس
فعلا
##un
همسایه
انسانها
اشغال
دانشمندان
نمیخو
فراتر
امیز
تجربی
صاحبان
جر
تولد
میتوانست
رضایی
کاس
گرچه
۳۵۰
فلز
##شویی
غیرقانونی
موسوی
فروشی
سیف
جاس
##غر
کمال
عمدتا
باری
##هری
##خر
افرین
متقاضی
##انیت
ریالی
میلیونی
میزنند
ارشیو
یکس
۱۳۶
##کها
انبوه
پیروز
کاغذ
##وندی
میلاد
شفافیت
الگو
راهنمایی
##يید
میکردم
بدانید
##cri
فرماندهی
حکایت
نک
##خواهی
داغ
سپت
معاملاتی
##پوش
انحص
سرمایهگذاران
حاکمیت
حساسیت
##ايی
اپارت
اتصال
کارمندان
##هزار
نمیدهد
اوست
سوالات
خواهان
مهارت
##التی
کارنامه
زنگنه
بارسل
پیمانک
استعد
تخفیف
##cript
نمیکرد
کاربردی
بگوییم
##ur
یکسان
مناظ
حریف
ترجمه
بازنشستگی
جغ
مراقبت
سپتامبر
نایب
خوراکی
نتوانست
مبادلات
##ونههای
نگار
اسیایی
##کیک
تنهایی
پنهان
خورشید
جوانی
ارس
کریم
##اپی
تحرک
##زاد
مجله
ادرس
مطبوعات
محورهای
اعضا
هشتم
##age
بزند
تهمت
##سیل
پلاسکو
ارومیه
ریاستجمهوری
ضریب
سهمیه
تبلت
##هور
انکار
##۱۸
فاض
داراییهای
قهرمانان
##ذیب
فاج
##انو
##باع
استقرار
سواری
##وایی
##شایی
داوطلبان
##یلی
##et
رنو
عسل
ممنوعیت
بدست
على
میانه
تجاوز
تکیه
امری
زلز
جانشین
ایستنا
گم
صفحات
##گا
سلامتی
عظ
بیمهای
##۱۹
##ابند
دايمی
اسامی
علیرغم
شاع
اتومبیل
##حص
حجاب
اثبات
برساند
محافظ
الوده
اسن
استخدام
عبدالله
نامن
گلستان
##دل
متفاوتی
##۳۳
مرزهای
ایانا
##یتان
##نگری
ارتقاء
قدرد
بگذارد
زیرساختهای
شایسته
سیستان
##فل
خودکار
قضاوت
جانبه
##طفی
##مس
۱۹۸
عادل
بردار
۶۴
ببینید
##پس
دولتها
##وابط
برون
زمستان
زلزله
متمرکز
فرسوده
پارسی
نسبی
##الحی
##نایی
مجید
یاداوری
العاده
معیار
نگرفته
الکت
فای
##ازن
اقتصادتهران
تروریستها
قطعنامه
راضی
کویت
گردشگران
ضوابط
انگشت
ضمان
خاتمی
متولی
مسدود
هرمز
بخت
پارلمان
انتی
##شکل
تحقیقاتی
صوتی
انبار
##یای
جرای
۸۹
زیارت
چوب
اثرات
تظ
روحی
ناظر
ماندن
رقمی
مغزی
صندلی
حید
جغرافی
میافز
شتاب
ادغام
نشر
امتحان
مکر
اهواز
گنج
کیلومتری
هزاران
اندیش
وین
اصرار
سوار
۲۵۰
ون
##زیک
خانههای
معنوی
الحسن
بهزیستی
راهکارهای
ثبتنام
##ریش
##لیتهای
##us
الای
معمولی
نداشتند
##ردی
##اعد
اقشار
البوم
درحال
##سین
سیاستگذاری
بگذارید
تصمیمگیری
گزارشها
مستمر
خودرویی
زه
عاشق
##av
قه
باخت
حین
تراز
##اجد
##is
خبرگان
میگ
مدرک
##یدند
خرج
هماهنگ
ناس
##طبی
##عهای
سازمانی
ردیف
مشا
تعلق
تکذیب
غلط
میگذار
مهد
۸۲
عموم
##ac
متصل
میبینیم
معتاد
مدلهای
هاست
کتابخانه
فرصتهای
##دری
لیبی
##گویید
ارتقا
سطوح
خانوادگی
باشم
زخمی
پایداری
شایع
##طیلی
تیمی
برتری
اختلافات
##الاسلام
جدایی
نرمافزار
میشویم
##مایش
طال
##هنگ
میبایست
اگ
مراتب
اردبیل
مساجد
اقساط
##فتد
مهاجرت
فروخته
سلولهای
##عودی
کما
سهشنبه
ساختمانی
فلسطینی
مشترکان
دهها
تلفنی
ایراد
منتقدان
##منان
دغدغه
ژانویه
##شور
بلیت
##دول
تبیین
نحوی
ماس
خوانده
بویژه
اکثری
##گستری
۸۶
وابستگی
هذ
ذوب
رب
ظهور
##اسد
بوشهر
طیف
بیانیهای
کردید
ویروس
اقلام
ماهانه
##دال
منحصر
خوراک
رگ
##وتین
امین
داوری
ارقام
شیعه
عزت
شگفت
te
نقاشی
صالحی
چاه
جور
##خودرو
رصد
##اگاه
لوکس
##جانبه
قضیه
##بخ
الحج
میگویم
داوطلب
کات
فروند
خلاصه
خامنهای
تعطیلی
شانس
طیب
دس
پردیس
##اطر
سوالی
الحسنه
میافزاید
##۳۵
دمای
جانب
##۳۲
مدنظر
شام
خرم
اسکن
توانمند
بدانند
##ust
جرایم
نیروگاه
دادگستری
بازگرد
احیای
دما
بلوچ
وبس
مارس
چراغ
تث
کلین
نشریه
هدی
رسول
خواننده
ابهای
کودکی
برشم
میخواهم
##il
##میمی
حمایتی
نرخهای
##ستگان
یکبار
ببرد
اکثریت
مهلت
مشاغل
گردان
روحیه
ایمان
نوش
۱۴۰
بکار
معص
دهان
فاجعه
تفکیک
نظرسنجی
مازاد
پنجمین
جمعا
صبر
عمان
کلمه
فتح
تحمیل
یکسال
گستردهای
ضبط
##ریت
دادس
پیکر
جعف
کتابهای
رویه
##امیز
رسانده
جوی
تجار
مهمتر
بطور
پذیرفت
فناوریهای
##۹۹
بنابر
##خورد
محاسبات
تلخ
نوسانات
ازادسازی
جناب
مصطفی
میدانیم
طلایی
اسک
##قابل
وبسایت
جنج
مزایای
عمران
میسازد
مکت
بودهاست
طلبان
##پیوند
ژن
##۴۵
میخواهید
اپارتمان
میماند
تثبیت
فین
پتان
تعمیر
طرفداران
میدانید
تسویه
متنوع
استناد
اتحاد
بخواهیم
شوهر
همسرش
قدردانی
نوت
اراده
۲۰۱۱
هواپیماهای
##قب
گیاهی
همگی
ناصر
افریقا
##یدم
##الث
##کردن
معضل
عقیده
ضمانت
بخشنامه
معاف
میادین
سي
کاروان
نظریه
مناظره
##الیایی
عرص
نمیتوانیم
نسبتا
مالزی
##الدین
ژوين
وکیل
امت
##مهای
حجتالاسلام
##ولا
اشکال
بازنگری
تدریج
جزء
مری
چهرههای
پیمان
پرهی
پادشاه
اچ
موسوم
##روح
رهبران
بدهیم
##تیک
##اتل
حلقه
نخواهند
حریم
خشم
دامن
بکن
##کب
ریلی
پاسخگویی
استخوان
نادیده
ابتکار
اماری
##برگ
فاضل
هادی
مهرماه
خروجی
میباشند
محر
##اشته
ناجا
تقدیم
فرصتی
##ظی
##لند
طولان
##جهای
مثبتی
برقی
افترا
image
عام
شهروند
##وما
غذای
درخ
کسری
موصل
مخفی
لحظات
تذکر
جستجو
##۴۲
پایی
ایمی
اخراج
##۶۵
غی
اطلاعرسانی
##نوعی
عارف
##وات
میپردازد
##نید
اظه
خاطرات
##pe
##day
مرتضی
زنجان
ریزش
خبرداغ
تراکتورسازی
نرس
میکشد
##ویسد
اذعان
حسابهای
سپردههای
قوا
تاکسی
##۴۸
ارزشهای
عروس
غیره
نمک
گردن
اندک
گیم
۱۱۰
واژه
##وردی
کلام
منصوب
رسم
امپ
رایزنی
انز
جزی
ماد
انتهای
غف
##روزی
ناص
##اهو
au
بگوید
دیجیتال
پایینتر
##توجه
لپ
حمایتهای
دراز
##ایز
کشیدن
تضمینی
تجمع
احساسات
رییسجمهور
مردی
۶۸
بلوچستان
خصوصیات
طرحی
اهدا
##ig
نمیش
دانسته
##احتی
کمکهای
مطهری
پراید
امدند
محاک
##ox
فض
تاسیسات
پرتاب
گواهی
سایتهای
طراح
ریاض
ارم
جعفری
بدهیهای
نیک
احکام
ایمیلی
افراطی
##یتری
۲۰۰۸
۱۳۰
برابری
##اتوری
رفتند
##گرفته
عمق
##وپ
انجایی
بستگی
عالم
قوت
نواوری
بساز
##ثیری
##اتور
هزینهها
فاطمه
##وشی
##ir
بهشتی
##ناف
هلال
##۷۷
سازمانها
برشمرد
میشدند
سرهنگ
شاغل
دق
پیامی
اربع
اي
ازار
موت
##سازان
دیابت
مشاوران
کول
نادرست
##۶۲
##ارداشت
سپه
رج
پرهیز
مالکیت
##بالی
##سا
بدهید
اسات
گشایش
##ویض
پرداختی
##ستها
جنگی
##شماری
دامپ
بزرگر
نمادهای
تابل
##ینا
رایج
اقامت
میدانم
رسما
ایرانیها
سپاهان
بازنشستگان
کاش
فیبر
مهاجم
بروند
خورشیدی
گیگابایت
برف
پلا
ماب
کارایی
##مود
اظهارداشت
اگهی
نفره
ارای
ارزشی
تخصص
باقیم
محمول
##سک
برایش
##شکر
نخب
کشتار
سفرهای
ناخالص
متخ
دیدم
میکردیم
بص
ريیسی
##وسته
رایانهای
هندی
شوم
بلندمدت
سلمان
دامنه
نقلیه
##ولیک
تفسیر
پروتيین
##۶۹
جزیی
عادت
##اورده
br
روانه
گیاهان
فرنگی
مجروح
##پای
اربعین
خوشحال
فلسفه
##ویژه
اضطراب
##هاى
لطف
متعهد
روستاها
##انکو
جاذ
مظل
اوک
##۶۸
کلینتون
اصناف
ویدی
ريال
اشتی
##اهرات
کنکور
هیچگاه
۹۹
ناپ
توتال
یکم
مدنی
##۳۸
##يه
مصوبات
پهل
۲۰۰۰
استث
کلمات
طرحها
##عیان
##۳۹
بغد
##امده
منطق
in
جناح
گذاشتن
مجموعهای
##سانی
دفاتر
گناه
پوتین
##id
۹۰۰
پارسیان
راهبرد
ابری
صداوس
##ab
بیفتد
سیمان
فیلمی
##زر
پیامد
##ودر
##زیه
دادم
هایش
فروشنده
تسری
وجوه
هموط
مناق
گویا
مطلع
دواز
فرهنگیان
اختلالات
غیرقابل
##ولت
میدادند
راهنما
شادی
عرف
رحم
##لر
##کلت
ایرباس
انهایی
امو
برا
نامزدهای
اینچی
##ازل
اپراتورهای
انصاری
خریدار
مداخ
سینه
اساتید
محدودیتهای
##باق
اعتدال
بهدلیل
متغیر
مجت
ایند
نتوانسته
اولویتهای
شیشه
##زمینی
##ايلی
بهویژه
کاندیدا
تعدیل
اقتدار
##۴۹
پیامکی
##ضاح
تاج
خودکشی
##ستهای
ذیل
منصوریان
مواقع
جنبه
منشا
گفتن
نیمی
کامیون
##ربع
کارگری
ريیسه
##پذیرد
سپری
کاظ
نهایتا
##دولتی
نخبگان
مخل
بورسی
ونز
اظهارنظر
واع
ماهیت
خدماتی
غافل
ساختن
جمعاوری
برترین
تیمش
مدرس
ثمر
احتیاط
مبارز
ژاپنی
فش
##ضباط
مقداری
##وگ
انتظارات
ایلام
صدها
بزرگراه
حامیان
دای
عصبی
طرفین
##جویان
مسايلی
سنگینی
زور
##یمتر
اندرویدی
سمنان
کیه
##بانک
شخصیتهای
چرخه
فیلمها
دانشاموزان
تضعیف
زای
ونزوي
حفاری
اقیان
کارگاه
کاف
نامش
قراردادی
بصورت
نشدن
خب
منا
کالایی
پوشاک
وصول
##ازار
٢٠
میرسید
نوامبر
##نس
##استفاده
##فروشی
تحر
اصلیترین
الجز
جاب
##ریکی
نمیدانم
امریکای
دهی
##ذی
کاندیدای
شکلی
کرو
رفتاری
مشخصی
هدیه
نرسیده
بارسلونا
ببرند
صالح
##کوک
تسلی
ممل
##xt
##ابادی
قشر
شرکتی
بعدها
۲۰۱۰
اری
مترمک
کسبوکار
متخلف
نشسته
دبیرخانه
تعجب
زهرا
زعفر
ایفای
یاری
ریاضی
شایعات
اصغر
رسیدند
مایع
گفتمان
خم
باقیمانده
نظم
زین
مصنوعی
بدانیم
بستری
بروید
نقشی
برانکو
بهروز
اوریل
##جمله
هفتههای
##عاتی
مهمان
اینطور
سیمکارتهای
##شناخت
منظر
ربی
علل
##وام
نوبخت
وص
ظاهری
##خانی
نمیشد
جوامع
سلی
اشی
صداوسیما
رام
ناراحت
##یهای
سونی
تغییری
یادگیری
دربارهی
قراي
کارهایی
معوق
تکف
الحجة
خاطره
sh
##ولان
میرساند
دلیلی
اورژانس
جیب
۷۳
کوش
کارش
##پارچه
برانگی
بازپرداخت
تفاهمنامه
کوب
فقره
مدتها
برایتان
لات
هرمزگان
مردادماه
بدنی
دوش
پدرش
مادرید
فدرال
کارامد
##لین
##بایی
قايل
ترکیبی
معتقدم
ونزويلا
ویديو
یکپارچه
بپیوند
مهران
##راست
اسکار
اردوغان
نامناسب
##لک
##ونگ
اکتبر
##ia
فراگیر
گرفتار
فور
نیستم
پاسداران
عاط
ژنتی
##ستیک
بپردازند
معده
اینچ
کمپین
شناسه
مینویسد
یکصد
بمان
میزبانی
نصر
گروهها
سازندگان
نیت
فرید
مکمل
انضباط
روانشناسی
##اتک
رمان
قابلیتهای
چرب
الش
خاموش
احیا
قرانی
استیضاح
استراحت
ترور
راز
پژوهشهای
شهروندی
##فیه
کارگزار
قسم
دود
غیردولتی
##چیان
میشوید
برسند
##تع
دسامبر
گمرکی
قاطع
قاسم
اخوندی
فراخوان
##۲۵
سرمایههای
##هنی
شریک
نداشتن
نقص
شهرت
ماهواره
زمینهای
##کسل
حیوانات
تداب
برسیم
هواشناسی
بشود
اونس
رفتم
خواهر
پرچم
گرافیک
الخ
هیچگونه
رهن
ایتالیایی
ندید
وری
##ادله
مترمکعب
رانندگان
##انگ
۱۰۰۰
١٣
هورم
هدفمند
تغییراتی
گویی
میامد
نیستیم
دایی
فیلتر
عس
##اقت
اساسا
##مات
##جوی
میگفتند
##بوک
جانبی
مربیان
گز
حت
خواص
همهی
اسفندماه
برکن
بخوانید
فرمودند
هواوی
فیلمنامه
##شیر
##رماه
فاضلاب
##ستمی
##خانهای
ثالث
نبودن
بیند
تدار
گرانی
##۷۱
بپردازد
سرویسهای
بوجود
ببینیم
##سو
مینماید
اصولگرا
شلیک
##em
مغازه
##شمار
تازهای
مشورت
##وجه
امیری
تپ
##یدگی
۷۸
مود
لرستان
##یتا
بعید
رستوران
ازجمله
۶۹
ارمنستان
کادر
##هرانی
دیپلماتیک
۷۶
##ندر
پایش
رنگی
ابوال
تعرف
اذرماه
نکردهاند
برگزیده
بعضا
##کوه
حدودی
تعویض
دعا
سوابق
توانستند
عصرب
ابیاری
aug
تاثیرات
شایعه
عصربازار
استک
کیس
قاره
عرصههای
پذیری
پیوسته
تمدن
رقابتها
وحشت
سربازان
متشکل
مزار
روستاهای
کنی
تاثیری
یاران
##عباس
بکش
تعبیر
تار
پروژهها
##بورگ
۱۹۵
دورهای
کلا
##طن
بازیها
##۴۴
گمان
عقد
چاب
شکاف
درخش
شیوع
وزرا
بغداد
حبس
سرنشین
مسيولی
موثری
مکل
کوچکی
اینجاست
##کنه
##یدرو
##اداری
جادهای
میلیاردی
برندهای
تلفنهای
حاجی
توقی
پرداختند
##اپور
بازه
##کیا
زعفران
##صلی
شل
واض
##الس
ساکنان
مبال
گزینههای
بازگشایی
دوچر
فروشگاه
##شق
خیلیها
بیمههای
قاتل
صورتهای
اسل
صلو
راهپیم
جسد
ایستاده
هوشی
معلمان
##کین
انتقادات
چشمگیری
شکار
تمرینات
جلسهای
امشب
نوشتن
ربط
رسالت
##بای
##مره
تخلیه
##وجود
##ولین
دیم
##کف
پرچمدار
امارها
مدد
جسمی
بگذارند
پیشرو
پلت
##حسن
انگار
سرانه
august
قصه
۶۶
شاگردان
فو
معتر
متهمان
میدانی
سرشماری
##زده
فروشندگان
میبینید
عذر
ترافیکی
هموطنان
خسته
ارجاع
فراز
بزنند
##ندههای
تماشای
یاس
پرف
ریخت
##درصد
تجلیل
ژنو
١٤
داوران
سلیم
##گونی
جابه
دارا
بیاورد
بردارد
کبد
##حر
زرا
صادرکنندگان
تجربیات
##یدان
تیراندازی
خوشح
خالص
##te
محاکمه
پوند
فریب
غیرن
ذهنی
اختیارات
زنجیر
بعنوان
حاي
ict
##لان
نرخی
انصراف
الجی
جوایز
موز
##حساب
##نیوز
محرومیت
زبال
یونان
پروندههای
تسریع
برویم
عکاسی
معای
گوی
##اعت
معض
فرمول
بنگاه
##عکس
سوزی
تشی
ید
فوقالع
ساختاری
مداوم
افزاری
پاداش
نهادها
تکفیری
بارداری
##ویز
##غالی
وعدههای
نمره
سویی
بهرهوری
هلند
توط
استانداری
مکعب
##۳۶
هذه
کیهان
ازمایشی
نوشید
داروی
صعودی
رحمانی
بزرگان
خوشایند
جغرافیایی
ارایش
فعالیتها
سناری
##شاهی
منظم
شاهر
غبار
بامد
##ul
شجا
##لای
۱۳۸۹
سینا
صادقی
مایل
نامگذاری
میدهم
نجومی
زیرب
دانشجوی
##وچ
گرفتم
فوریه
نرو
تصدی
القا
کردهام
ورشک
کشی
حبی
##یع
طعم
مقامهای
##ویچ
##شکده
زیستی
##راز
محرک
میاورند
سرشار
نکردند
تظاهرات
سیاستها
سيوال
چشمگیر
۷۹
بازیگری
نظرم
اجتن
پیامک
مگاو
مزیت
تاپ
وت
جوش
موتورسی
نواز
فرق
نفری
شکسته
خیال
توضیحات
دلی
متقابل
خصوصا
خستگی
پیک
بررسیها
راجع
زحمت
غزه
##مداران
محکم
ابن
باکتری
پهلوی
نشانههای
خزر
##وود
ویدي
شوروی
سالیانه
ارژ
بخصوص
##ادمی
##ونزی
کسر
مقدماتی
فاک
کارگزاری
پرسید
اوکراین
طار
##گوار
گره
ريیسجمهوری
مکلف
پلاک
##wn
##گیل
دکتری
اجتناب
##ضه
وسط
هنرهای
##کسوت
##امهای
پاپ
##۲۲
انحراف
زندانی
علمیه
##قال
پتانسیل
بدل
text
##کول
التح
ناگهانی
##۱۱
##ماعیل
مواجهه
معاینه
دلس
##رال
خراب
نامیده
ناام
نمیشوند
فیر
خرده
سازان
۷۴
بنادر
درخشان
نوشیدنی
##بخشی
والم
افزایشی
محوط
صریح
توقیف
کردهاید
بچههای
باستان
نوار
سواحل
فرهاد
اصلاحطلب
کارافرینی
تدریس
بدتر
نمیکنم
##۸۵
لهستان
توکلی
پیشکسوت
تهرانی
لایه
دوچرخه
##مداری
درود
بامداد
قص
گیرند
کفش
##قول
##گانهای
برایشان
تبع
##جاج
بزنید
محتوا
##ملی
پرخ
##iv
عکسهای
دادهایم
بیایند
میت
بگویند
نصف
صدم
تحلیلهای
جاسوسی
معاصر
##الیف
فیفا
چهل
قبر
راهور
خردادماه
##الان
واژ
عزم
اجباری
تایل
واگن
راهپیمایی
نکردن
استودی
واعظی
طنز
مخصوصا
منز
کردهاست
ابادی
درامدی
علام
##خیز
##غه
مناسبات
نخواهیم
کارمند
##طلب
استعداد
خیانت
##پز
##رداد
استخراج
پسته
پید
زدند
##یروش
##ذب
اژ
نزولی
سبزیجات
زنجیره
##میز
توری
تاسف
۲۰۱۸
اتفاقا
درونی
##ساب
میکرو
سخنانی
گرفتیم
اندونزی
##عالی
محافظت
سطحی
##طار
گرامی
جهادی
بیانگر
سرما
اییننامه
جعفر
قیمتگذاری
##iz
ایستاد
همینطور
دادههای
درحالیکه
بیاور
نکت
بیاب
##بو
##شو
وای
اتباع
##یرت
شیعیان
گال
سلفی
بیماریها
مدام
اقتصاددان
پاییز
ذیر
جزییات
##ورماه
افزون
مراقب
بیدار
غم
کارد
قهوه
نحو
مجر
رایانه
##۳۴
کلیس
واحدها
بشار
مصاف
##لیق
فینال
ذیربط
سکته
اموزشهای
شیوههای
فرماندار
الى
دموکرات
شهریورماه
تنی
نگ
ازادر
##ساله
ایمن
##زامی
جهش
بیکار
ایکس
اسماعیل
عاطفی
مکرر
box
منعقد
مرتب
تسلیم
بهشت
نصی
استارت
مادی
نمیدهند
الکتریکی
گواه
##ورند
مطالبه
ارژانت
جلوه
صفح
نگرفت
##برت
نابود
ویل
##امدی
##۶۶
##وتا
قاسمی
وزنه
الهام
فاکتور
کلانشهر
عال
کرسی
فد
بارز
سایبری
##چیز
دب
##البی
of
اتریش
قویت
گانه
مریم
وسیع
اطلاعیه
سکونت
استح
همدلی
تصفیه
۲۰۰۳
انچ
حتى
قرايت
نبودند
حیث
ساحل
نابودی
میپردازند
##گرمی
مقی
محمدعلی
تازهترین
خواهم
میوههای
ادارات
اندی
طبیعتا
##پاشی
تعقیب
جایگزینی
##سام
استد
لبنیات
بختیاری
مداخله
چاپی
شماری
مولف
تایمز
امکانپذیر
شکن
عمدهای
درب
دراورد
ورزشکاران
مهارتهای
بشناس
سويد
حلب
##یتون
توسعهای
##نمایی
نمایشی
پان
کوچکتر
متوالی
تحلیلگران
an
کاراگاه
میگذارند
محص
گفتهاند
عبارتند
فوتبالی
بازدهی
اکتش
##oo
تلفات
توافقنامه
روال
پراک
ربیعی
خدایا
کاهشی
هیل
منچ
۱۶۰
بینداز
۲۰۰۹
ترش
براى
بحرانی
اوردند
نمیرسد
کب
پژوهشگران
نما
##پد
قرص
کالری
اجتماع
خال
معیشت
۶۱
۹۸
زار
هسته
مختص
ربات
سالجاری
شنید
شیرینی
چاقی
مارک
تها
لم
خسرو
##مری
##رق
حملون
##۲۹
ناراحتی
سلول
رونالد
کلاسی
جداگانه
حايز
##مردان
سلطانی
شنیدن
پارسال
مرتکب
##تش
انهاست
مزد
رسان
میزد
##اسط
دموکراسی
مطلق
نواحی
##یسازی
مقوله
##اسازی
##گهای
نمونههای
برایم
##وارهای
روحانیت
##وها
میفرمای
بسیجی
بدترین
تدابیر
بگویید
بخشها
بخار
پانز
##لسی
فریاد
ازادراه
حیاتی
نشین
مجاهد
کشورش
تدارک
افشا
##حاب
مجتبی
تايید
میانداز
فیسبوک
فقه
همگانی
##گام
the
استکبار
محبت
کارفرمای
اوت
نکنیم
ملاحظ
فاش
کشاورز
مصرفکنندگان
شرعی
فلزی
شدگان
احسان
تالاب
##تمام
کنسول
ولى
سادگی
یق
امروزی
ارزوی
مابقی
اسکناس
##اثر
محبوبیت
دوی
۸۷
انتخابی
تسلیت
عفونت
بزرگسال
مصالح
باق
درختان
##وقت
جمهوریخواه
تیتر
تجزیه
نشوند
دامپزشکی
پایبند
ملاحظه
امان
اتشن
تعلیق
ممت
طباط
پارلمانی
شواهد
##افقی
برو
زندانیان
منکر
قربانیان
داشتهایم
ty
##گرامی
خونی
مطمينا
##im
استانبول
حملونقل
سوءاستفاده
ترانه
فرستاده
انحصار
##پل
تبعات
واردکنندگان
جنین
تصادفات
##پوشان
تحریر
انصار
##بیان
تشک
##ايو
غیرنفتی
یهودی
قزاق
نظامیان
##فهم
ایه
ابراه
اماکن
همگان
اتهامات
خوی
دز
##وض
##وزیر
##کانی
پله
سالگرد
##ap
رانت
بازارها
قلی
شاعر
شباه
مشمولان
روانشناس
دوستانه
انداخته
نگذ
فرماندهان
کیروش
تصمیمی
بایستی
##ent
##شانی
##اندی
##سکو
##انلاین
##طانی
صی
##باران
##مجم
رساندن
عباسی
##خوش
نهاده
##غیب
جویی
شریعت
تفری
صادرکننده
ناز
بخواهند
نجفی
##مار
عاملی
فشارهای
##کیف
خاتمه
دیپلمات
تبعی
جراي
##احلی
درسی
تصرف
مکزیک
##شیان
##بیا
ازادگان
فیلی
سازندگی
دامد
میگنا
دربی
چشماند
توافقی
ریخته
اردوی
##ارستان
تطبی
ناگهان
سلطه
دوری
کلاهبرداری
##if
کناره
انعقاد
احمر
تشکلهای
افریقای
پیاز
##نگاری
هاف
بره
کالی
گامهای
خانمها
پیشبرد
##ضر
پری
sty
نشاط
ناه
##۸۹
سنین
پیامدهای
##اوین
قراردادها
مجامع
زیرزمینی
لاتین
استدلال
شناور
فیروز
دستیار
پلتفر
##نشینی
قبولی
اسمارت
پرویز
فردوسی
میبینند
حرکات
حجاج
##rc
ابادان
برن
بنز
کربلا
بوي
معضلات
دشت
قطب
کیم
اواسط
توفیق
کلانتری
فیلمبرداری
طرز
##احمد
واضح
انتن
قید
گرایی
##اصره
##ارو
خواستههای
جیم
سلطان
قن
رادیویی
عذرخواهی
##کونیوز
ببریم
محوریت
گلایه
عزیزان
type
ببینند
##اقی
داروها
میبیند
ترانز
۶۳
نداشتیم
تندرو
انتصاب
منس
##گزار
بپیوندید
پاور
عناوین
منصور
محرم
محاصره
##چین
اقلیم
شکلگیری
قدرتهای
پاسخگوی
مفاد
استعفا
حوا
##رفت
درمورد
ثروتمند
##ایقی
ختم
حرکتی
دکل
##يون
فقدان
اشتغالزایی
۸۳
روزنامههای
ملکی
خلاقیت
پیوستن
دادسرای
تیپ
شناختی
گردیده
style
##احافظ
اراک
##رون
فلزات
مسیرهای
##فون
همسای
پنجره
طرفدار
درصدد
##ادو
١٠
باراک
##۴۶
##اهری
##۵۵
سويی
پروازهای
یاز
مسوولیت
صراحت
خداحافظ
تونل
تقلید
نویسندگان
##ظری
خبرها
فیها
محوطه
جذابیت
##رها
خند
مگاوات
دولتمردان
پشتوانه
حرارت
دلایلی
المسلمین
التهاب
##are
ندارید
عبارتی
ماندگار
بام
دقیقی
##راق
۱۸۰
طارمی
عصرخودرو
کرامت
ببرید
تعالی
جانباز
محرمانه
زیرمجم
پورت
عینا
##میع
داران
میشناس
منافق
کمپ
پاسخگو
کاسپین
##هایشان
پهنای
جرايم
توانستیم
##شههای
نیج
##ut
مقصر
سالروز
##وعا
اصولی
تروریستهای
بپذیر
چیزهایی
کوچه
جع
مفاهیم
تابع
عده
الام
##یدهای
مبانی
سواد
فوقالعاده
لیزین
فروشگاههای
میگرد
بهکار
شناسنامه
اقیانوس
میدانست
بندرعباس
شوک
لیس
پارکینگ
کارگزاران
##لوبی
اللهم
حضوری
##طهای
گوجه
سويیس
اصحاب
دوگانه
ششمین
دغدغههای
انیمی
درمی
##اقض
اضافی
کهن
بروم
ناچار
##ايه
شخصیتی
کابل
باشگاههای
کیفری
مگاپی
غد
بوک
بنای
سانتی
بلا
نقره
راهاهن
##میلیون
اعصاب
##عشی
عواملی
خیابانهای
##پزشکی
##رند
اسیای
پررنگ
تسل
بهت
حکومتی
نهض
مطبوعاتی
طباطبایی
تمه
ترکمنستان
نمیکنیم
دفع
اسرايیلی
تامل
سازد
##um
رش
نکونیوز
زیتون
میعان
۶۷
چابهار
گوسف
بات
##بالله
حرفی
ادی
نگرش
دخانی
نجف
اسلحه
گوشه
ip
ظلم
تساوی
##يیس
غول
بازتاب
الدین
اهدای
صدام
بويینگ
اکر
شکم
فرهادی
مخابراتی
جلد
وک
میعانات
سرنگ
هیچکس
معین
فال
یوسف
##مادی
jav
##ضایتی
شست
چشمانداز
##پایه
مخلوط
اوی
اکادمی
اثری
برم
واکس
موتورسیکلت
روزمره
میلیونها
بازنشسته
سوپر
تحلیلگر
##ارگ
سلاحهای
پیمانکاران
سرکوب
برهم
توي
پیگیر
معاونان
دامی
خبرانلاین
بیس
میدارد
تعرفههای
##نل
مجوزهای
خیریه
کاراگاهان
شوخی
دیه
##کسلی
سایز
مصدوم
##نال
تاثیرگذاری
مسیری
تایلند
گذاشتند
نمیاید
وات
##ers
مستح
خنده
برخورداری
پیامهای
ترسیم
میرسند
ستون
چم
غیبت
باستانی
مسم
##یافت
نانو
مادرش
گریه
توم
ترغیب
دايم
انشا
درنظر
##یها
ناکار
دارندگان
زیرمجموعه
حسب
قزاقستان
##چال
گور
پیشروی
میگوییم
ايین
افراط
اسبق
ساختمانهای
دانه
سانت
نشینی
src
موضوعاتی
ایوان
راهبر
script
حواشی
اقبال
ساحلی
##۸۸
تصاویری
۷۱
اردن
کرهای
مساعد
بالق
معط
استم
ارض
بدر
am
##na
شدیدی
نیش
رقبای
تماشاگران
برپایی
##ascript
javascript
al
اسح
دشواری
وامهای
والمسلمین
الزامات
سیبنا
رونالدو
۸۱
zwn
تمیز
کارفرمایان
یکسری
بازرگان
فضاهای
وحید
شاخه
انسجام
وصل
اساسنامه
هفتهای
احتساب
تفریح
انرا
وخ
احراز
دادستانی
زخم
الک
برسانند
تمهید
بخشهایی
##۳۱
بهم
پیکان
پدرم
نمیگیرد
##راکم
ایات
بهرام
##شاری
۱۳۸۸
روده
پردازش
مبالغ
zwnj
##اقب
مشکوک
تيوری
بیژن
بعداز
گلوله
##ظور
اصولا
الات
همیش
بحثهای
بشری
قسمتهای
نرسید
##سور
بیه
##کیفیت
علاقهم
ببیند
نارضایتی
هیدرو
تلفیق
کارل
اوار
سلس
کرای
فرک
##اتا
قسمتی
بهنظر
ابزاری
ریل
سلیمانی
سوق
رحیمی
جلال
انیمیشن
کاسته
##راع
راهنمای
طوی
##رافت
محموله
##رتان
۷۷
قفل
۲۰۰۶
بهطوری
پژوهشکده
اسرایی
قدری
کارخانههای
##رج
##ژیک
گردهم
##مانده
امی
کارفر
غلامرضا
ارج
حیدری
فراری
دهستان
گفتوگوی
قرارگاه
هایشان
راحتتر
تشکیلات
میرزا
عظیمی
نیجریه
هزینهای
ارکان
مقالات
ملزم
تورمی
پنجاه
دیدبان
مهیا
علامت
ch
ملا
##oc
الوم
گارد
##واس
##اعة
##تای
همیشگی
مواز
شلو
اعلامی
فرستاد
تعاملات
فیزیک
راک
صرافی
موشکهای
قریب
دردس
۱۳۸۵
۲۰۰۷
بیرونی
معافیت
نهضت
درهم
سهمی
##ظمی
کانونهای
##کسالی
فون
نخستوزیر
هف
##ارا
جریانهای
خشن
بستههای
##زیست
غلبه
پایبندی
ذو
کوچکترین
خداحافظی
کلاسیک
ملاک
##جیک
اینک
##ورید
##تین
خشکسالی
پرنده
شوراهای
##رکاران
فقیر
ابزی
بالاست
تلگرامی
##زدهم
ایثارگران
مهاجر
##ریز
##اقص
پیشرفتهای
توضیحاتی
pro
خیابانی
##٣٨
بگذاریم
رزمند
تسلط
ناش
تناسب
حامد
میدهید
حات
لبخ
تبعیض
برادران
گلو
ارژانتین
جدیت
##شینی
بدیهی
دوجانبه
بوسی
بستن
بالاتری
گمانه
اثرگذار
سربازی
##یرانی
کلس
##بق
گفتگوی
گرداوری
عشایر
##المه
ابراهیمی
واکنشهای
##ec
##بها
حسابرسی
نمایشگاههای
صلی
مدیری
صورتى
وقایع
طولانى
یارى
رسمیت
فریدون
شیرازی
سوپ
خنک
وه
تطبیق
روشنی
میخوانید
حماسه
بعدا
اتفاقاتی
شایان
۱۹۰
ایستادگی
بدهکار
مبلغی
ارمغان
خنثی
##مخ
غرفه
گاو
ایرلاین
۱۷۰
عاشورا
موجودی
مرتبه
تندر
مطلبی
تام
اسفالت
باطل
دستکم
##ow
مسلم
طالبان
الکل
اتک
مبادله
هستی
داستانی
##۶۴
سیت
علوی
##ارشی
١٤٣٨
سعود
تمت
سندی
مصارف
لیزینگ
عموما
الساعة
##پن
پوشان
۹۷
بداند
نمایان
##رع
بکشد
اسحاق
درواقع
ماری
##شدت
حرفه
##ضعف
بوسیله
ولیا
##وزان
پیروی
نویسی
کارمزد
مزمن
اعظم
تحلیف
##ادهاش
فلان
ثامن
مینی
وسعت
بتوانید
دوربینهای
لولیک
نداشتم
استمرار
تکان
الد
##اشق
سون
مکتب
نگاهدار
شیطان
کرم
زایمان
کپی
سامانههای
واقعه
خیابانها
##امیه
ایدز
زیبای
برکت
دلیلا
وزش
قرعه
گردانیده
بخاطر
پدرانش
##سترول
مستمری
استادی
نشری
سعودیها
##نون
خطرات
۱۲۵
حرفها
طویلا
رسیدهاند
جما
##ht
وضوح
نباشند
حافظا
دهندگان
میتوانم
لیم
صلواتک
متمای
##سوزی
طوعا
پسران
مدی
ابايه
قايدا
کانالهای
مملکت
ناصرا
غیرمن
حجتی
ارضک
ساعه
میبر
##مرغ
بیل
مزارع
تسکنه
اعتراضات
تمتعه
##جواد
اولا
##ردن
یارىگر
چشمان
باتوجه
خشکی
ارسالی
##طاف
تفحص
دشم
پرندگان
نشاندهنده
نسخههای
مظلوم
حلال
التحص
گرس
کماکان
کمکی
ویرایش
ازم
خرمشهر
نامههای
کالیفر
اکتشاف
مادران
دقایقی
دشمنی
##ضار
نسخهی
عنصر
##۰۰۰
اموخت
##der
بزرگداشت
شرکای
زحمات
سلیقه
خبرداد
جالبی
شهرداریها
بردند
القاعده
##افزاری
##فرست
بودهایم
خطا
کلسترول
بیگانه
هجوم
اینباره
##فان
##۹۵
سوره
بری
نشستی
##سمه
ساعتی
مزبور
سیا
##رسمی
شهرستانهای
اپراتورها
یافتند
توقع
تدریجی
نشدهاند
مصادی
دک
##باتی
یکباره
کلاسهای
وم
مایه
##ینت
تاریخچه
رزمندگان
فراوری
جمعیتی
ذرت
جاذبههای
ad
سنا
تهدیدات
مقیاس
تیز
ir
پاش
##انیاهو
میخواند
معابر
ترمیم
خاند
برپا
جنتی
سوداوری
##تاژ
نامی
##مانیوز
محصولی
تانک
##کوس
غالب
نمیتوانید
انا
فصلی
شیل
ايمه
##ادات
مطلوبی
##طری
متاثر
نتانیاهو
مندی
ستار
تابستانی
پایگاههای
هفتمین
کلسیم
فولکس
مخرب
حمیدرضا
شمانیوز
اهتمام
الص
الجزایر
محصولاتی
شاک
##دنبال
انطور
مزاح
نصیب
مصداق
قاشق
مستضعف
فح
بالقوه
رواج
##جامد
بهرهگیری
راد
کاپیتان
سرپرستی
##فای
هافبک
پراکنده
رنگهای
بپرس
تکه
غفلت
سلسله
شکوف
بلوغ
راهحل
قانع
باقری
بیمهها
جلیلی
میدید
پنالتی
قاعده
نزدیکتر
اطرافی
قیام
۲۰۰۵
امواج
##۲۸
شعارهای
هفتگی
بخواهید
درامده
سپردهگذاران
طرفهای
همانگونه
##ارگاد
وانت
کیا
##هابی
حذفی
لن
کاشان
ورزشکار
روشی
رازی
بهدنبال
شوراها
صمیم
انکارا
##ولای
وسیعی
ملتهای
پیگیریهای
اشتباهات
وضعیتی
##مارک
حرام
افرینی
توانمندیهای
هجری
##ارند
پلتفرم
پولشویی
مقاد
مضر
امضاء
##ینامه
ناتو
فازهای
##گونهای
تشییع
برمیگردد
خسارات
اپد
##اکت
نیفت
لقب
گرمی
فرانک
جنگلها
حاتمی
سفره
زنجیرهای
بیاورند
چادر
معطوف
##یمه
بیای
شریان
##یتور
سیار
مجسمه
جعلی
سعادت
دخانیات
##گردی
##ation
بادام
##وساز
دفترچه
ندهد
اعداد
##خانهها
استعف
موفقیتهای
##نانی
فلاح
تجویز
##ایتد
صیان
##ber
##ين
##نگام
تفاوتی
بهخصوص
باورند
غیررسمی
##خاری
اقوام
on
مسیحی
شاخ
نمیتوانم
اگز
لیبر
متعال
خطی
بهز
پنیر
زباله
محتوی
انتشارات
دوازدهمین
فوتسال
میوهها
##گور
بشک
تیره
علامه
##ریا
pl
پاکسازی
مذاکراتی
خلبان
اندام
دربار
لنز
ژنتیکی
ژويیه
۲۰۰۴
کمر
باقر
پرتقال
انحصاری
میانی
ap
بویر
بافتهای
##۲۶
علاقهمند
ماهوارهای
همسرم
خص
تحمیلی
حزبی
پخت
۱۵۰۰
تراکن
کربن
حدیث
مصادیق
مشروط
متعادل
دگر
صنف
سمی
ریو
ios
منوط
زاویه
بهدست
میپرس
الومینی
مقاطع
##کاب
عنایت
سازوکار
اجماع
سازماندهی
دره
میکرده
همدیگر
بها
مقطعی
پادشاهی
ایندهای
تویوتا
هیاتهای
##نظامی
رسیدیم
ابو
بنگاهها
##اجی
فرعی
دیوید
رفتیم
بارندگی
##طو
##ظهر
تشریف
حداکثری
موازی
فرایندهای
siz
غریب
همکاریها
دمشق
پیراهن
اورند
ترب
هورمون
##نجی
گرامید
سایتها
پرسنل
ناتوانی
##جت
رحمت
غلات
انتقالات
بازمی
##بستگی
گرامیداشت
میسر
تلاشها
##گیلویه
بهرهمند
شهرستانها
ویديویی
##۳۷
تنفس
##کاس
لاغ
تکنیک
سپردهها
بایر
بریز
تاجیک
مهاجران
سنگاپور
مزایده
سوسی
نوکیا
غرق
احوال
نکتهای
##عار
پژوهشگاه
راستی
کهگیلویه
دبیرستان
امدهاند
##od
تفریحی
جرات
مهدوی
بازهم
نمیبین
بوت
##ax
نوید
بالاد
##باشد
رشدی
##and
##ارن
منافقین
جایگاهی
اصولگرایی
جستجوی
کریست
هک
هکر
سحر
شباهت
چسب
روزگار
محوری
نمیدانند
کوثر
##کوپ
##سن
##لزم
مفق
استن
احتیاج
انتح
پژوهشگر
ترکیبات
انچنان
بودید
مکالمه
برداشتن
اندازهای
خانوادهاش
بنیادی
گردشگر
شیا
ترانزیت
تسلیحات
سگ
یور
نط
خودکف
ناپذیر
ناي
اوردهاند
##ثال
پوستی
براورده
معتقدیم
سرمایهای
تخمین
##اطقی
معتادان
شیشهای
شرو
انجمنهای
شرکتهایی
مستلزم
انعطاف
جنجالی
گردو
##اتح
هیلاری
بازده
مقدمات
جستوج
##مم
مگاپیکسلی
رفاهی
##دو
سیگن
توابع
ندای
هفتاد
مجموعههای
خودروهایی
میث
عیار
##صدی
بوس
سازگار
تعویق
حوزهها
گونههای
ازبک
##فترین
تعز
کالیفرنیا
کمدی
رایت
عجیبی
عضلات
شهرام
سرور
احساسی
وحشی
us
تره
خودکفایی
نگارش
هیوند
شص
کودتا
کتابی
خصوصیسازی
برعکس
##ارب
##شترین
عهد
##رید
حفر
خانوارهای
افتتاحیه
هت
صبا
اشار
قضات
صیانت
رویدادهای
بدهم
جابجایی
نیامده
جنبههای
##خاطر
##قادی
ویدیو
۲۰۶
بیمارستانهای
توییتر
اذیت
##گیرانه
جنجال
سرگرمی
تقدم
پوشیده
##الو
جادههای
دربر
خاندان
##وزه
همکار
حمام
دانا
خرس
مستقیما
##فسی
##اتو
##۲۴
۴۵۰
روندی
##حد
کیلویی
مصرفکننده
توافقات
زاد
وادار
اسباب
مرج
مطهر
اتوماتیک
گواهینامه
ندهید
جسم
نامزدها
##مربع
گردهمایی
قارچ
##تنها
نتیجهای
بکند
ادمها
نشانگر
##قیمت
گفتیم
##فول
نکاتی
بمباران
رزرو
حسابی
عارض
##داع
تفر
بلی
##دینگ
زبانهای
کاشت
##انسور
توصیههای
اسپانیایی
هالی
اسراییل
مکانهای
مرخص
##فرد
##یاش
##مداد
لباسهای
نها
##نجان
نای
انتحاری
حکمی
طوف
استخدامی
ثان
مرو
##وتو
ارمانهای
موکول
حول
ارکستر
عصبانی
محافظه
##ماعی
مسافرت
مستندات
##باب
##ce
##۱۷
پهپ
لطفا
کیست
نتواند
مونی
شکوفایی
دیدگاهها
مشترکی
۲۵۰۰
افشار
ورشکستگی
سرمایهگذار
##گفته
بازجویی
بذر
دعوا
مرورگر
زراعی
سالهاست
بحرانهای
قشم
شج
استوار
بچ
محمدجواد
تبعیت
ببند
مکه
جنایی
بازپرس
دایره
معصومه
نیسان
مناطقی
یابند
##تاپ
##فری
دیدیم
تواناییهای
نیروها
کشتیرانی
##بن
میتر
میهمان
مومن
زیرساختها
هدر
##فیعی
هیچک
اواز
پاي
پم
روشنف
فراغ
cl
فاینان
اپدیت
اکو
ادب
باردار
شاسی
کاندیداهای
وثی
پولهای
لینکی
تراکم
##نمای
بزرگسالان
پسابر
تجارب
گرمای
شکلات
علاقهمندان
التی
شهیدان
مالکان
خانهها
پرداختن
الج
ربطی
تخممرغ
جیمز
##ایری
هرکدام
چینیها
بعث
عیسی
فداک
سرف
پرک
کندی
##يومی
افزودند
لبخند
کردی
share
بروج
سالیان
مسيولیتهای
انتقام
تریب
##تومان
مقد
موعد
اخباری
##گم
تقابل
##محمد
##یران
مراسمی
اعطا
اتکا
بیستم
بالینی
ذرات
پش
جمشید
نیروگاههای
نامزدی
دیماه
حزبالله
##ستقیم
رجب
##ويیل
پیکسل
ناامید
میپذیرد
تربیتی
کامپیوت
لمس
##per
لینک
ازمایشگاه
گرما
مفت
افشای
منطبق
مخزن
یخچال
الرح
میدانستند
بندهای
هشتمین
شماست
مبدا
پرطرف
اضطراری
عادلانه
معار
##ءالله
ایدههای
##امک
دلالان
ذی
سناتور
دیداری
de
قاعد
گیل
خونریزی
کیلومترمربع
##ضم
لوح
محمدباق
تحسین
ابط
مغذی
پیشنهادات
مذهب
واجب
نروژ
مقدمه
##عهدی
خاصیت
میخواستند
شیايومی
انضباطی
چارهای
##ابهی
پویا
##بورد
نشستهای
محیطزیست
کیار
شانه
یاب
بادی
بیمارستانها
##ته
موهای
قوای
برخوردارند
re
ساعته
بعضیها
##ak
مقادیر
##۶۷
مرسد
جنگلهای
##ادیم
بزنیم
کفایت
تنفسی
استعفای
متون
مصاحبهای
رهایی
بلژیک
اکسی
شف
۱۰۵
شدهایم
مصدومیت
کاندیداها
پاره
زوجین
چیپ
ابلاغی
پاسخی
مرتفع
حکمت
کمرنگ
محلات
اگو
##واپ
برسانیم
اهر
بسکت
سیاره
کوتاهمدت
قله
##ودن
گازويیل
متحدان
معیارهای
سرگرم
##پیک
سنسور
hd
نهتنها
کاظمی
برنز
وارده
دیدنی
انی
پایانه
کارگاههای
دبی
اطرافیان
##سهای
نوشیدن
فتا
گیت
##ادری
##خل
نهی
افتخاری
طلبی
روسها
##نیک
سختتر
نگیرد
بخورد
اعتقادی
سج
##بودن
نهادی
تریلی
منعکس
دزد
هول
دهمین
ژنرال
۱۱۵
پستی
گروهک
خارجیها
فشرده
##ستیکی
##خواسته
سرش
طبقات
چاقو
قدمت
کارخان
غیرمستقیم
نهمین
اثاری
مات
خواهی
لیتری
##امیک
en
موردی
##اکو
اسکان
شرب
ادمی
ارش
لحظهای
مغایر
میگیریم
ضعی
##ناع
مهرداد
مسیح
##جانب
خانوارها
##اندر
مطالبی
پداف
شریعتمداری
نیافت
##کشاور
یادداشتی
حدودا
توام
##الیز
تجمیع
الکس
اتشسوزی
##مص
خوار
##راب
رحمتی
مسلما
نتوانستند
ناطق
##۴۷
پرطرفدار
ارزانتر
انجامید
ارزو
نوجوانی
بلوک
دوام
##بیری
##۴۳
نمودن
دارنده
کیارستمی
گروگان
متکی
##تاج
محافل
##روين
سده
محمدباقر
مرزها
لپتاپ
##هنر
تقلب
فورد
صورتحساب
مادرم
محکومیت
گزارشگر
جعبه
##یدر
پیرو
پایینترین
فرکانس
۱۳۸۶
قلمداد
توطيه
کمرب
##بودی
پیمانکار
بویراحمد
گله
مبتل
##کشاورزی
##کیم
افتادن
معرو
##وقیت
لاک
حرمت
تعلیم
گذاریهای
ضای
خرما
خج
شامگاه
انه
علما
ارگانی
معکوس
ادمهای
شصت
بسزایی
گلهای
شورایعالی
صدد
روایات
نشریات
رویار
##op
بازدار
سردر
١٢
شجاع
نگرانیهای
معارف
داریوش
میس
بتوقیت
مایکل
مکانیزم
غرین
کودتای
مرس
ایسوس
تعاونیهای
سیاستمداران
سفری
بعدازظهر
کنف
##اقعی
رجایی
سودهای
مولد
غرینتش
واجد
خواستند
درهای
فارغالت
عث
حریق
لیوان
دفن
تعمیق
نمیرود
غیرع
همای
وزارتخانهها
برلین
##امو
##اریهای
نمیداند
بصیرت
بهمنظور
نمایندگیهای
##اسبی
##یسم
بزرگوار
ناامنی
انگاه
فطر
خاد
کبیر
تکنی
وطن
تقی
فاینانس
برنت
بهشمار
ادعاهای
یکهزار
ناکامی
نارس
پکن
ندان
شهاب
نهادینه
دیدارهای
ایستگاههای
۳۰۰۰
مساوی
##یرات
درگیریهای
بیتوجه
شیب
موافقتنامه
اکسید
سکو
برانگیز
ارتفاعات
کنج
میکشند
بوستان
اردوگاه
امثال
خلیفه
حکیم
موبایلی
صندوقها
دستوری
مبه
##میلیارد
##قانی
ناشران
مصب
درای
##ov
تهاجم
##ter
مرسدس
##وسازی
توانستهاند
بقای
مشوق
##وره
##لن
گرافیکی
جزایر
شکنجه
داراییها
##هره
بهخاطر
##نر
مکات
se
جایز
بهگونهای
شهرکهای
##بزر
لشکر
محف
امتیازات
هاى
##راتوری
مخازن
۱۲۸
مترمربع
پرا
ربا
۳۶۰
حبیب
ستد
اقل
توانمندسازی
قویتر
کابین
سرطانی
رساندند
##رغ
منوی
صدی
مقتول
مشابهی
قایق
احاد
شکی
##الیسم
##پزش
همسرتان
##ضوی
پرتغال
com
##ra
ارایشی
پسند
خلال
ریزگرد
دستان
ستایش
ممان
ابهامات
مصری
صداقت
۱۳۸۷
رحیم
نفرات
چالوس
الگوهای
بوم
٢٠١
##روید
نمایی
کجاست
کاراک
چمران
##ونتهای
##ترینگ
شاکی
پاوربانک
جماعت
پسانداز
ویزا
##۴۱
برکناری
منج
بزودی
روحانیون
##هان
##ونیک
دادهها
ازبکستان
gt
زاهد
حاملهای
کارلوس
صاف
شخصا
عروسی
رویارویی
اینه
منازل
لیز
۱۲۰۰
میشه
##فروشند
نیکو
راند
ناسالم
حبوب
##دیده
##انگیز
اسانی
چهارمحال
دلخواه
##اهه
کارخانجات
یزدی
چار
میاند
میطلب
حوالی
هیچکدام
محسنی
احضار
شمس
##راژ
لابی
بالگرد
قمری
##امبورگ
شکستن
بخشیدن
الزامی
انداختن
مقا
منشور
##گرای
تندیس
سرس
متحمل
زمینهها
حش
بمانند
سلب
عینک
روزنامهها
اینچنین
الحاق
فایلهای
عروقی
ماموریتهای
هریک
هیبر
حومه
##خون
افزارهای
قاط
سررس
باهنر
اطلاعیهای
غری
امدادی
##ie
نماند
پنجه
جعل
خیره
صادره
منصف
عازم
استعلام
مصدق
حقوقهای
میلیمتر
زر
بسکتبال
حضورش
شمسی
۲۵۵
##one
حیدر
بنشین
هندو
طیور
جریانات
اسمی
جنایات
پات
معناست
تکنولوژیهای
المن
##۲۱
زیربنایی
معترض
تشن
تیل
برگزید
بودجهای
ساند
میاندازد
قطری
مزیتهای
کشم
فواید
ین
قواعد
##ess
جولای
##اریها
پیشت
ترخیص
صهیونیستها
بهسازی
دیگه
مستق
ایز
دانههای
میمان
انعکاس
تجرب
##اهلی
ندهند
سردرد
هموار
استادان
##لوت
معاملهگران
فاسد
کارگیری
خیز
مقص
تحق
بدلیل
گازهای
وبلا
تیمها
ساری
هلدینگ
شاهزاده
محبوبترین
غار
تبریزی
وثیقه
الومینیوم
نیمکت
##بنی
##جستان
##شیند
جوجه
عت
دستورات
مقیم
مونیخ
##پول
گلزنی
سالمندان
ممانعت
##انیوم
پرتو
اسکات
مندرج
قطبی
طوریکه
##چرخ
ایدي
##په
##باد
بنیانگذار
##ويید
اگوست
##بیسی
میریز
متذکر
استف
پیچیدگی
##اسر
مارت
یابی
سخنانش
##۶۳
اشپز
##هد
تقلبی
توده
مندان
##ادید
حلق
فارسروید
عقاید
##کرده
بازیافت
##سمی
طاهری
le
جنگهای
موادمخ
لیسانس
مسلحانه
مبتلایان
##og
اموزی
##فیقی
فراغت
گزارشات
برگه
مدینه
برکنار
ضخ
اسطور
لاست
اینقدر
##مینگ
##جنگ
دوحه
##ینیا
نوزادان
زمانیکه
جری
اشراف
##۹۸
انرژیهای
تمایلی
همسایگان
##رسان
یادگار
سرشناس
رامین
جادهها
##گیرند
غیرنظامی
##ont
درسال
هیي
کاظم
مشهود
بلوم
بهن
اسایش
یونسکو
##زلی
مفاسد
##زمین
خودی
کنفدر
##گیز
موادمخدر
کروم
عکاس
##ip
##فهای
مفهومی
زمز
دوازده
ناظ
زغال
ولو
ترف
سیتروين
فیلترینگ
##ولوژیک
اجر
سویا
تسهیلاتی
پسابرجام
پوی
##نویسی
۲۰۲۰
جایگاههای
کیسه
پرور
لکه
یادشده
مودی
##فتگی
همبستگی
شلوغ
نشستن
تکامل
پارچه
داماد
##وژ
اکسیژن
مرتضوی
شاهرود
گود
معصوم
اصیل
فرقی
گالری
خوشحالی
دخیل
ناچیز
ساق
##سوی
تمهیدات
عددی
اینجانب
عکسها
غدیر
راحل
کیفر
تاجیکستان
گفتار
at
##انیها
##عة
##استه
نمیباشد
تحقیر
رکن
پاسارگاد
بازگرداندن
ناخواسته
تبیان
وزارتخانههای
اصالت
علیزاده
##ge
مستعد
ویتنام
عطر
ظرفیتها
نشدند
##فروشد
##خارجه
##کال
##خشد
##بردار
ماشینهای
فرارو
##لوان
فولادی
بهوجود
اشغالی
فرمانداری
ستارهها
فرزاد
شاهین
جامعهای
نمیتوانست
مرده
یگان
عصبان
کنفدراسیون
ازمایشهای
کتابها
زدایی
ناکام
همسو
##خبر
جهادکشاورزی
ترمز
نقشهای
خمیر
نابر
۲۰۰۲
اسماعی
سکان
انسانهای
دهقان
گلی
غیرمت
ویلی
مفصل
۴۰۵
جانی
تفاوتهای
اختت
##قدس
جلالی
دلم
میرویم
دیتا
لازمه
##یتم
انار
##افرینی
فلف
شیلات
منتظری
##اخلاقی
ماهها
شریعتی
میکنی
خطای
سرگ
ph
اخوان
لق
موتورهای
کارشان
سجاد
اسنادی
##صار
##زدایی
نسلهای
یقین
is
سموم
##ابعالی
شبکهها
وگر
##حید
فروپاشی
محدودیتها
محیطهای
sp
##زید
خوشحالم
حراست
ابرو
فارغالتحص
ضل
٢٥
کامپیوتری
##بس
مهربان
رفر
عکسی
##انسی
مسافربری
سرت
##۶۱
هوشیاری
گمن
تنبیه
رویکردهای
ne
جنابعالی
##دست
مطالعاتی
نشانهای
گرگان
##bc
دیدند
اکبری
داره
برنامههایی
to
قلیان
عظمت
##کیو
اشرف
املی
##کسوس
بالادستی
داعشی
##مدیره
لغایت
ادرار
اشباع
موقعیتهای
گریبان
انفلوان
فراموشی
جسمانی
نصرالله
رن
مضا
نمیگذ
بهزودی
امتیازی
مولفههای
شکوه
ارزشها
خوشم
رفتهاند
بابا
طراحان
درگاه
دختری
دهههای
تاریک
تهیهکننده
١٥
خودت
دموکراتیک
اسیر
تقویم
سهولت
هوشمندانه
بیداری
میدانهای
##البا
بیمارستانی
##گس
افریقایی
سهامدار
شفق
ریه
کارخانهها
ماجراج
اظهارکرد
میفرماید
##پسند
میلان
قدیمیترین
توازن
نمودند
##حمدی
ذین
هرحال
سول
##اهل
##چهای
##اموزی
نباشید
ارتکاب
لطمه
شهرزاد
هواپیماها
عزاداری
##سالی
ولیعهد
##جید
روزنامهنگ
##جاب
مشکی
تحکیم
سمند
امریکاست
##ومنین
رتبههای
پورشه
تلاشی
##ورزی
عواقب
##طح
تنظیمات
##گیران
دادسرا
نهاوند
استحکام
and
منسجم
##ناس
تونس
سهامی
رتبهبندی
الر
##اهره
همایون
معوقات
فرشت
دقیقتر
مدافعان
تکراری
علاقمندان
نیامد
##ادیمیر
پدافند
جانبازان
پروسه
##ine
وزیری
روستاییان
فرمایش
گنبد
بکارگیری
چاره
رفتارها
سررسید
بخشد
مبادلهای
غالبا
پروین
سودی
اپلیکیشنهای
قاجار
##نهایت
مهندسان
##اخته
استقلالی
سرل
##جنوبی
مصمم
زندگ
حیاط
چنگ
##ینو
وزنی
دکمه
میشناسند
عارضه
کهنه
بستهبندی
خانهای
وگرنه
علمای
بقایی
اشتباهی
##fc
قوم
##شدگان
گوشتی
استارتاپ
##خوری
دکترای
۷۵۰
کاملی
صنای
دیکت
مبین
الاینده
درع
پرداختهای
un
گفتههای
حدس
انصاف
کارگرو
داشتید
sizing
##الحس
میشده
نزدیکان
واکسن
بینندگان
بهنام
ملوان
داستانهای
دستش
قاچاقچیان
##ob
مضاعف
پورم
حصر
بپردازیم
##رسون
##یدهاند
روشها
لف
پلیسی
مفقود
##رعت
باج
کاشی
خسارتهای
هیجانی
کارافرینان
ht
##اهدی
مداح
جهر
اسماعیلی
##وفی
براینکه
##فین
ولادیمیر
اژهای
اجزای
امیرک
گرجستان
ناقص
سوگ
موردنظر
دستگاهی
بدو
اختتامیه
سروش
چالشها
سوژه
دقیقهای
بلندی
مبارکه
دایر
۲۰۰۱
بازیکنی
میخورند
قضايی
منتفی
کتبی
##ازون
۲۲۰
ابزیان
مبنا
نمیداد
عروق
دانشمند
مسيلهای
اندازهگیری
مبارزات
##ack
اسکند
##ard
گامی
سیستمی
گوناگونی
##ort
جنگنده
اثرگذاری
اذری
فرصتها
##لفه
دیجیتالی
زنا
معج
عی
تهدیدی
بهجای
بگیرم
متنوعی
حیط
چیزهای
اختلاس
بایست
استودیوی
انهم
سپاس
جواهر
مکالم
دانستند
##جمی
هار
##ps
عینی
وکار
بنیادین
تماشاگر
ساعتها
عبدالع
مسافری
چرخش
مقاصد
الایندگی
فلفل
رومینگ
عاشقانه
عصبانیت
مزر
اقامه
متولیان
پهپاد
مادری
بشن
ضربات
##۲۳
مرادی
##پیشه
ناهنج
اتاقهای
بایرن
پروتکل
انگور
##جلس
##کنند
ممتاز
علایم
ناهم
حواس
رقبا
چیت
راهیان
شمشیر
##فضل
پیری
اراء
پسرش
سانحه
##ناط
سخنران
هیوندای
##گراد
نمیخواهد
##اسانی
محلهای
اموزههای
راهها
صحنههای
کنندگی
عفاف
قرضالحس
نقطهای
پرستاری
سمین
دردن
اینبار
محدودی
ندادند
فرای
مناقصه
کلیات
##طوبت
گوارش
رینگ
ماندگاری
##پرسی
گذاشتهاند
ملتها
میشوم
کوک
as
پروفس
معیشتی
استعم
نیاورد
گرفتگی
بهانهای
ساعتهای
نگرانیها
فنل
رطوبت
شبهای
شکایات
میطلبد
عتبات
غربیها
ذاتی
مانور
##خوانده
تحرکات
روغنی
میتوانستند
محمدحسین
تالیف
اداب
گیرنده
برنامهی
عاب
صرفهجویی
تضاد
##سرای
سعد
شمارش
گرسنگی
##وو
زنانه
##وزن
معدود
اسارت
ذات
##یته
پاست
کلینی
واردکننده
۱۳۸۴
غلامحسین
حاد
سرچ
امیرکبیر
##پرست
کوبا
##نیاز
تعبیه
تط
قرضالحسنه
##فورد
متوسطه
همتای
پرسپولیسی
خطری
درامدها
ویران
معرفت
جستجوگر
نساجی
بازماند
مگاب
اتشنشانی
اصلاحیه
##art
اکرم
انط
علاقمند
پیشینه
جدیتر
بلد
دستهای
هضم
بنام
هاشم
مصون
تابعیت
تریلر
روادید
##افتد
هدفگذاری
سانتیمتر
انق
نرفت
مکتوب
##يینی
غذاها
لرزه
دریافتند
##افر
##حق
الاهلی
زایی
هندوستان
مجرمانه
جک
مرمت
جهانیان
اشعار
دانستن
گلخانهای
بهشدت
همایشهای
خندوانه
معقول
پودر
چشمه
سرود
##نیه
بگیران
مرخصی
سارق
bor
گذران
سیاستی
بلومبرگ
زاهدان
اندیشی
اعتصاب
زاگر
##السلام
##all
متمایز
بانوی
انحرافی
سارقان
راهکاری
سهر
وع
زاير
##نامههای
وکل
پروفسور
درخواستهای
##ell
اصفهانی
کتب
انشاءالله
ستارگان
##دهندگان
نمونهای
موتلفه
سازگاری
it
##عبی
px
سبح
سلطنت
کارفرما
هراز
##بزرگ
زندگین
زرین
##کوم
الزای
##ire
مرحلهای
مسمومیت
اختراع
عبادت
سالاری
##صب
فرموده
بردارند
۲۰۳۰
نظامهای
مستث
عربستانی
گمنام
##ng
##اسیان
ساعاتی
تریبون
خبرنگاری
ارامی
جراح
کفا
ناشناس
نزول
رگول
جنگندههای
واسط
ناشناخت
نارسایی
پلیم
استعدادهای
مجزا
اورانیوم
رخداد
پنل
دانمارک
بنویس
سیمرغ
هیچوقت
su
بلوکه
۱۹۹۰
##لافی
مسال
حسگر
شجاعت
دروس
خودپرداز
بههم
مربیگری
کوهستانی
ستی
زمینهی
مردمان
id
ویلیام
اذهان
تعرفهها
ساختارهای
بینظ
مرگبار
امینی
زنانی
سکوی
##qu
اشارهای
العربی
عراقچی
##کشور
ولایتی
شجاعی
##سکی
ارگان
شعله
جناحی
ماهیانه
تويیتر
امانت
احم
کوم
بیابان
بشکهای
راهداری
باورهای
اینرو
شاعران
بیسابقه
پیاپی
پایههای
متعارف
ورق
تکالیف
##لبی
حصول
طع
فزای
##سار
##حث
هرکس
برگرفته
##رايی
خوانندگان
کلانشهرها
خواجه
یی
ژنتیک
کاوه
پهلو
دامداران
زوده
سرنشینان
امپراتوری
##۲۷
منه
ملکه
العمل
پروندهها
پرشور
پنبه
دال
صید
درصورت
##اته
کنسرسی
ردههای
اینتل
تناقض
انگونه
طوفان
ندیده
پذیرایی
##خوردگی
معتدل
قو
سويیفت
هوان
نداشتهاند
پلاستیکی
فزاینده
گرفتهایم
هشتاد
##ازان
امازون
داوود
عیدی
مدیون
برگردد
مراتع
پالم
فشارها
تجدیدنظر
اقساطی
گذراندن
##روب
ar
تپه
شجریان
مرسوم
سلطنتی
١٣٩
نامح
فرشتگان
کشتیهای
خوشبین
مانیتور
چوبی
۱۳۸۲
##وگرافی
صمیمی
هندوانه
جاذبه
صفوی
باشکوه
زدم
الزایمر
توهم
۲۳۰
مونتاژ
##فش
اقلیت
کشتن
فلش
میرز
سپر
میگویید
##ایا
بازبینی
زیبات
تکریم
یافتههای
سلف
خوشن
کیان
مسلط
مجرد
ناگفته
حاکمیتی
فلور
##نویس
درخشش
##خانههای
لل
منش
ناظران
نمایشنامه
برادرش
##تیکی
کالاهایی
٣٠
مشی
بسازد
یافتهاند
مزرعه
بریتانی
هوی
##امتی
زبانی
رابرت
پشتیبان
انفر
جلساتی
##میزی
باغات
ربوده
بلغ
##زند
واکنشی
معترضان
نیکی
جابهجایی
##int
دینار
##پند
تله
فیلمهایی
ابشار
خبرگزاریها
شهریه
زشت
حاشیههای
پخته
میبینم
تصویربرداری
مانعی
بیبیسی
##۵۹
ارمنی
تابعه
کلیسای
بلات
کویر
منصفانه
رسوایی
سریالهای
توطي
نوبل
مابه
##استان
پایینی
نمانده
مجارستان
راکتور
دیزل
تسلیح
نیافته
کارامدی
جمعبندی
روزهایی
ظال
چنانکه
تعزیرات
میرسان
موجودات
میگردند
فلا
اجیل
الرژی
##فال
فضلی
مبهم
تعاونیها
درنهایت
##خور
مشتاق
قصاص
ربع
الیوم
##یمن
متدا
انفرادی
##وارد
سنگی
ارزهای
سیستمعامل
sm
امکاناتی
زودهنگام
کمپانیهای
قیاس
باشی
خاکی
نامتع
باروری
##امیدنی
تشریفات
##گرفتگی
##فعال
##حدی
نکردم
روشنایی
تصاد
ارگانیک
ژور
عزیزی
باوجود
نمیگو
زندگینامه
##ترهای
سلیمان
bl
اخطار
رزم
##گزاس
وست
بدهکاران
##راضی
امامزاده
اهمیتی
##ارانتی
رویکردی
الث
وقفه
کنوان
##شون
فعالیتی
گودر
۶۵۰
ملم
ابطال
اشامیدنی
تابلوی
پروازی
جلوتر
##شها
##بلند
وفادار
تودی
کاغذی
##ast
امدم
حوص
صادقانه
##ناپذیر
نعمتزاده
اقلیمی
راهکارهایی
تریلیون
هیبریدی
گیگابایتی
ناسا
نیل
پیشنهادهای
داشتهاست
برزیلی
##رامد
شبکهای
مبادی
اعراب
بازگردد
سرب
نیاید
کاندیداتوری
گشود
تاریکی
خواهش
اسکی
کروبی
بکنند
ساختمانها
گوسفند
وقف
ضامن
چیزها
ساختوساز
همتی
##ایتان
پالایشگاههای
معلول
دردسر
میخواستم
مسافت
##اشتند
کذب
خاکستری
زمره
##ight
زنبور
همخوانی
هراس
گفتوگویی
##زدهمین
سیاستمدار
وبلاگ
یانگ
حتم
انحلال
##عاب
شهریار
قربان
حسنی
بدهیها
برروی
حداد
عملکردی
نمودار
یازده
غیرت
تجربهای
لزوما
ویژگیها
گوشهای
زانو
یحی
border
کنوانسیون
##نژاد
مشایی
##شمالی
تجربههای
##ارج
اندرکاران
گودرزی
بیانات
۲۴۰
نمیدانیم
تگزاس
باریک
موزیک
فقهی
شکو
اشوب
ضایعات
بنگ
اشکالات
کیک
دیت
پیت
المال
##لل
##ate
کارتها
درگیریها
تعمیرات
##io
یادم
دماوند
##طوب
درشت
پیشرانه
منفجر
رجوع
##پردازی
السی
پستهای
مقالهای
ابلاغیه
ابریشم
کارون
۵۵۰
##صیر
چغ
سرزمینهای
انتخابیه
نمیکردند
خریدهای
پتروشیمیها
پوستر
##شناختی
ازمایشگاهی
##ایران
نعم
کرباسیان
زیاده
دقایق
فرهنگسازی
رزمایش
مترجم
منحرف
زیباترین
فرودگاههای
یل
سنای
شبها
##مصرف
هجمه
##ارید
انطباق
پترو
اصابت
بازگشته
خلاص
##بنیان
بینایی
عقلانیت
یونانی
مسافرتی
ژيو
تبل
زدهاند
نپذیر
##قا
شایستگی
بازیکنانی
۵۰۰۰
سارا
دردناک
جنسیتی
گارانتی
انتقادی
وسو
پمپ
فیشهای
مجیدی
نشن
فروخت
##میس
ابوالفضل
عابد
پلاستیک
ریش
بیتوجهی
نابسام
هوادار
بستنی
قیر
تنشهای
##اهب
ریزیهای
نگاری
هزارتومان
عزل
ترسناک
ترشح
تعرض
دلسوز
##ومان
ورزشهای
ذوال
میکشید
مولفه
کاشانی
پیشکسوتان
دژ
باشگاهها
دنیاست
مراد
##گرفتن
##۵۸
ریچ
فیلیپین
مجلسی
برداریم
قلمرو
ساکت
حراج
الجزیره
حیطه
منو
مجریان
فه
##الها
حججی
فرزندش
شانزدهم
فاصل
لایههای
امیرالم
خانوادهای
دیلی
چکهای
متجا
سازهای
استثنا
پرسرعت
##نفر
گچ
افخ
زناشویی
پیروان
##ويل
۳۲۰
رایتل
شدهاید
حاضران
##ریشی
اتشنشان
بخورید
ابخیز
امیرحسین
بلیط
مارتین
سیلندر
نرمافزاری
۱۴۰۰
اشتیاق
معارفه
روزافز
تکوان
زاگرس
بارسلون
دانشبنیان
لوبی
##بوس
قصر
##مزی
پیشی
کاذب
استثنایی
سالنهای
مکالمات
نزدیکترین
وحشتناک
##بلی
تراب
کوال
بلاتکلی
نفتکش
سوختگی
سرلشکر
پلم
گرانتر
هدفی
واقعیتهای
##پزی
پردرامد
کیفرخواست
حرار
رویا
باه
co
جنگلی
نظراتی
زودرس
ثانویه
##یرو
افطار
تیبا
شروط
هلی
ادام
ادای
گزینش
##گاهرت
استادیوم
فرهی
سرمایهگذاریهای
وحش
##سیری
هماهنگیهای
##ونها
پرخاش
کج
میگرفتند
##همندی
باشه
اعضاء
نمیشناس
##لاط
شاخصها
تابش
نکردیم
ارزشمندی
۱۱۸
نابار
##اگون
##ملک
طرفه
اگه
واک
غیرممکن
کمربند
محسوس
شفا
باکس
##گذر
رخت
ناگز
تفنگ
##طلوب
اسانتر
سرق
همسران
اسلو
##یدرات
استانداردها
تابلو
نمیکنید
مسالهای
اجبار
تیراژ
رقص
بناهای
نفی
رضایتمندی
یوس
کرایه
بازرسان
مجتمعهای
نرفته
مکار
##وریا
حسابداری
##وتن
تازههای
موی
شرم
##ore
##ونز
۱۰۹
بیایید
گرا
بیاعت
دستهبندی
مهی
##پات
##ant
سرنگون
چاههای
طن
سفته
##لاوه
سازند
##پدرا
هالیوود
مظنون
##خوار
متغیرهای
کنگ
رشتهها
##هدی
حقایق
باس
##پاس
ابرسانی
علیهم
مضمون
##ذه
عرق
##تیم
اسنپدرا
##قاق
کمیتههای
بسا
الاس
گوشیها
محدودیتی
اردوهای
ابروی
زمانبندی
ادیان
حرارتی
چشمی
امل
وکلای
متداول
قاهره
قابلتوجه
تملک
دعای
fat
معاونین
ناامیدی
کین
##واب
اعتقادات
زوجهای
مجرم
##led
تفکرات
شدهای
مصباح
##ولههای
نامید
نهفته
عذ
شایعترین
##اتحریم
چلسی
طبعا
تعارض
##ینده
گرانترین
ابزارها
ذوباهن
پرورد
##اندیشی
if
اسنپدراگون
همگام
##عاء
سنگهای
التحصیلان
اکسپ
خلوت
مینمایند
##خواب
فنجان
ملاحظات
مجریه
غرامت
باهم
دوستداران
ریزگردها
کوشش
نزاع
جریانی
ناگزیر
تحریرنو
نباتی
##اطی
نوظه
کلمبیا
دستکاری
یادمان
روزبه
درصورتی
کاوش
موکل
افتخارات
پساتحریم
موف
مناف
قدرتی
##فارس
تنگه
کوهن
نیازها
یمنی
##باش
سناریوی
برز
اسدی
تهدیدهای
بازدیدکنندگان
متخلفان
##ازگی
محرو
١١
عثمانی
دنا
محلول
متروی
سیتی
##ثه
سلیمی
وجودی
لیلا
یهودیان
هزارو
قومی
کرک
پیشگام
مناظر
موادی
متقاعد
مرکبات
##منت
کمیسیونهای
بول
pr
##عال
بتوانم
حالتی
اتنا
توکیو
پایانههای
##زینه
بهطوریکه
نتوانند
اصلاحی
نباشیم
ازاده
ناشناخته
الو
##نظران
##ساد
سودان
هوم
##ee
النصره
مخابره
##فروشان
گربه
معلولان
گستره
##يل
ملاحظهای
پژمان
کوههای
باکیفیت
##ولوشن
امبول
شاگرد
گاردین
gal
##وظ
سیمای
اردیبهشتماه
هنرپیشه
اجناس
##esday
##لانی
ed
متاب
خدشه
اپارتمانهای
بیاوریم
جین
تقوی
افزودن
زمستانی
بدنبال
کنندهای
ضلع
نامطلوب
مخارج
مددجویان
صاحبنظران
سپردهگذاری
##تره
##الوگ
اغوش
کربوه
پیدایش
۱۰۸
بیاورید
زمانهای
بهبودی
##عمومی
انتظاری
همگرایی
مالیاتهای
بوکان
معجزه
##pl
کفاشیان
موجبات
##مدان
پرفرو
منچستر
##ابراه
نگذار
##فاعی
انتها
خانی
کیت
سنجی
تلویزیونهای
پتانسی
خیرین
##جنس
مشارک
کوره
هنج
تماسهای
مهری
سقط
بالستیک
مرکل
ستم
نگفت
مردانه
نوازنده
خوشی
فانی
##پرورش
زارع
مینو
ماهیان
فیلمساز
تصادفی
##ازههای
چربیهای
انزلی
پیشن
رییسه
مجاهدین
فراه
انباشته
روزافزون
امیرالمومنین
اندیشههای
حبوبات
تسلیحاتی
##نیز
ناپدید
شخصیتها
##گرینی
رگولاتوری
هوشمندی
اعتمادی
خواهران
صدمه
ردیابی
سریعترین
##وفق
اشیا
درخواستی
منفعت
فان
اسمانی
میبخشد
روم
عامه
مایعات
واتس
ویزای
هرگاه
##زیز
زاک
میانجامد
تظاهر
اشکالی
منجمد
ترکان
##ist
سازش
امیدی
نامهها
فام
ایرانخودرو
سیری
۲۷۰
امبولانس
##اکسید
##پت
دیشب
جملات
نقشههای
جستوجو
دفعه
زینب
##اوران
هیاتمدیره
بخشیده
علاقهای
صرب
##اریان
کاک
پاسدار
نویسندگی
##ub
حباب
دوپ
غو
##فکر
مهراباد
عاقل
##احب
##ستون
شیوهای
کوروش
mar
اعتراضی
بازرگانان
صل
تاکسیر
ببخش
بازخورد
فرمای
فايو
مچ
نهال
سنند
سمینار
استریت
اجرايی
کسبه
دوسال
مقتدر
چرایی
حقوقدان
تشوی
پروژهای
موفقی
مصوبهای
##ناطیسی
میرسیم
ایرج
کمکم
انش
بروزرسانی
کپ
مکارم
سنوات
خلیجفارس
سودا
غرور
حاشیهای
مییابند
ایک
پرسی
سمتی
ردهبندی
##ity
##طره
ثانیا
قسط
اشپزخانه
کشورشان
همدانی
کنش
دستخوش
بهرهمندی
بپرسید
نین
##غانی
سعدی
درمانهای
افسر
لرز
تقریبی
##ینیو
یحیی
ظروف
موها
هری
موقعیتی
سرماخوردگی
دنده
موضعی
هفدهم
شانگهای
درز
فضل
میسازند
نیروگاهها
هلا
رویای
فتو
تراشه
ریشههای
##طرفه
رزولوشن
دندانپزشکی
مکانیزه
کمونی
ایپد
کاربردهای
گول
اشیاء
جاهای
اسیدهای
غایب
تلخی
tr
پدیدهای
معاش
##وقع
بصری
سادهتر
یکپ
بذ
دوبی
میمانند
افشاگری
شرع
حوصله
نوشابه
ماسک
##ازاده
قبض
اتوبان
##ادور
الگور
شاي
برندگان
برایمان
نابرابری
فهمید
امامت
پتاس
جنسیت
۱۲۹
##رمن
نمایشگاهی
اگزیم
نرود
بلوار
تکثیر
تسخیر
نمیخواهم
جورج
عاملان
مشارکتی
بخشید
معلق
اخلال
مملو
سرسخت
پسماند
استخر
galax
خاتم
شمش
تفرقه
اکشن
دروازهبان
##گذشته
کودکانی
جفت
سرچشم
##سنگ
شدنی
ضربان
مستثنی
خسروی
گریز
سیدمحمد
گمرکات
شفقنا
##پورت
سازه
اسیبها
هوشیار
گویای
میاور
نصیری
غلظ
ناشر
حالیست
رییسجمهوری
##یرا
روایتی
۳۳۰
بحثی
دردهای
بفهم
امامی
fatf
تسلا
اهانت
دریغ
##خواری
##الش
نوظهور
میلیاردها
بگ
موگرینی
ذره
موضعگیری
شفافسازی
الاح
سوان
جوادی
چانه
برش
اعزامی
حسینیه
عاج
شرطی
بپردازید
خادم
کجای
پارام
ببینم
بینظیر
دخترش
تحریف
مهمانان
شرف
اندیشیده
##ورانه
شتر
رایگیری
درامدزایی
نیمار
حسی
##الیست
پوشیدن
یونی
میپذیر
##راش
سریعا
مجالس
معروفترین
عشایری
ناکارامدی
مقصود
##پزشک
موافقان
بیگان
پرسشی
یزدانی
امورخارجه
pc
نوک
##ماها
قهوهای
بیران
٢٠٠
ابد
سیدحسن
درپی
رویت
رزمی
قرمزی
سادهای
برگشتی
لیور
١٩
گوارشی
اقتصاددانان
پارست
تجسمی
اطلاق
##قدرت
یکساله
کارتن
دومی
##گرایان
کشیدند
مرطوب
بپذیرد
کثی
خواندند
هلندی
دیدگان
۱۹۸۰
درازمدت
gam
۱۶۸
برگزیدگان
نعمتی
##فراز
galaxy
بشریت
##وتیک
مصادر
تقاطع
صوت
پشیمان
دوستانش
دریان
کروز
۱۶۵
نمیم
قطعهسازان
ونقل
مستضعفان
لاستیک
ناراضی
رقی
دوز
سعیدی
لاین
اجساد
صحبتی
مادهای
چهرهای
تفصیلی
باشگاهی
امتداد
##لوب
فرایندی
نیفتاده
لیکن
روزنامهنگاری
ابانماه
اگاهانه
افسانه
##یتد
نژ
هکرها
کریمه
##ازد
بپذیریم
بجای
مخد
##ریفی
تحولی
جوانب
بطوری
سیلاب
نماییم
ترانس
ناخن
ازسوی
##همه
سردبیر
مناقشه
فز
عبدالرضا
ابخیزداری
اسرار
بکشید
سنگر
نیشاب
##eb
حروف
مهربانی
برنا
لبه
مارکت
عرفان
بریتانیایی
میبند
انباشت
میپردازیم
##ضیه
جشنوارههای
رابطهای
##انان
کردها
فردای
گلد
پنت
دايما
پروردگار
بازمیگردد
نامتعارف
بزنم
مبادر
col
اوق
دزدی
مالب
دیسک
خوانی
پردازندههای
روکش
پروف
رفیعی
طیبنیا
طبقهبندی
ناکارامد
وقتها
الذی
سانتیگراد
بسیجیان
پذیرد
یازدهمین
تیلرسون
فلج
ادعایی
مشروطه
دنباله
همدردی
پانزدهم
صهیونیست
معناد
دهانه
بیاموز
اقتصادهای
فایده
##ثق
هرکسی
نمادها
فب
اسوش
##اردی
پیرمرد
یارانهای
میانجی
کانتین
بیمهگر
۱۴۰۴
پايین
تجدیدپذیر
قوچ
غیرفعال
##جوان
میفرست
نیستید
پولها
مراقبتهای
منزله
کاریکات
لان
روپ
ناتوان
فنلاند
موجی
منوچ
صمیمانه
۲۱۰
تعاملی
قف
بپ
usb
##ابعی
خوشمزه
ازاین
خالد
امدادر
پرتغالی
گستردهتر
رهنمود
اکث
##یافته
بهارستان
ملایم
##عادل
بکشند
بیسیم
هذا
بازگو
رشوه
خدایی
رغ
طالب
قانونگذاری
داوطلبانه
کنت
نمون
فسخ
هلاکت
انبارهای
ضمنا
کرمانی
##ماری
بیرانوند
خرسندی
مبادرت
کربوهیدرات
فرارس
دزفول
پویایی
ایرلند
سرتاسر
اتل
اقیانوسی
لالی
محمودی
##فوی
گازرسانی
دکور
مثابه
مشروعیت
##شنامهای
ماژ
یکپارچ
##مایه
ظالمانه
دلا
شایعاتی
مستحکم
حوض
##قط
موتورز
زندانها
عضلانی
استعمار
پیشتاز
بهمنماه
##ضرر
غلظت
١٨
##پرو
امنای
نمیخواهند
بلک
##راحتی
##مینا
امتحانات
تنشها
پتانسیلهای
داود
##سلیم
تریاک
اظهاراتی
##کشان
ویز
پرفروشترین
ریسکهای
ac
کافه
ضابط
ناار
جمهوریخواهان
لامپ
ارث
هور
دادرسی
دمکر
غض
جنرال
دیدهاند
##ud
ویکی
اشعه
##اقلی
متص
مهریه
تسکین
چمن
لیون
برجای
##بکس
مکانیز
نشوید
##راء
##فیذ
گرانقیمت
استانداران
##خوبی
برخوردهای
##متح
##اختگان
اهنگساز
بابل
برنامهریزیهای
کینه
لس
مدعیان
مجرمان
کنسرسیوم
لحن
دپ
علیاک
چتر
منابعی
باغهای
سنندج
تصاحب
تاجر
اروپاییها
فاي
رخد
نوزدهم
لیورپول
جهرمی
ناموفق
تهویه
گستردگی
he
نبودیم
دستاند
##۹۲
امادهسازی
##عصر
فلو
پرستار
##able
بیکیفیت
سیکل
سانسور
تایوان
معادلات
تردیدی
همج
متبوع
ps
اسپانس
لاله
ودر
ناخود
اکثرا
عقبنشینی
منتسب
تت
هتلهای
بیح
گجت
بازماندگان
میپر
تورهای
اسوشیتد
گیریهای
۴۰۰۰
##اعه
نرمافزارهای
بخشش
زیستم
##هال
سیگنال
##ریقی
پانزده
نمى
فلسفی
تمجید
منوچهر
موقتی
اى
جدای
##میان
خودنمایی
مبدل
فرودگاهها
نویی
##وزیسیون
فروشگاهها
##ونتوس
رضاییان
مظلومی
یوتی
##وکس
تهاجمی
انقب
بطری
##حیطی
سوخته
اضافهای
قذ
ورقه
##گاهرتز
##بره
##ah
صحبتها
سجادی
بدافزار
شرکتکنندگان
بارگیری
بسترهای
قايمم
فداکاری
تنیس
##افه
##شات
مداری
کرون
سرپرستان
اسنپ
خیار
##اوا
##جور
##غامی
ماندهاند
پتاسیم
اقدامهای
اروپای
بازرس
اکسیدان
##ویو
شفاهی
مغلوب
کنارهگیری
گذراند
مینام
ex
سرچشمه
سانتری
ستارههای
##راند
محضر
##وریم
الخمیس
پدری
کرهشمالی
زوای
تطابق
میپرداخت
زندانهای
صدایی
سوالاتی
کرانه
وکالت
صیاد
یوسفی
صفت
۱۰۴
شنیدم
##مهدی
زیستمحیطی
میفهم
دستباف
ورامین
منچستری
مسالمت
##کنندگی
ریچارد
جاد
لج
بریزید
معال
اهد
رویش
هیت
گیربکس
٥٠
قاعدتا
کلیسا
##صری
##سالاری
##تاثیر
مرغداران
ریختن
ادوار
کرهجنوبی
##متحده
یونایتد
مکانیسم
استور
##گواری
سایرین
عملیاتهای
عروسک
میامدند
پتر
اپشن
اسیبی
رستور
##سوز
مراود
ارباب
##الیستی
نشی
فحاشی
##ونایتد
معنویت
طلاب
طبقاتی
دراورده
ندادهاند
##عمل
تبار
دانشگاهیان
یوونتوس
##اروس
لوای
ماجراجویی
نمیخواست
برگردان
اویل
١٦
سالار
بیث
انسد
کتابخوانی
اجراست
سختترین
میزنیم
متخصصین
تشویقی
کاراکتر
بهتازگی
اموخته
غارت
نکردهایم
فرشاد
بیننده
بکنیم
عبدی
نبودم
ساو
##بست
کرید
وصیت
کلامی
for
گرای
انالیز
عفو
الارب
بالعکس
۱۳۲
موسیق
کارم
مانی
میفرمایند
##ونام
مذاهب
فرزندتان
بورسهای
صراف
##فیوژ
##ارم
هیاتی
محتمل
کنترلی
##gle
باغی
جامعی
##ive
نايب
##رام
میبریم
عیب
قره
htc
بردهاند
دادوست
سهل
انگیزههای
نبات
##دریج
خلاء
##ورها
هرد
۱۰۲
گرین
##فار
##شاند
میه
کدخ
مینا
پد
مسن
حادثهای
دورهی
پاساژ
استودیو
one
##urs
کشش
##ass
##کنندهای
ستادی
وسیلهای
##شناسان
نوساز
نظرتان
مبحث
بسنده
بهخوبی
لاغری
الکلی
پند
مقرون
##گمی
خونین
فبلت
معنایی
افشین
فریم
بلوتو
قدمی
بیگانگان
##ft
مشاهد
عذاب
شریفی
ایالاتمتحده
پرچمداران
ازمونهای
##فتن
بفرست
پرداختها
پاف
توحید
شیلی
دویست
تنفیذ
ایرادات
میروم
مشروح
تمایز
پاسخهای
فریز
عاید
صرافیها
۱۹۹۹
ایزدی
هوانوردی
رویایی
نسخهای
مزایا
زراعت
الاربعاء
هیر
مخدوش
##وکی
دادوستد
نامحدود
سفت
ناهار
۱۳۸۰
همف
بابایی
اتوبوسهای
bbc
پسرم
##صاف
بیشک
منچستریونایتد
تکنیکهای
علیاکبر
ناپاید
اریا
قذافی
اسکای
باغبانی
لمسی
اکسپریا
کشاند
اپوزیسیون
بابیان
استین
mi
##راجی
۱۱۱
راهبردهای
الگویی
محفوظ
یوان
##یلو
متحول
قرقی
متحرک
مقن
نمیخواهیم
صورتیکه
غیرو
##پیچ
فرزندانشان
هراسی
الکساندر
عبادی
اقایی
کشنده
پره
عجله
##عارف
رکودی
داروسازی
مقتضی
قاطعیت
رسوب
بخشودگی
اسپرت
##پارس
فط
تبعید
پرورشی
دستها
شناسان
وصف
اصلاحطلبی
ناباروری
اشپزی
نرخها
سرخپوشان
فاکتورهای
میخوانیم
روپیه
۸۵۰
مجموعا
مرسی
نیازمندان
##۹۶
ترو
##کد
راهبری
بکنید
توبه
۱۴۱
وسوسه
کدهای
موازین
بیگ
اغازین
چغندر
ارگانهای
##عدة
کلیپ
المت
حدف
چراغهای
۱۹۹۸
جمال
سوگند
صنایعد
محمولههای
مغای
ناخوداگاه
تنزل
اشفتگی
ویرج
مصادف
رنگها
ترکیهای
قطره
فوتبالیست
سیزدهم
ابداع
##سپ
هپات
اندوه
بسط
ماهر
میزدند
بهاره
goo
صحی
پابر
الکامپ
کمان
##sd
حواله
##روان
##عتبار
دندانها
صنایعدستی
زیرساختی
نکونام
الجم
گرفتهاست
صفی
##جربه
تود
نوشیدنیهای
##ونم
بروجردی
قايممقام
ماشینی
ترمین
۹۵۰
امدادرسانی
مروری
انست
##اییها
پوپولی
فستی
ذینف
متب
همز
##پیکر
بیرویه
منصوری
چن
پرح
پولدار
اوقاف
فرمایشات
تمس
##ile
شمارههای
پیغام
پیادهسازی
نگری
سرتی
ذخیرهسازی
##sl
وبا
حرکتهای
یب
دستاوردها
یکپارچگی
##گیرنده
##ادلی
ولیعصر
اشفته
فرشته
مصی
عوام
رومانی
اهسته
کاد
گمانهزنی
##الز
متنی
گذاشتیم
سوراخ
مغایرت
کرس
##ill
خواستم
میچرخ
امگا
##ايیان
میخوانند
##یزیم
تصحیح
پاهای
وفاداری
##ساری
تیت
ضخامت
۱۹۷۰
گار
خوابی
اطاعت
پروندهای
المپیاد
دیواره
یکه
##اهیر
پذیرای
پیشخوان
دستورالعملهای
ذهنیت
شدیدا
روزگاری
ویدیویی
استعمال
معاهده
گمینا
اتکایی
وسواس
مرغداری
نقی
کافيین
بخواند
نمادین
نکسوس
دانی
دوب
محو
##ick
##جهانی
بهرغم
جامد
بغ
مراودات
پرند
اسطوره
پافشاری
رعد
qu
نازل
##کای
کریستی
زوال
میرسانند
تشکلها
##خوابی
بیانی
فرقه
لحظاتی
##يول
۱۰۶
ایديولوژی
استیو
##گراف
۱۳۰۰
استقلالیها
لیر
نمیماند
موردنیاز
مثلث
سناریو
الغ
اسفندی
اهدافی
غروب
نخبه
تایپ
بوکس
بیگن
نرسد
##ایای
الذ
ماشینالات
لکن
کاران
متفر
##عبد
بازگرداند
عکاسان
##گردانی
خطرناکی
عاشور
##رود
سردرگمی
مواصل
لوبیا
بیندازد
یارانههای
یورویی
جولی
خلیل
مسيولیتی
فصول
خلافت
ارامگاه
##ذا
۴۳۰
##th
نمایندگانی
متضرر
گشته
دیل
فراهانی
##وانت
##الا
##رکه
غذاخ
یعق
پیشگیرانه
مریخ
استرداد
الاق
منتش
مادربرد
سرعتی
تقلیل
لبنانی
ابادانی
پنهانی
لیمو
میثم
حلی
##چیزی
##نتیجه
متض
مزاحمت
سلولها
غافلگیر
منحل
نگهداشت
مغرب
مباحثی
شدهام
ملموس
چهاردهم
##کتان
پارالم
##ویسان
حیوانی
##ary
ارشیوی
پرسشهای
سندرم
ترفند
بازپس
۱۴۵
بنیامین
##وفر
تیمملی
سانتریفیوژ
شبی
مصیبت
قفس
نازی
التحصیل
تندی
سبقت
##چوب
بهروزرسانی
ماساژ
اوتی
القعدة
متراژ
میری
مستقیمی
وهله
تحقیقی
برهمین
##ورز
افخمی
ذوق
نازک
پایلوت
##se
سلولی
رستم
لار
انسولین
٩٢
فستیوال
حسابر
عمیقتر
حدفاصل
تاکسیرانی
افسران
قبوض
نخود
نواب
دفعات
بکر
یادتان
نیشابور
بیرج
محتوایی
کرمی
دستاندرکاران
یادواره
کیمیا
ایدرو
مصادره
##افته
ژورنال
##ومت
ایندی
##ang
گوسفندی
گنجانده
oz
wed
نوشتههای
##یمتری
هپاتیت
حوزهی
##خورده
##مندانه
فانت
۳۸۰
##بادی
فهرستی
بانی
##اعی
گسل
خطبههای
فاح
##مام
برامده
شیفت
مفر
مبادا
سیاستگذاران
تودیع
همهچیز
گشوده
##چندان
شوق
کامران
بهمنی
##ign
روانشناسان
##حض
بران
احیاء
نوربخش
بودجههای
##خال
جشنوارهی
تشکیلاتی
سیبزمینی
بلاروس
خداد
فرضیه
شاغلان
تبر
دیدید
متواری
میرفتند
میتوانستیم
بجن
افزایی
جیر
جزیر
بیانداز
پاکستانی
صکوک
کپس
۱۵۵
جدال
لطی
غربال
تغذیهای
کنه
مصدومان
وهم
اسوشیتدپرس
بااین
منصرف
بهزاد
صفحهای
تزی
لوت
چشمها
##راغ
دوبار
پیست
اکتفا
پیشفروش
مواصلاتی
زره
عفونی
انتونی
فورا
داراست
برادرم
##ember
۱۱۴
جاهایی
الز
##جمعه
سفارشی
تختی
قدرتمندی
##صاد
نهاوندیان
##سوف
هویتی
فضان
بیطرف
صدق
مافی
تیغ
۱۰۱
اعطایی
رشید
تحصیلکرده
تحتتاثیر
گویند
۲۶۰
نفرت
اشاعه
مرم
ژانر
##ظره
تات
##dr
جریم
فعل
حفاظتی
sc
##اکلام
حمد
موتوری
عمی
اختیاری
روانپزشکی
قیامت
تخته
نشات
##جدی
کراس
##انکا
اسپورت
انگشتان
متان
فروز
شعری
ارزوهای
نمايید
الرحمن
##rs
##ولار
۴k
کریس
موید
قطارهای
امتناع
رهگیری
اسکاتلند
فیش
اسق
تهوع
خلاقانه
٤٠
افات
خونه
مشرق
فشارخون
##لیو
ارزنده
کارشکنی
تشیع
چالشی
۴۸۰
صراح
۱۳۱
##وشید
شعبان
ictna
##دیلی
نخواهید
زیباکلام
جباری
##سف
ولادت
##بیلی
شورش
برگرداند
مغناطیسی
احد
نقاش
مکانیکی
سرنگونی
فیلمسازی
یادبود
واد
قاطعانه
##تیو
دلش
پورمحمدی
##گرانه
##۹۴
روغنهای
نمیدهیم
عمدی
مساعدت
ارضی
نخل
مرعشی
عمره
تمتع
کتک
عاق
۷۰۲۰
پالایشگاهها
خاموشی
##یی
ايودی
لشک
دریانوردی
##پاش
بخشنامهای
۲۸۰
نوشتند
کثیف
لیستی
الاج
۸۲۸۲
منیزیم
سرفصل
ذینفعان
##فرهنگی
بیتال
جاسوس
میشل
قرضه
خواری
##فهمند
مشورتی
بنزینی
wedn
جادو
هال
جنازه
معینی
ملحق
wednesday
راندمان
پرسیده
تورن
سوانح
مفصلی
گا
شوهرش
انسداد
توجیهی
فست
دولتیها
سس
بارسا
عبدالعزیز
حسام
##برانگیز
ویتامینها
علیهالسلام
یاهو
نامعل
شمرده
##گرایانه
صراحتا
##وندا
##۸۶
خودران
حیرت
نگیر
##افعی
کارکردهای
مشروع
سیامک
خشمگین
##ستن
##پیامک
بلغارستان
بیرجند
دنیایی
میهمانان
بپذیرند
عود
ozv
۱۰۳
شگفتی
نطق
##مید
جاه
##ختن
مزاحم
اکان
ictn
هویج
خانهاش
سوت
۵پیامک
خبرهایی
##تماعی
سینماگران
۱۳۸۳
شلوار
فک
بلوتوث
##چهار
تکواندو
نهادههای
##عدی
ازان
ابوب
ساوه
یکسو
قوانینی
##ابید
##خام
رفیق
فتحی
مجاری
صنعتگران
اوصاف
چیپست
اثربخشی
عسلویه
اخرت
فخر
پرخطر
عمیقی
وداع
شايبه
١٧
##برداران
استثنای
متک
سواپ
##اسیر
اندو
سراز
رقه
مجاور
رفراند
سرزنش
مخاطره
رسد
##اللهی
ارجمند
منتشره
##عاع
هام
پیشه
طرحهایی
##گارد
سرن
جاود
صندلیهای
##me
یلدا
##فور
موتو
پیامرسان
کتابخانههای
علیها
صربستان
زبانها
فاطمی
خودسر
پژوهشها
ge
میفر
نتوانستهاند
متجاوز
ناخوش
نامدار
پروست
##نوع
##نویی
فرح
همجنس
عاری
پرفروش
حسابها
نیما
میثاق
میریزد
گرگ
برهه
##نع
##شنی
درنتیجه
پرستاران
##قلاب
گفتگویی
##شهدا
وط
##۹۳
##ock
پرسپولیسیها
بازیابی
حجازی
دیوانه
معمار
زب
استبد
افتابنیوز
کمیتهای
طهم
مردانی
بشناسید
گمراه
اگهیهای
##فیع
##روژن
انفلوانزا
##اخانی
دیوارهای
##شکنی
روبات
پیچیدهتر
##ote
بفروشد
وث
دریچه
موظفند
##نوو
الجمعة
رییسی
میکنه
حریفان
پوسته
بهراحتی
##گشت
شاخههای
برگهای
پوس
۱۳۵۷
انتقاداتی
جت
میکردید
مقننه
شطر
##gb
تعدد
دیپلماتهای
قرقیزستان
عمارت
چرم
فرارسیدن
اکوسی
##پال
##طلبی
فاین
##گى
امدهاست
پسا
قال
هارو
غلامعلی
بفرمای
دکت
پیتر
نتوانستیم
##اوردی
زوایای
یوز
مهمانی
mon
شهرستانی
خصمانه
وحی
دوستش
میگیرید
خجالت
google
##ib
##ماهه
۳۵۰۰
دادگاههای
نرگس
زیم
کیبورد
ترتی
نادری
برپایه
جوز
فوک
##ry
مسواک
پناهجویان
درگذشته
سینماهای
کرواسی
مایلی
##ارتان
thurs
غیرواقعی
هارد
برسید
پارهای
thursday
##اریم
پروفایل
میدارند
تخطی
##اطلا
اینکار
بیا
میفروشند
۱۸۵
ازمایشات
دهک
شبکهی
مودیان
حداقلی
دلواپ
کرسنت
##گروه
میگر
۱۷۵
اروند
۱۱۲
مابین
تفاه
##یترانه
شکستگی
طالقانی
بسازند
##اندار
کلیت
نیایش
راکد
جواز
مومنی
سرافراز
برخیها
فاکس
مدیترانه
دهکهای
کلنگ
بستگان
خیل
توربو
میروید
ابوبکر
گوگرد
لاغر
ندرت
الماس
##ash
مقال
پردازی
مسلمین
قلعهنویی
##پنا
سمف
۱۱۳
کهکشان
##سرا
پدران
ثباتی
سیلی
##وترا
کلزا
سيول
امتحانی
ریاضیات
بیتالمال
الط
نامشخص
فرجی
برندها
بلام
تبعه
مردها
کاز
میرسلیم
۱۹۹۶
منشاء
##ابهای
عالیات
لطفی
انزیم
##برابر
هرز
##خواهد
حجمی
نامشروع
بروکسل
نیلی
جدیدش
مسب
ضربتی
ارسنال
سیره
##وتنیک
بهکارگیری
##سیلی
سابقهای
ضیافت
رسوم
راهکارها
سبحانی
##سواری
هزارتن
غنیسازی
کالج
پازل
##غیان
محلههای
##فرنگی
لوک
خوابیدن
##۸۴
هیچیک
زیربنای
##حهای
میگذاریم
میجنگ
کاراته
تراکنش
منتقدین
ادوارد
تاکیدات
شنوایی
بیف
راهگ
##اقتص
بازدارنده
سرایت
تندروی
##ure
کوی
هان
تخل
##درصدی
بنشیند
دیزلی
پسری
lte
رستمی
رایزنیهای
شیم
اماراتی
پیشنویس
مره
لااقل
اظهارنامه
دفت
ویروسی
ترم
سرزمینی
نگین
وجدان
دورهمی
یوم
بمبگذاری
قفسه
##ختگان
##وشند
خلع
بیکاران
##فتند
توانبخشی
غذاهایی
fri
بیروت
##حام
جویا
سرای
براوردهای
گلزار
قدرتمندترین
##وسیله
انفجاری
لاه
ناارامی
##hd
قابلتوجهی
##ولید
فیات
تیرويید
##اچ
چگ
علاوهبر
ترین
عمدهترین
##اهنگ
##مهر
ویتامینهای
سختگیری
هشدارهای
تایم
##یله
##یمیایی
تراکنشهای
میخواستیم
قانونگذار
ارزشیابی
انهدام
لاور
بخواهم
سهراب
۱۹۶۰
۱۰۷
مشهورترین
مکانیک
تدارکاتی
افقی
واقعیتها
امنا
دورانی
##اقصی
عفونتهای
##استی
رول
توسل
کنگو
ودی
##کیشن
پرداختهاند
گوس
##ادهایم
رنگار
مرکب
دیار
شانا
فارغالتحصیل
نمیگذارد
ضیا
مولک
استه
سرگیری
بازوی
فراگیری
##کسون
داشتنی
مداحان
خوشبختی
##۸۳
بدنتان
ماندند
کاسه
مجوزی
تقوا
گس
رژیمهای
حبیبی
توریستی
تقصیر
##بیک
اوریم
اتشبس
led
۴۲۰
دخترم
اعترافات
نافر
اقیانوسیه
۱۹۹۵
سومی
نصیر
##سیس
be
نوپا
پارالمپیک
##شوی
عابر
##یتها
استراتژیهای
باکو
حوضه
تعاری
سرکرده
مشارکتهای
نکش
تهیهکنندگی
منویات
فیلسوف
دیرینه
کارفرمایی
هتلها
پیونگ
سهیم
نورد
جغرافیای
دادهاید
فامیل
فعالی
بسم
ایمیدرو
١٠٠
شیک
لنوو
جولان
نارنجی
##بعدی
رسیدهایم
##پلی
مسموم
پاشنه
ارزانترین
##وخ
موتورس
سرگردان
##ناوری
عسکری
la
##سیا
ایدهال
##یتو
هوشنگ
##اصب
موازات
##هیی
مخاطرات
خیالی
سرکه
حکام
تاکتیکی
۱۲۴
استقامت
دوقل
اشتیانی
شربت
نگهدار
سالاد
متاهل
دلالی
همراهان
عقلانی
منتها
انتقادهای
عادات
اتشف
##mi
انتقادها
پروتيینی
##عید
بیخ
پرمصرف
جود
مییافت
جمنا
پیامکهای
جبر
۱۹۹۷
کامپیوترهای
##ثل
##محور
گذرانده
جابجا
سرورهای
font
رجی
کشفی
باک
##رانند
لاش
مختصر
##گزاران
زندگیاش
بیات
واگذاریها
سرتیپ
تستهای
تعمیم
خارق
زمزمه
درعین
##زدگی
سیروس
یبوست
مرغوب
شکنی
نورانی
یاسوج
نژادی
نواور
هرم
کاناد
##قاسم
تشنج
ابمی
برکات
عصرا
پلنگ
عقید
غربالگری
۷۳۰
##یلت
اسپوتنیک
شوی
نمودهاند
سويدی
##۹۱
لالیگا
بپوش
گذرنامه
بریده
عصراعتبار
فخ
ایرانشهر
فرهنگسرای
جرمی
لیزر
ود
هولناک
حقی
سرمایهها
حلقههای
لع
تجلی
٩٥
##شتری
همشه
فرودگاهی
فروردینماه
##کوت
ابتلای
##فره
حرفهایی
هیيتهای
شطرنج
همپیم
نمایشهای
گمشده
دران
پالایشی
مکانیزاسیون
پروازها
لیبرال
مینامند
کله
سبزیهای
تواند
جمالی
تزيین
##کارانه
سریالی
##ولوژیکی
##ریض
نقرهای
##اير
##بیح
پلهای
بازخوانی
رودخانهها
رامبد
اتیلن
پروستات
تنگنا
یادگاری
روابطعمومی
کابوس
خشونتهای
قنبری
اسرع
میگیرم
مهندسین
شاپ
مفاصل
احقاق
بیعت
شیری
سدهای
اینچنینی
مکملهای
همشهریان
صوری
بزن
بلندپایه
غذاخوری
ایی
عسگری
قویترین
متابولی
رفراندوم
پروپ
اتلاف
گزینهای
اژانسهای
درخشانی
##غذایی
مدتهاست
پاکی
##اول
علیخانی
دموکراتها
سیگاری
خزانهداری
##ادش
صرفنظر
منحنی
پرین
اکوسیستم
سدیم
اسمارتفون
گرایشهای
جداسازی
سوختی
سرازیر
دهکده
بیلب
بیب
مواقعی
برمید
مزه
فیلمسازان
دعوای
شین
کنایه
نمیگیرند
وکی
دادید
کارتان
کامرون
روشنگری
پنتاگون
عصاره
نشت
##کنار
نهج
انبارها
روزنامهنگار
بفروش
صحبتهایی
تنگات
##بانان
هایم
اوتیسم
بگذریم
##عبدالله
واکنشها
بازیسازی
سیطره
رشتهای
لفظی
##شیدی
میزنم
اشخاصی
هوندا
واقعیات
##گویان
اقسام
##ریکا
پروانههای
##۸۱
کفر
گوشزد
##یمت
فشاری
نمیی
کوهستان
##اگو
مولاوردی
خطبه
کوله
شال
##جابی
جهات
نخورد
پانصد
برچ
##برای
دکترا
پاها
جلوههای
یکجا
گفتید
اسهال
##طبیعی
مزدا
ورشکسته
شوت
پوکی
عراقیها
معارض
جامگان
پناهی
بخرید
نمیخورد
خواستگاری
ندادن
lg
حشرات
جهنم
چت
##ne
##صدر
شاهنامه
فوریت
لیونل
باختری
بازنده
شاهرودی
gl
شبهه
رشیدی
##لیفی
ثم
##۹۷
انجلس
هوس
دستم
سفرها
فرخ
فرزانه
مجلات
حسرت
نرمال
بزرگتری
بیگناه
##اسیا
بحثها
تمامیت
بسپار
یکطرفه
##چهها
بلور
سالمند
##کوویچ
غیراخلاقی
رسیدم
متدین
ممنوعه
فضانورد
سادهترین
یگانهای
##خط
سهگانه
۱۹۹۱
##راها
##ردوست
تلفیقی
بهس
نمیگذار
غرف
سپهر
زمانه
هلالاح
پیچیدهای
محدودیتهایی
نبی
رحلت
اصولگرای
##نوین
عبدالرح
خاوی
محکمی
صاب
بسازیم
منهدم
مدلی
الرحیم
ثروتمندان
انبس
مرضیه
میرزایی
پرسیدم
توماس
فرمت
اسمش
تومور
۱۹۹۴
##ومند
مفیدی
##کوف
اشغالگر
##اندیش
دهلی
بشوند
کهریز
مجروحان
هدفمندسازی
##ودار
کارزار
وفور
منزوی
مروارید
یابیم
پارتی
جرج
هلالاحمر
سرکار
##توانی
##ابان
فقید
ساختگی
طاقت
##ونیسم
ناخوشایند
عمار
شاپور
السوری
فوریتهای
موتورولا
هایتان
بینش
اهنی
فرن
نیکل
ازادانه
##دشت
بهاری
ارايهی
ضرغامی
مدرسین
رگبار
گند
تصمیماتی
سختافزاری
الگوریتم
عاد
چهارچوب
##طقی
پویش
اولیای
سونامی
ra
ms
زندگیشان
##قطبی
##روک
یدکی
##پک
سوییس
چشمهای
توربین
##ارزش
دکلهای
فضاسازی
رادار
##پوست
مولوی
گریم
غیرضر
بولی
##رزی
پلات
گذاشتم
##نواخت
کامیونهای
##ace
غیرانت
ادامهی
پوشید
خدمتی
##طاری
الحجج
تصمیمهای
مزاج
اسیدپاشی
رهنمودهای
جهتگیری
خالق
جمشیدی
قنات
عصب
۴۱۰
دگرگون
درویش
دبستان
غیرمنت
حدادی
اینصورت
##لههای
سینماها
نمیافتد
کتی
گذاریها
برخوردی
سخنرانیهای
تماما
منب
##پیش
##افرا
بازیگرانی
ابا
واش
##قلی
جانشینی
کریدور
##شدنی
دوستانم
گلپای
فرهنگستان
وامها
نوبه
میانسال
پزشکیان
میای
##کود
بهانههای
تاییدیه
##اندا
محتویات
##کینگ
##ورن
پیادهروی
کردهای
مراکش
هاروارد
##یة
بغل
ضعیفتر
توفیقی
فرزندشان
یوتیوب
##زب
شرا
باخبر
کلیوی
##وطی
میافتاد
شورشیان
وفق
معادله
تحریمی
تاکتیک
ناصری
یهود
عقود
سیصد
زمینهساز
##زلزل
خفیف
##روزه
پررنگتر
##ینهای
طرق
دیابتی
اسیبپذیر
شکایتی
##سترس
کلر
خردسال
بارشها
غدد
فیلیپ
طبع
گفتگوهای
لوایح
دوپینگ
انتزا
سوداور
پز
قطعیت
تبلتها
oled
خریده
فراس
تعاریف
##لرزه
صدرنشین
کوتاهترین
ضرورتی
۱۲۳
دگرگونی
جونگ
ملایر
##۸۷
سیسی
شاهدان
شفیعی
نشویم
طالبی
##لاغه
دیالوگ
الجب
دانشی
جابهجا
عهدهدار
عاقبت
##اورت
ریشهای
موسسههای
قرون
بنگل
مینویس
دیواری
مسیحیان
بفرمایید
۱۳۸۱
کاردانی
هدست
##کاوی
اکونا
شایانی
کاربرانی
ندهیم
کورت
##فاع
تهدیدها
##ans
ریک
علیپور
درایت
##وستی
مشرف
بشدت
##پاست
برامد
۱۱۷
amd
جامه
عمودی
حیثیت
##ایدهای
افول
مهارتی
شدیدتر
ملتی
رنگارنگ
گوهر
کلوب
قراردادهایی
دامنههای
تندروها
گراف
سیاستگذار
شیعی
ایرلاینها
کهریزک
استارا
مهارتها
بوسنی
نمیکردم
لوگوی
موانعی
اتوبوسرانی
##فسنجانی
ترکمن
اریک
غیرانتفاعی
##to
واقف
غلطی
cng
اطفال
حافظهی
بهینهسازی
زادگاه
پادگان
اسانسور
کلینیک
۱۹۹۲
##oto
بلاتکلیفی
کولر
همفکری
تبلیغی
##گاس
افسرده
فیروزکوه
تعهدی
٢٨
سما
الود
مناز
کبدی
ممتنع
ندا
خطیب
خیس
خواهرخوانده
##ختگی
بطوریکه
##کاظ
بارشهای
عرضهی
ناظری
کارورزی
##ذل
۲۰۱۹
دراینباره
##وودی
انات
##وریس
مجاورت
تراری
منی
##لد
میشنو
بفروشند
سخنی
تفاسیر
فرضی
ماف
دامداری
میبردند
##تیسی
نوشتار
کمین
تجربهی
میشناخت
##اتری
ادویه
تبدیلی
پیشانی
زان
##ستانه
گروههایی
جسارت
یکمین
غواص
تکلیفی
##ايب
اهرم
##ss
شیکا
متوازن
منحصربه
گلای
سلیقهای
صدمات
وعدهها
##ice
برنمی
السعودی
تداعی
میاندازند
##باغ
حوادثی
تابلوهای
##ومات
خداست
وخیم
print
هات
هاچ
ذاي
غیرمنطقی
بدعهدی
##حسب
٦٠
خودگردان
حاکمان
زاهدی
شلم
صفات
بدبین
مستضعفین
برخاست
زنها
فقرا
باتجربه
الار
توطيههای
مینشین
##الین
عوارضی
شاهدیم
زدگی
ثانی
مهمات
هاشمیر
پوششی
سرطانها
پلیمری
قفق
خرابی
##our
مشتمل
##رساز
تابناک
حالات
۱۸۰۰
الشی
ضعفهای
المی
##بیاء
زمانبر
انگلیسیها
فتاح
تعلل
فعالیتهایی
۸۲۰
##شکن
ابوم
##خصوصی
فلسطینیها
سدان
بخرند
فرسایش
نیازمندی
بجنورد
نواقص
گلها
گیتس
برایند
شوش
انر
نانوایی
هاشمیرفسنجانی
چاو
مونت
##موم
vers
هورمونی
##شتند
کوالکام
دستشان
پیداست
##تز
نامبرد
فیض
##ind
##ix
##پرستی
زارعی
محتاط
یقینا
منق
سرفه
واج
شگرد
مم
مهاجمان
مغازهها
طولانیتر
ارن
##ma
نداشتهایم
مشخصا
تاکسیهای
app
تفت
عماد
منزلت
##کشهای
هرج
afc
زمزم
color
##واتی
الشر
محسوسی
محمدم
بردارید
تخلفی
غیاب
##حان
پرکار
معتمد
##ver
ورزی
##وتراپی
ليون
۱۳۴
توکل
اندیشمندان
پوک
##ction
اپلیکیشنها
شاهکار
توریسم
۱۰۸۰
الزاما
برگشته
##سلط
بهرامی
محال
گلف
##صدا
۱۵۲
ایجاب
فرج
##یلد
مختار
پیغم
لانه
علیال
گزینهها
کشفیات
کاره
کفشهای
انگیزهای
همکارانش
غیرجاری
اطلس
متصور
خلیلی
##ou
شهرهایی
هیجانات
##گشایی
زکات
خطیر
باکتریها
نسب
تجم
شیکاگو
نمین
باط
نشانان
فرانسویها
مخفیانه
گردند
منشی
##ازند
معبد
حاصله
بیهوده
##ونیا
کانت
قوچان
friday
زرت
۴g
ترقی
ترمینال
معمای
نهادهایی
ویلا
اینهمه
محج
ناپذیری
بگذرد
شمول
صددرصد
نمایشگاهها
##فتهاند
خانوادهام
افتابی
مناسبتر
هنرنیوز
پدیدههای
چهارراه
تراش
گزارشهایی
٢٤
متصدی
گوساله
ترابرد
##ریبی
سلایق
۴۷۰
نبودهاند
رگهای
ساک
متوفی
بیندی
بیع
دوقطبی
سوختهای
عقیدتی
ویرجینیا
ساختهاند
سومالی
سیدعلی
اچتیسی
غریبه
اکانت
ناگوار
۱۲۲
##ویید
هزاره
۱۱۹
موه
کارولین
قراردادش
تیموریان
##صلاح
##قة
فلسطینیان
دزدان
حساست
تولیت
نیفتاد
##حلی
زیارتی
نیوزی
اعلان
کواک
اقتضا
جوانها
قدمهای
وبه
مشعل
۱۲۶
تبلتهای
استار
۱۳۶۰
تداخل
پیشبینیهای
بتن
انجامشده
دویدن
##بخشد
##نجر
قامت
الهه
گفتهام
##رخی
بینیهای
مورینیو
علاء
##sh
##گرهای
مدون
##ختند
کارگروهی
خوابگاه
باغداران
version
متنا
##تیکو
##ومتری
اصطلاحا
خوراکیها
تذ
##اقبا
بزه
ساختند
مطابقت
مشروبات
ابوظ
بارانی
##وعلی
تمسخر
همجوار
idle
##ویک
##میمه
کلانی
بخوانند
رغبت
gtx
بشه
##جمعیت
ویترین
۳۷۰
۲۵۶
پرتفوی
لیت
انبوهی
باهوش
شات
فسیلی
اسپانسر
بیمهنامه
##غرب
ابوظبی
بوست
چیان
بندری
چرخهای
بصره
##ابراهیمی
##لیان
لک
میگذاشت
کاریکاتور
میمیر
پین
پاسداری
دیدارها
۴۶۰
##کوبی
ایمانی
رستورانهای
۱۶۹
شهرکرد
ادا
۱۳۷۶
ایدهها
ناا
##ایدر
ارزانی
متعاقب
##ian
سازههای
تدبیری
خانمهای
سردی
نادرستی
دردی
رخدادهای
برات
جذابی
فاخر
تنه
نمیدانست
زل
کوپ
سرگی
سرمق
گون
گفتوگوهای
##زادگان
لاوروف
مغفول
وظیف
نقط
اندر
متعاقبا
وجهه
ولوو
زاکانی
اوارگان
پستان
##عفی
مخاطبین
ایفونهای
##und
لنگ
٢٢
نظاره
اغراق
اموزشو
شنیدهها
جمل
تعیینکننده
##ومر
اسدالله
ic
ژرمن
##ue
اقتصادنوین
مصاحبههای
##یدیم
پرخاشگری
ودیعه
me
اسپیکر
ساس
سح
##اهنگی
اختلافی
همهجانبه
تهاتر
قطعنامههای
برداشتهای
براندازی
معرف
جاوید
سیزده
سودمند
میگذراند
پذیرفتن
کباب
لیل
##خواهان
تعرفهای
##ردید
مغول
##وبری
میتون
##ابیم
جوری
دادهام
##اضر
گوید
بنچ
برخاسته
بنفش
نوه
دانستهاند
بساط
##اشتن
وهابی
انشعاب
لغت
بپره
مسوولی
راغ
دیون
۱۱۶
printable
##فورت
صرافان
##ik
یکنواخت
عطف
اجتماعات
معیوب
والت
فلات
##نیف
نتیج
ro
وعد
ماک
۲۲۵
##واسطه
همسری
ازدحام
استیل
اشتها
رفاق
ملز
العادهای
طغیان
اعلامیه
مفسد
ضایع
فارغالتحصیلان
نینوا
ذايقه
بهسر
محاسباتی
اعتلای
غلامی
موم
مجسم
استرالیایی
محرز
خانهی
وها
۱۳۷
کارگردانان
##واش
خارش
۱۹۵۰
رسایی
انتقالی
انتیاکسید
##راقی
جداگانهای
##شوند
اصلاحاتی
##منامهای
قوام
سبوس
مبلمان
هیپ
اندازهی
رایانههای
گرانبها
طاق
۱۳۳
یگانه
حمایتها
الحاقی
##فرض
لایحهای
الاث
امپراتور
خوشبینی
نسلی
۲۹۰
دندانهای
##غدادی
ممیزی
مغازههای
اموزشوپرورش
جانس
play
قوس
خرازی
موشها
صدیقی
رستورانها
ابوالحسن
بقایای
##سانهای
تخیلی
سیاوش
تراریخته
انتخابهای
میدادیم
معدل
##ویسم
شیطانی
چایکاران
sk
پلمب
٥٠٠
نیو
روانشناختی
۷۲۰
##چنین
مداحی
نشانهها
ترهبار
توضیحی
فرمانرو
بارگذاری
روزنامهنگاران
نابین
##پایان
##فصل
امنی
فهمیدم
محاکم
مشوقهای
دیکتاتوری
اتشنشانان
پیامها
شعارها
ورا
شامپ
خوردند
رادیک
ابوالقاسم
روشنفکران
سرلو
اتکای
قندی
۱۴۴
ثرو
نباتات
فانتزی
##ook
بازدارندگی
کمالی
sl
بخورند
##ارها
##بون
مینمود
۱۶۰۰
دلال
لرزش
##ملین
زابل
##ark
ضربهای
سپردن
بازگردانده
ایالتی
التفاوت
میراثفرهنگی
سیمین
غولهای
روبل
##گوش
پیشد
اذان
لولههای
هرو
گرافی
نمیاورد
نظرش
تعارف
مهره
##کزی
ترازنامه
قضای
سرپوش
ماشینها
بنگر
نکنم
هخ
غیرعل
سختگیرانه
امکانی
##اشیه
جده
کپسول
تکاپ
پهنه
ویزیت
نیروگاهی
##ify
موادغذایی
##بلندی
هاب
##اردو
بیمارانی
ونیز
محول
بازمانده
ازادیهای
اجل
##anc
بقی
جامجهانی
اوردیم
شعاع
شوکه
##box
صفحهن
٢١
شنود
ولایی
شانزدهمین
۳g
تکنیکی
##۵۲
انسانیت
میخرند
باجه
خواندم
داروهایی
٩٠
##لیتی
هرساله
وبگاه
استون
منحله
انقراض
معطل
شلاق
سختافزار
محرومان
تنگی
متوسل
کانادایی
میایست
العین
صرع
##فن
نمر
سوءت
شمای
ایرادی
##اختیار
ومن
قفقاز
##فک
توفی
گشتاور
اجارهای
پیروزیهای
لباسها
۳۴۰
البغدادی
رجبی
موثرتر
میزو
سیستمها
درختی
##زیدنت
##لاج
موفقترین
میدادم
معایب
عفت
زمینلرزه
نوشتهاند
تنب
نمادی
جانوران
جواهرات
شگفتانگیز
تونی
میسوز
بهداد
بدبخت
ابیها
بجز
هفتهی
چینش
مرجعیت
اصلح
مشمولین
علیم
میانجیگری
کواکبیان
##تها
گفتهی
##ریل
تبادلات
باکتریهای
پرزیدنت
رساله
مسجدال
میشناسد
کدخدایی
##bo
##طالب
العبادی
لش
مینشیند
پناهندگان
غده
قشق
گلاب
##سترسیتی
دوخته
شمخانی
میخند
سنگینتر
ساواک
مومنان
نگاران
rgb
زعم
احاط
۱۹۷۹
##af
ارگ
پالایشگاهی
طلیمی
مطالعهای
پهلوان
میپیوند
میلیمتری
مجال
کشانده
امیدوارند
غلی
هردو
جاست
ضدان
بعض
کشتیها
سریل
کرا
سفرههای
انداختند
کریستیانو
s۷
##وقه
بعلاوه
تقسیمبندی
con
روت
دکم
عبرت
کنده
متمادی
هخامن
ستادهای
دروغین
just
خاست
اشتون
ایرلاینهای
سوریا
هایمان
فروکش
پرش
fl
لام
استخوانها
وگوی
##لاص
مریض
رانده
مداخلات
سوزن
سرمقاله
قنا
پود
##زمینه
میتس
##حمد
کنتور
حصار
قرصهای
نامعلوم
یت
مودم
میپوش
صحنهای
چنینی
قصور
فروشگاهی
ماندگی
دیرتر
لوز
٩٦
صبور
اتحادیههای
اظهاراتش
سوزش
پرهزینه
##خرید
نقشافرینی
حسابرس
مجموعهی
غیرضروری
عضوی
##ide
دیرین
نخورده
یدک
بههر
هدفون
فاتح
شراکت
همهپرسی
دوربینها
jul
##فران
##کوب
الاثنین
سربلندی
مدلها
محمدمهدی
رومی
##وقوع
متفرقه
والا
کلمههای
بایستد
نامط
ببخشد
##ختار
علایق
فروشان
٩٤
ایستادن
توفان
سرلوحه
یکسانسازی
مرهون
##غلو
سرگيی
اعتد
لويیس
مکاتبات
اکی
بنشینند
غز
امیزی
العربیه
باخته
##ph
##نوری
متمایل
دیکتاتور
dna
میپرسم
نامبرده
معذ
داشتهام
lc
ساسانی
بخرد
افسانهای
مپنا
نظران
جوانتر
man
چید
##لاث
##زدن
میکروبی
بالف
##ord
قبیله
میرفتم
حماسی
سدها
اولویتها
چو
برسانید
تلگراف
plus
##الدوله
دراوردن
نمرات
رویدادها
دخل
خانمی
واپ
بیثباتی
منتشرشده
سیدی
عرضههای
شق
گزارشگری
##ناج
##زهرا
ورد
الودگیهای
دفاعیات
همانجا
توسعهیافته
##التفاوت
jun
##بسته
برنام
۱۴۳
والد
##end
دستمال
ادعاها
sn
جون
میدانستم
باطری
دورهها
احمق
نیوزیلند
##unt
بخشخصوصی
##۵۶
##لوک
لهجه
استبداد
نمیپذیر
میزانی
##اهریان
عبداللهی
حسادت
راکت
##وازی
برگردیم
دوستانی
مولانا
نظرسنجیها
افرینش
تذکرات
جلیل
میهم
مجوزها
##ابین
##اهمیت
واسطهها
دبیری
##peria
شعارهایی
پیغمبر
جملهای
رفتارهایی
میگفتم
کیمیایی
ذوالفق
##est
تیزر
۱۲۱
شالی
ابمیوه
سندیکای
##ازدگی
سختیها
##اختن
نظرهای
نوشتم
لامبورگ
مقامی
ماهان
لامبورگینی
واژگونی
فود
##حسینی
واهی
همتایان
##ندگانی
قرعهکشی
تبانی
کرسیهای
ضمیمه
جهانبخش
تورنمنت
نگرانکننده
گردی
۱۶۶
پویان
##ain
تنگنای
##یرتبه
بیاییم
##ok
عزیزمان
بیتی
توسعهی
میشناسیم
قبرس
نظرشان
شکلهای
مگابایت
تمکین
غفوری
شکننده
##ینگتن
بتر
بودی
##اهت
مولی
ثمره
عالیرتبه
کنجکاوی
الفا
##ومیا
عدل
شلمچه
یاداورشد
##ght
پوشی
##ابههای
سرفیس
میرزاخانی
ویژگیهایی
حکمرانی
##کیها
زیردری
هواف
دراید
رجیستری
اعتدالی
الذین
ریوی
بمانید
۱۱۰۰
احادی
کیفیتی
بنگلادش
##رنگی
متناقض
مابهالتفاوت
کارساز
دیجی
کارتخوان
ورم
دوستدار
لت
##aw
##۵۳
##ورتان
المع
بیتردید
گلب
##۵۴
افغانی
ادوات
شهیدی
گناهان
pri
رحمان
##یف
جلویی
انزوا
ساختهای
عابران
اشکارا
۱۹۹۳
سزار
##man
صدراع
بدنش
یورش
##uary
سلم
۱۳۷۹
میانمار
کنسولی
موحدی
اوین
فایدهای
##co
مجرب
##روبی
میکشاند
تماسی
شکستهای
جستوجوی
فضاپیم
بوند
توقعات
فلوریدا
xperia
بینیها
ناصرالدین
قدوسی
۱۹۸۹
مقبره
دورنمای
جوابی
مسخره
##نگر
فرشید
احاطه
میفروشد
دوس
۴۴۰
بشمار
طرد
نگذاشته
سکانس
گرمسیری
اشکان
صفهای
الحسین
فعالتر
جادویی
##امر
##الود
۱۶۲
خاطرهای
ایمیلهای
پلکانی
فاصلهای
المقدس
بخاری
کنسرتها
اجزا
بزرگسالی
سنجیده
رباط
نیاوران
پیشبینیها
بفر
کران
اثارش
##ost
مشتقه
ارزها
کانالها
دوبله
بیچ
علو
مردمسالاری
زام
##ایفه
لگ
نارگیل
بغض
##عر
ازاری
بپرهیز
امح
کمونیست
غیرمنتظره
##وشد
fi
بندگان
احمدرضا
دیو
اویو
عرصهها
##الف
غیرعادی
جویای
ارزیابیهای
ثروتمندترین
##مونی
چهرهها
بالار
کرملین
هنگفت
ساقط
مواظ
##غلات
دورت
##بنای
غیرنظامیان
عاقلانه
ترکها
##سواد
so
##نى
جنایتکار
الایرانی
وحشیانه
مشای
لوی
سلامی
بحرانها
##ساعت
واسطهای
نظافت
نخستینبار
همشهریانلاین
فرانکفورت
##ایستی
سرط
##نشینان
پیشران
سودجو
عبوری
##یانا
شاند
گذارد
رایان
پیوندی
لاس
نتوانیم
هامون
##kh
بهش
ایتا
داروخانهها
گیگاهرتز
کلاسها
نمییابد
طاهر
##تایی
گذرگاه
تظاهرکنندگان
سوژ
##۵۱
صلاحیتها
اقصی
سیگنالهای
##ذری
بسازید
تزیین
بازت
احسن
مظفر
##az
زدیم
کسبوکارهای
خبره
تعصب
اسیبشناسی
استفراغ
شاهی
هجدهم
کودهای
موجه
مشاهدات
میلیاردر
کومونه
سمن
##ung
##لها
یاي
پوز
العظمی
نیفتد
تعریفی
رفتو
کالبد
##کریم
انقلابیون
ترام
نظرها
سریلانکا
طمع
##رتی
متابولیسم
درکشور
خطاهای
رمض
کدر
پوششهای
مصونیت
دورتر
حقیقتا
کبری
کوین
کتابفروشی
سرسب
الناس
کارگاهها
کارولینای
موثرترین
فارابی
ابزارهایی
طناب
پرجمعیت
اولینبار
عالیترین
اوس
##کردنی
مکس
ذلک
##قمی
تلاط
قبرستان
۱۲۷
انبوهسازان
بورسیه
تشنه
ارادت
خدمتر
پارکهای
اکادمیک
دادهاست
note
سست
##زون
۲۰۷
##مدیر
طایفه
اسفناج
اسفندیار
اقرار
توفیقات
عکسال
##بازده
سیاستهایی
سیاس
هنرستان
عواط
پیمایش
صفرا
جدیتری
s۸
متج
استحص
رادیکال
شمارهگذاری
ایوانکوویچ
تبريه
##ite
حلهای
طلوع
پورابراهیمی
عقلی
ابریز
ویديوها
تارنمای
ناتمام
پراکندگی
معانی
هفدهمین
##یاد
بیاطلا
منظومه
ثانوی
هاو
راوی
روانپزشک
تدابیری
تایر
واز
یالث
اتومبیلهای
۷۰۰۰
مازی
ناکافی
غیرمتعارف
شهریاری
##بندان
نتیجهی
انفلوانزای
ناامن
حمزه
سرنخ
مجتهد
خشکبار
##جین
core
تنا
امپرا
باث
##نیها
قاچاقچی
##کره
کمری
پرقدرت
٧٠
داروخانه
دیوای
صداهای
سرمایهداری
هواگرد
ریتم
فواصل
شواهدی
بلندترین
نبوی
مستغلات
تاپیک
بنویسید
##ach
یکجانبه
##مرت
##روشی
دارچین
نمایندگیها
بختیار
##ode
دلسوزی
خمیده
##چک
شمیران
اصلانی
الشعبی
ترجیحی
رند
فقرات
الجبیر
میافتند
##بح
بروجرد
هنگفتی
بازن
فرایندها
##adi
علايمی
مدیرانی
مبالغی
۱۳۷۰
اکتشافی
##درامد
فضیلت
سرطانهای
دولتابادی
برحسب
##ank
##جل
یالثارات
##ازهای
##کلتهای
جایگاهها
بهایی
روشنفکر
##pu
##مرکزی
کنسرو
##ربچه
۶۰۰۰
پرستویی
رودبار
##مانهای
##یزی
##شیم
مثانه
sam
سبزوار
لسان
کوانت
مشاورهای
##محمدی
مرموز
##ضلی
درن
شوهرم
نگذشته
اشرافی
##افتاده
کثیری
معنادار
nav
نارنج
افتادند
تبخیر
اخلاص
مظاهری
الاقصی
صنوف
دبیران
روشهایی
مذاکرهکننده
شادابی
اواره
ماهنامه
بارشی
زنجبیل
هنرمندانی
هرجا
بیندازند
طوسی
##وبیشی
##پاره
امدیم
تلس
کدو
مکانها
موقعی
اتان
تخلفاتی
تشبیه
بالاب
بدنسازی
کشمکش
وهابیت
منفعل
واچ
نخواست
احص
مگابیت
۳۱۰
پاستور
صدراعظم
##یدانی
جذابیتهای
شارلوت
تکت
شهباز
درمیان
کمابی
توانستهایم
##۵۷
مستاج
اقامتی
خوانساری
شافعی
##پناه
هیدروکر
خلف
قوامین
sy
بدبینی
##حسوس
##جوش
رکس
##ei
سامانی
ماهشهر
راستش
صحرای
تربت
برترینهای
ترانزیتی
ژاپنیها
۱۳۵۰
صفحهنمایش
حساسی
پیشفرض
هیتلر
بیافتد
##پوشی
تالابها
##ment
جماهیر
کمیاب
دلیلش
مالکی
حاضرند
اموزشها
شلوغی
خدمترسانی
فرامرزی
wh
پایینتری
یاتا
سیزدهمین
عزیمت
##زبان
میتسوبیشی
توانیر
اسکلت
برجهای
التزام
کنسولگری
متانول
چاش
##ولادی
بمانیم
نظریات
عرفانی
بشناسیم
سکوهای
طلبکار
##يیان
july
رکوردهای
کنیا
احترامی
یونس
منحص
تصدیگری
مخفیگاه
گیمینگ
گوان
##اين
پدربزرگ
رنگین
##نور
دانشامو
اسکله
کاشته
نتای
نمایندهای
هتاکی
اهنگسازی
نمیبرد
کارتر
مامان
دادگاهی
سوزاندن
بیندازیم
استنباط
خواستهها
الهلال
العالی
اوراسیا
جبهههای
اسیدی
پیمانکاری
۱۵۶
کربلای
##ff
اژد
خودسرانه
قرارگیری
لنگر
کوثری
بینانه
حاشیهها
حمص
گورستان
وادی
##شتن
##یسه
جوانانی
بنیه
ترابری
محمدحسن
بى
جبار
جوار
ماور
سوغ
نشدنی
امپری
عواطف
ایوبی
بیلبورد
دسکت
کوهی
نقدهای
نگذاشت
شرمنده
نگو
نهنگ
عظام
فعالین
پیمانی
سوسیس
##فات
معلمی
کولی
##نتو
لاهوتی
بنت
کاستن
اورت
وش
حکیمی
فرسودگی
روبروی
فرستادن
شبا
قراردادن
مرحلهی
##انع
تضی
قوهق
زوجها
گج
مسابقهای
شتم
##رفهای
##عیر
ابوتر
زهر
##خارجی
هندیها
غزل
خواستهاند
مناظرات
۱۹۸۸
وایبر
##لندی
##dp
بیلی
اظهارنظرهای
وظای
justify
##سیخته
مسجدالاقصی
سختیهای
برمبنای
فدای
سوددهی
##زبورگ
مدیرمس
نایف
دلت
مازیار
خبرساز
۱۶۴
نخواهم
##ویدیا
متحدانش
شیوا
##نن
سیلیک
موفقتر
زیرک
سیاسیون
لادن
مطب
کارا
سادات
##موند
ابدا
اجارهبها
دامپر
اسکندری
استقراض
پاشی
برانگیخته
محب
میزگرد
بهبه
صیفی
غنا
مختصات
بقا
اولاند
پانزدهمین
کشمش
فرمهای
هرچقدر
مناظرهها
هیدروژن
بردیم
##بانکی
خفه
طاغ
##پخش
کاروانهای
۱۳۷۵
دیرکرد
اورید
سیدرضا
ساندرو
مسته
کارمان
هلیکوپ
قاعدگی
واین
do
mic
##ey
الیاف
ايتلافی
بنوشید
سیدال
پایهای
فرزندی
##یمانی
وظیفهای
اینست
##ناز
##غری
##سلر
الایندههای
جوهر
همسان
یاسر
تفریحات
محصولاتش
میبرید
##سپاری
##ندو
برانگیخت
معا
حیف
قابلیتها
عضله
احمدزاده
یعقوب
واشینگتن
##وى
##شست
کسى
##خیصی
##قههای
اتلان
مژ
اتن
هجرت
رفتوامد
لوکیشن
ورای
شوری
فیت
استانداردسازی
دستمزدها
۱۶۷
گیلاس
ریف
دلواپسان
وزرات
بهترینها
شبانهروزی
تخریبی
اردشیر
تشنگی
##قیلی
سالمندی
خصومت
فرزندانش
##ws
کریسم
۱۳۵۸
لوزان
##ولف
اشیای
دند
۱۵۴
مناسک
ii
صفا
غمگین
لومیا
بردم
بکاهد
نشستها
ادمهایی
##ریس
##نما
کدامیک
رویههای
دپارت
مهاباد
سلح
رسانید
جنون
پناهگاه
خوراکیهای
قرنط
##تس
یکى
نشستهاند
ذیص
بنایی
مسایلی
لیموتر
##کرون
افرید
کنارش
چارچوبهای
میپرسد
المیادین
خاوری
##ومهای
تلاوت
جشنهای
دایمی
درسهای
ذیصلاح
دودی
افزارها
جهشی
بواس
گه
دیرباز
نافرجام
کارانه
گنجینه
##غبار
۱۶۳
طلبه
ادراری
روشنتر
کاترین
احادیث
##خشی
میساخت
##ومتر
##منظور
##رکی
غرفههای
مادربزرگ
اعماق
بیاد
مامورین
##يوس
گرسنه
عند
میرحسین
گیج
مظهر
یکمیلیون
اتلتیکو
عقاب
ماهیگیری
۱۵۸
فرمانداران
##ردد
حمیدی
فوقالعادهای
ipc
مینه
پیمانه
معلولیت
کرات
امیخته
خواستیم
نفتخیز
٨٠
استیون
son
##ترا
عملکردهای
۱۹۲۰
ارژانتینی
کتابهایی
پرافت
فایلها
محرکه
##زادی
##سیه
بیشینه
گزیده
##هیچ
ضمانتنامه
سربلند
min
##ساعد
ارگانها
##فقیه
##جوری
درخواستها
بویینگ
بعمل
قومیت
##شری
ماکس
پسندیده
تشویش
نگاهها
انویدیا
مجبورند
جزایری
##عاملی
کنسان
۱۴۸
##خراش
مردود
اموری
ناساز
حسینعلی
سرگیجه
##ower
بههرحال
فاحش
##اجتماعی
بیهوشی
کوتاهتر
بنظر
تشخیصی
غلیظ
##ودا
بیتا
pm
ناپایدار
فند
مضرات
تمهیداتی
عروسکی
انقباض
زايد
ترزا
۱۵۹
بیندازید
شرافت
قولی
ناعادل
عسگرا
حفره
رمضانی
استیشن
قایل
##طف
هامبورگ
##up
براي
چارلز
اشنایان
بحرینی
سهبعدی
بلندگو
استارتاپها
ملزومات
##نظری
افراطیگری
عسگراولادی
##سنجان
##کاف
سنواتی
وفناوری
شاندیز
لیموترش
##atch
انصارالله
بدشان
اتوبوسها
سراج
نمایشگرهای
##bs
هورمونهای
واحدهایی
شونده
ریشتر
نکتهی
کریسمس
کامیونها
عدید
سرامیک
نامداری
پاب
کبود
نگارنده
adsl
وکلا
##زنان
##اکان
نايل
monday
طلاف
##گرو
۱۳۷۸
اسکندر
war
##فاض
##ملو
تعال
جامعهشناسی
ولا
مدف
شوینده
ضعیفی
res
##ومین
میکروف
ماهیهای
مینویسند
شرکتکننده
هیچوجه
edge
۶۲۰
##قدری
صبوری
ببندد
موشکها
##کون
##وشو
یکسانی
واکاوی
۱۴۲
بواسطه
جایش
سکههای
نامحسوس
تلعفر
معاند
شیط
گرفتاری
inter
##ومن
میفرستد
توریست
موفقیتامیز
عیادت
ژرف
سنگاه
نفوذی
##ترت
##کوموتی
تکل
والای
دادی
برادری
رت
قمی
بشناسند
کوفه
زیدان
ذهنم
موسسان
ماجراهای
استحصال
ifrs
##کوپی
بستند
نمیامد
طبس
##راط
نتایجی
ev
##شانند
مسیحیت
جیرفت
##سلی
استخوانی
امانو
فکرش
میچرخد
بلیتهای
##اریا
چربیها
وظایفی
##انداران
موتورسیکلتهای
##رکشی
تکفیریها
برگزیت
لید
دسکتاپ
ساکنین
طرفها
نگیرند
##ale
راب
##فکنی
موجودیت
مارکسی
هولو
سیرجان
##امیلی
غریبی
##پنج
امریکايی
البلاغه
رساندهاند
##quo
عنکب
##ull
اسکناسهای
زیردریایی
کنسانتره
٢٣
##زمی
پرستی
ندانست
کناری
لفظ
شیء
الامیر
فروزان
قار
ملیپوش
خدمه
گرایان
ویديوی
باف
سازوکارهای
طولانیترین
درخور
ندیدم
پوشانده
فوکوس
جگر
فرجام
زینتی
##الیه
دانایی
میزنید
دخترها
موزههای
روستايیان
ایستادهاند
داعشیها
بهوسیله
مرفه
وتو
or
پستبانک
##ath
جانباختگان
اردبیلی
لژی
هنرمندی
باتریهای
بهترینهای
ریت
برخط
ادلب
نشینان
میشدیم
فدا
۱۳۶۸
کارخانهای
گوینده
وجهی
مناسبتهای
کینگ
##نوی
بهواسطه
منتخبان
ثابتی
نقلی
##امیزی
el
دستبند
ریم
ولتاژ
سرویسها
روشنفکری
ظرافت
##قند
##وسط
شاخصههای
##عام
برخو
گنجی
مصلی
عابدینی
ساحت
شکارچی
##دف
##دنی
مظلومیت
خراسانی
نفخ
ازاردهنده
۱۴۹
ستاری
بازگردان
فنون
مالیاتها
کنک
متفکر
صحیحی
مهن
بیماریهایی
کلیدهای
جذابترین
میپرسند
وبر
##شام
ایها
سنتهای
ابوترابی
جذابتر
۱۷۰۰
نگفته
عشقی
توپخانه
may
شاهنش
اصطلاحات
تدارکات
غیرطبیعی
##ram
کمدرامد
سپید
کرکوک
ناوبری
شهرداران
خواهرش
حساسیتهای
۵۷۰
ایالتهای
مقیسه
dire
تحولاتی
کون
پیشنهاداتی
cd
دستیاران
دلشان
مقب
پیامبران
##یزیه
##مق
گویش
زیباتر
##اصغر
توانستم
بوعلی
اره
ضی
ادراک
خاطی
مخالفین
##ies
بزرگنمایی
تاپی
میشدم
بدرقه
دراستان
##صال
میاموز
استعدادها
فوتی
پوری
##یزاده
حشره
دیدهایم
align
##ورف
رفیع
دیرالز
سیاهی
مولکول
نمان
بیگی
سانس
زخمهای
داروساز
روحالله
pre
##خواهانه
##roid
##ظله
جهیزیه
نمیتوانستند
##بدی
##رایز
سیدالشهدا
خانهدار
لژیون
هجم
##اسنج
مایوس
۱۳۵۹
##عون
گلخانه
تجریش
دیرالزور
دامپروری
گلزن
ممنوعال
عقیلی
ایستادند
نیاورده
دویچه
چاشنی
گرایانه
وزنهبرداری
##اتورهای
اسلامى
بنچمارک
اسکر
بازگردند
بدوی
بصیر
طلس
op
نایل
غیراست
موفقیتی
بلایی
حضورشان
##رفنی
ضراب
۱۷۲
درمانگاه
##اکر
خوشبینانه
وکیلی
تمامشده
اویزان
خوانندگی
میمون
مناسبتری
رجا
کافیست
نحوهی
##اکار
سکولار
۱۹۸۶
هندبال
برايت
الیس
جاها
قاف
فریزر
محبوس
۱۹۶۷
جالبتر
دیدگی
##ردام
عدس
ویروسها
بشکند
مدظله
رستاخ
مقدسی
حص
اسقاط
جوانمرد
جزيیاتی
##انى
زرهی
##استیشن
##ial
منهای
مراجعات
پوسیدگی
میشنویم
صمدی
لثه
اتیه
اکوادور
دستورکار
۲۰۸
سيو
منظورم
سیلیکون
شیشههای
سرپایی
خاستگاه
گیتار
تلسکوپ
اسیاب
اسمیت
القای
تضییع
درجات
سرکشی
اعی
میگرن
ناعادلانه
موزی
##پروری
مدع
قالبهای
پک
##ane
پرخوری
جزیرهای
طبخ
۸۰۰۰
منسوب
نبر
تکنرخی
کتمان
کادرفنی
چهاردهمین
اخترا
دامغان
قبضه
ظرفیتی
جناحهای
نصیحت
همزمانی
اسوده
باورها
##اجر
فهمیده
فج
شناختهشده
اسباببازی
هدایتی
شارژر
سیاری
اوره
دوهزار
غفاری
حضار
راههایی
زاید
بوگ
پوشیدنی
##تقی
هیاه
مشخصه
داوطلبانی
ایسل
سودای
##شاء
شناورهای
اعتبارسنجی
##خونی
التهابی
##ld
معتبرترین
میدیدم
روزرسانی
ولز
پروژههایی
اسپری
##دیا
افتادهاند
نمیگویم
جوسازی
احیانا
نپال
سیدنی
چاوز
همون
میشناسم
پلیاستیشن
ناهماهنگی
۱۳۷۳
کریستین
ایديولوژیک
کنندههای
انگیزی
بداخلاقی
ناف
##ناصر
گاها
##یلن
ایزد
کیوان
شبهات
بسترسازی
روندهای
حریری
شاکری
##لیکس
داشتهاید
میاوریم
لکسوس
سهامداری
شعور
انچنانی
متکدی
میور
طیفهای
##رکان
ویس
مزدوران
فرهیخته
رفسنجان
خوری
جابز
##متان
جوابگوی
زیانهای
##abir
##اترین
هرات
بگذارم
کنسرتهای
توییت
mob
نمیگرفت
فداکار
۱۵۱
نکردهام
سرامد
مراکزی
دماسنج
سرقتهای
ارمانها
دبلیو
##فرین
سناریوهای
مثالی
مقرراتی
تفویض
۱۹۸۴
dis
قمر
الريیس
سمیر
##صف
فروتن
نصاب
فرمایید
ces
لخ
سالمی
سازها
ایتم
نگاههای
۵۳۰
##ساران
نوشابههای
طعمه
ایتی
خویشا
بیایم
بودهام
غیب
ببرم
نواورانه
بمیر
فرهیختگان
فعالسازی
بمبهای
em
دپارتمان
تفاوتها
واژههای
##ولات
صحبتهایش
وسايل
##برانه
تمایلات
نقاشیهای
صلیب
پرطرفدارترین
##کامی
تیتراژ
##لینگ
زايرین
۴۹۰
دشوارتر
برهان
مکران
##ینسون
شعبانی
معصومین
شيون
##مخاط
ایرب
گزاف
نفاق
۱۵۷
دبستانی
سیستماتیک
راهرو
##ریو
بخریم
۱۹۸۲
##ورسی
گیریها
پوکمون
قمار
کشیدهاند
سپاهی
۱۴۶
بلندتر
امپر
هروی
توجهات
انزوای
air
مجاب
نشانههایی
##جیب
جزای
اسیبدید
مجازاتهای
زبالههای
نداره
##متری
تمرینی
گفتمانی
ارمانی
توافقهای
ازدی
۲۳۵
دیدهام
دانشاموزی
نمکی
خردهفروشی
عدیدهای
الحساب
مىشود
نازنین
##نوس
برندسازی
رفاقت
##قامی
میاد
ذینفع
قریشی
مسیرها
گیشه
مغتن
کارگروههای
مقدمهای
##پزشکان
کانتینر
رویاهای
واحده
گوجهفرنگی
شانسی
جنبشهای
بجنگ
##قولی
##uc
سوالهای
##عبه
بروی
کیلووات
سنگاهن
شکاری
فامیلی
##پیوسته
اینان
نبض
شناختن
مستک
رهاسازی
بشناسد
علیاصغر
پلمپ
واسطهگری
هرکیلو
بهتدریج
نست
پرز
##ake
دهقانی
کوپه
پیکره
گذرا
##ve
شکوفا
لاشه
گریزی
نمیدادند
فرهنگهای
اناتولی
پرافتخار
عمو
اسراف
لیاقت
مخالفتهای
برجستهترین
معروفی
نمونههایی
واتر
نژادپرست
##قاب
##يات
مادهی
سخنگو
رهنی
مسند
بخوبی
خطرناکترین
اوردم
عکسالعمل
میپند
٩٣
منفرد
es
ننگ
مستاجران
لوس
استفادههای
ازمایشگاههای
معاویه
استفان
##وبند
دیدی
خبرگزاریهای
جارو
جات
فروری
مهتاب
رژیمی
##اندارد
بکشاند
هفتهها
براوردها
بیولوژیک
سروده
راسخ
مدارکی
go
عایق
چیدمان
هدفش
۳۹۰
پاول
##ادة
##کلاسی
علف
ماریا
یکماه
شاخصی
خوارزمی
زاوی
هلو
میلیگرم
صدایش
سبکی
##رویی
size
دیدهاید
بههمراه
اعظمی
ارزانقیمت
منچسترسیتی
ضدانقلاب
رستاخیز
##اوت
غیرح
میدیدند
معبر
شهره
تجمل
##باکس
ريیسکل
طریقی
اجمالی
تعبیری
نپذیرفت
رقیبان
۵۴۰
##پروم
اخاذ
بیاعتمادی
قبایل
پابرجا
صلوات
##صلاحیت
کیانی
اموختگان
پیگرد
بانکمرکزی
میخواهی
خصل
##حور
قح
طو
اسانس
شکمی
تحلیلها
وشهر
موزهها
جابر
رویال
گهر
چالشهایی
صفحهی
سفال
مدرنیته
##اتیو
جراحان
##ومانی
خالقی
نمیرسید
خریدن
مدفوع
##حصل
اقتباس
ترجم
پاسداشت
محصور
##اندو
تلاشهایی
صفایی
عطفی
دلالت
زمینها
ادامس
پکی
کیوی
حملهای
##ختی
حاشیهن
میترسند
سیستانی
عاشقان
صمیمیت
نیروهایی
۲۷۵
عمرش
روانگردان
دستگاههایی
۱۴۷
یتیم
توانا
خوشه
زننده
عکسهایی
بلامانع
میهمانی
صبای
ایدهای
##وبر
۱۹۷۳
سنس
سلج
هیاهو
غیرعلنی
##حم
بستهاند
جانسون
##رور
الیاس
طلسم
##غربی
تجهیزاتی
ملیپوشان
برمیگرد
ناهنجاریهای
خامه
کندوان
ازمایشها
شستن
صوفی
##کاو
اران
مشتقات
جداول
سلطانیفر
نابسامان
معظمی
گولن
الیز
۵۶۰
معوقه
رودخانههای
امایش
مرتبا
پیوستند
محصولاتشان
مواظب
میکوشد
رقیبی
ente
ایرانایر
ترابی
میشی
عالیه
دخالتی
درت
##سگی
##پارد
متعجب
اتشفشان
انگلا
شدیدترین
فتوای
مبر
اسپرم
گرمایش
شگر
##لاش
هدفهای
۱۷۳
سرمربیگری
وفاق
##جامی
میگذشت
همسایگی
فلوجه
مسجدی
اته
کاپیت
پیشرفتهترین
مناقص
##lo
پرمخاط
بندیهای
entekh
##نط
طلبانه
میبندد
بوق
جف
##روج
قرارگرفته
واقعیتی
عطاران
مگاپیکسل
پرسشها
##پاسخ
##act
دوستم
الکترو
نگیرید
بودنش
امدادگران
پارامترهای
مراب
نفوس
زیستگاه
بسر
منبعی
ستود
زامی
اسکو
##فتان
یان
موسویان
مستاجر
باندهای
تناس
##خواند
دستاوردی
فناوریها
##اکا
پناهنده
فعالیتش
##ریر
گازپروم
##رمارکت
۴۲۵
##پاسارگاد
دشتی
عتی
لزومی
باسابقه
##روا
هزینههایی
یکدست
مرزن
هزینهی
جوانترین
ابدی
gr
اجته
همسایهها
۱۳۷۲
پادشاهان
ایینی
##خم
بشردوست
##افزایی
مقدور
نمیزند
مرزبانی
زندگیتان
cor
سيوالات
entekhabir
##تیان
تیمور
طولانیم
دوچندان
الاخ
##بیوتیک
بب
##لاشی
فرات
بانکپاسارگاد
باغها
zen
بگم
حشد
مظلو
انتفاض
برنجهای
##ماء
ماکار
مگاواتی
نگهداشتن
وایم
شمع
ستیزی
ببخشید
##نوشته
##مالک
هومن
##ونگی
بیابد
باورن
##ایندهای
یايسگی
##عملی
##تشاش
سرشان
حوزهای
زهره
انفعال
چایخوری
##عتری
مدرسهای
نتیجهگیری
داین
رویانیان
##خس
کامیونت
مرابحه
کتیبه
زامیاد
برفی
نمیپذیرد
##رايیلی
قدرتمندتر
محققین
زاینده
خندان
ترح
لیلی
نیویور
##هاشمی
تفاهمنامهای
##کاره
نشیب
برومند
جدیدتر
میداشت
الفاظ
خانوادهی
روستوف
مستحق
سازو
پارکها
فهیم
رضازاده
مقدسات
پرینت
##سانس
خورشیدگرفتگی
cr
غیرعامل
مستندی
مشاج
نخوان
راندن
الفت
پروری
جانوری
دهل
معافیتهای
fc
گچساران
واعظ
علید
اهداء
التم
ابلیم
زنیها
tu
چروک
خاطیان
انگاری
گلوکز
کانس
ماکو
اغتشاش
وارث
بینجامد
نیرومند
الحمد
کرباس
فرانسوا
انستیتو
متی
ساب
##وتکن
##جره
##انها
##فو
ابگرفتگی
عبارات
گردوغبار
ذرهای
عریض
امانی
دیوارها
انتهایی
عنوانی
اسلامشهر
مهناز
٣٠٠
بیشماری
بشویید
عزیزم
صخره
وجد
##ضاعت
جنایتهای
ارزشگذاری
مطمينم
۱۹۷۵
مقتدرانه
۱۷۴
مادورو
کوز
کارتی
هزارمیلیارد
٣٥
اجسام
تصورات
عباسعلی
wor
جامعهی
بیزین
صنایعی
ظل
##مة
شبیهسازی
العد
پارسا
درایو
##گاران
کیسههای
جوای
##جلال
گفتوگوها
بیابانی
فیروزابادی
سراتو
سخنرانان
گرانقدر
معدودی
واپسین
شعاری
##رههای
۲۷۸
##کیان
جغرافیا
مزین
درش
##ادرید
mo
العام
gear
جماران
۲۱۵
شبنم
همانا
درجهای
ازدواجهای
الایندهها
##دون
تخفیفهای
رابین
قطعاتی
نتوانستم
حافظی
tim
انباری
اللهی
اوردهایم
تنگناهای
۱۳۷۴
انجیر
باستانشناسی
توح
فرون
کیانیان
بلاع
دستفروشان
عترت
ارتحال
مکزی
نظارتهای
لباسشویی
اپارتمانی
##سلطنه
چهارده
بغدادی
nfc
##ونده
انوش
رپ
خودجوش
اتریشی
مختلط
cn
کامیاب
رژه
تلافی
همکارانم
صافی
غیرکار
تفکری
بگرد
کثیر
برلی
صابون
عاملیت
گرفتهاید
خودروییها
شاهرخ
بلای
روسیا
۵۸۰
سرسام
نامشان
امامان
سرمایهگذاریها
لشکری
لور
ناهید
الشعاع
اندامهای
باثبات
اتهامی
مقبولیت
##الحه
وانمود
معاین
صورتش
صحنهها
بالندگی
بلورین
##ادامه
معجز
توانمندیها
اقلیتهای
نگرانیهایی
۱۹۸۷
تمبر
رقیق
قسطی
همسرشان
طولانیمدت
ثریا
سبکهای
کلش
صلواتی
مشایخی
پرم
کالباس
نگرفتهاند
دکوراسیون
لایق
یزید
بکنم
منحصربهفرد
##com
##یمقدم
نمیبیند
ازط
گوام
تخمدان
##پندنت
ايیننامه
البل
زورگیری
شهبازی
xbox
دوغ
۱۵۳
پاشایی
##پرده
ماکرون
رفرش
بلاتکلیف
بنبست
دخالتهای
##حیدری
نمیشناسد
تعهداتش
##کنیم
تاریخهای
بروکلی
پاز
##عیه
رویدادی
##ghtes
دمن
کودکتان
قصههای
مجاهدت
june
خوردگی
ایفکس
گلابی
ser
همر
محفل
شعرهای
پیانو
گلپایگانی
ازدیاد
bm
گریبانگیر
واله
برداران
##وتیکها
##خدم
حالتهای
هفتهنامه
##گاز
سیان
الیزابت
۵۲۰
دمکرات
گابری
فاضلی
خرماباد
##port
واتی
دراختیار
میگه
میگذارم
سیدمح
بشردوستانه
سردشت
##جمعی
مسوولین
دیس
جهانگیر
افغانستانی
نامل
##ترتیب
پوپولیستی
##امیان
##ata
وند
##هب
محمدیان
بورو
صهیونیسم
بدخ
مشک
خداب
##چوبه
سات
اینحال
##همراه
سمتهای
رختکن
شیطنت
۲۷۹
١٣٨
سلجوقی
زیباسازی
کشورم
##ett
sw
باورنکردنی
مدرکی
فرمودهاند
پایهگذاری
پیچیدگیهای
اتاقها
نقاب
اسیبپذیری
سمفونیک
جرا
ملیت
گرند
خاش
قور
میدر
سالهاش
پاکدشت
ارامکو
بارزانی
##ونیم
##وزیت
براثر
مضامین
اوان
##ورة
دههی
نشستند
##قبه
##امان
ارسل
صحرایی
##نیت
فیلمش
ماسه
##قین
ارواح
نارنگی
فلانی
لایت
نامساعد
شایستهای
برگردند
فصلهای
مشتریانی
کیانوش
ویا
توصیهها
نکشید
اخاذی
اوبر
متاسفم
بادیگارد
متلاشی
اوای
شیفته
وود
فرامین
سمپ
راهگشا
بنویسد
فرافکنی
رمزگذاری
دفتری
اتو
ارین
##یلا
میگذرانند
نتر
##علیه
##خالی
وبیمه
عثمان
بالارفتن
۳۰۱
نظریههای
سکنه
شبانهروز
lng
برجستهای
۱۹۸۵
مسقط
مناظرههای
قاجاری
ساسان
اکیپ
##حة
##فة
##for
تحرکی
وایت
پایاننامه
زبالهها
##لیوم
فیم
##حانه
اولش
##ink
رنکینگ
۱۳۶۷
نابه
نیرویی
##ade
طاغوت
متفق
سخنرانیها
##ویلی
مرجان
شهرنت
##بازار
مسيولیتها
سایپ
مستقلی
سکت
قانونمند
شنیدهایم
خطه
سوخو
سنگها
اتحادیهها
سیاستگذاریهای
خاله
##يیم
مافیای
برنگ
غیرمع
قطعهسازی
لوب
رضای
منبر
نبرده
خیام
گشایشهای
فحش
دریافتهاند
گازدار
تیرانداز
دورتموند
red
قبله
ناچیزی
جانور
میرفتیم
روضه
۲۰۵
پیگیریها
امپراطوری
نابسامانی
صفویه
یکروزه
اغما
پیشنهادها
تملیکی
مارش
ریگان
دانشنامه
گیران
فايزه
تعادلی
جوایزی
الارض
سیکلت
داستانها
لوگو
بزرگراههای
##رینگ
محمدزاده
سبحان
##اویز
زردچوبه
##ترها
رایزنیها
##iew
نصرت
تبصر
تقبل
صلحامیز
پذیره
تلکام
حقوقیها
##پیر
گجتهای
هالهای
درها
واژگان
##ستال
##لیا
ورژن
نمازگزاران
تراژ
نمیروند
همبازی
##سیلو
ضمنی
##وغ
کنندهی
پناهندگی
دانشجویانی
معارضان
ماحصل
رزمنده
وپرورش
ایینه
اختصار
ناجی
خلخال
السعودیة
نوقا
ایب
قطارها
کرار
معضلی
هشداری
ذهنتان
سوزان
صلابت
متف
خودک
کمکها
۴۵۰۰
ربیع
شدی
وقال
الانبار
رکورددار
مراجعان
وخامت
بجا
فروت
بروکر
روسری
۱۳۷۷
لبیک
کرایسلر
بدح
جریانها
یادداشتهای
میریزند
##ژهای
اوغلو
ایندهی
بازگشتند
۱۹۷۴
##اندند
وشهرسازی
فعالانه
car
نجوم
نمیبینیم
افطاری
۱۹۸۳
##سای
ماهیها
رجال
همچین
اتصالات
نمیرفت
ظن
امیدهای
اولیها
حضرتعالی
kh
جنگها
##ثقیل
چمدان
گروهکهای
یافتهها
ترشی
خوششان
هکتاری
درهمین
باطن
میپذیرند
روى
##ga
میچ
گرفتید
عجول
اجراهای
هتک
خیری
بااینحال
##میت
اولیا
بتدریج
مجانی
##پشت
کشیک
##ens
تنگاتنگ
جرح
بلع
##دیه
۷۵۰۰
##ily
دربارە
برسم
##شتین
پذیرفتند
لاج
##کاک
عطا
۱۹۸۱
۱۳۶۵
##قای
ایسلند
فولیک
وساز
میکروس
موتورسیکلتها
مالباختگان
نرد
مدیا
۱۹۴۵
سریالها
خجسته
افتادگی
تاچ
شدنش
دلارهای
سويیسی
تهی
کامیابی
زوم
متعالی
کاتولیک
نوازندگان
##حتاج
##وهان
int
انحرافات
##ارز
۳۶۵
بانکهایی
مقتدی
ماژول
بفرستد
بوستون
##یلم
بیخوابی
گیرندگان
زنبورد
مهدویت
مالباخته
خواهرم
فسفر
فوریتی
صنعا
دیدگاهی
سامانهای
شیرخام
اکتشافات
we
چهارسال
فطرت
نمیگذارند
سدسازی
چارت
طیفی
جراحت
نقاطی
کورتی
مقیمی
زیباییهای
ایندیپندنت
معطر
نقوی
دامهای
نگذارید
فید
موساد
کنجد
خادمی
پنسیلو
افکن
خطراتی
##فاهم
خوشنویسی
رادیکالهای
یورت
##ستیزی
ولیفقیه
##اگه
انقباضی
تعریق
نظمی
تراشی
مضح
منفجره
بطح
##انسانی
۴۲۹
هنگامیکه
دارن
تنبلی
##go
موثق
۴۵۵
back
پیتزا
##شیا
بهنوعی
##وریزه
پرویزی
جشنوارهها
مسبب
سیال
پاراز
میدانستید
مگان
املاح
##کوزی
سندروم
پیشگامان
##pg
گیتی
پوچ
۱۹۷۶
براحتی
##شدهای
سایبر
مفرط
شهداء
اود
##زو
البال
ناخو
قطعهای
بطن
پشیمانی
درصورتیکه
عادتهای
پنلهای
جهل
ولت
زندگى
گین
کرمهای
کامنت
بازپخش
۱۶۱
گستر
منصب
سبیل
بولیوی
درکنار
لوکز
کمبودهای
دلسوزان
شکوهمند
دستورالعملی
رکاب
حافظههای
##باوری
پورحیدری
بمبيی
ویسی
مجرای
۱۹۷۸
انتفاضه
##سفر
صالحین
برلیانس
##دادن
وراث
کارشناسانه
پولش
چیپس
micro
۲۴۰۰
دستورالعملها
روا
سودجویان
اصغری
##جمع
تراشههای
نهادن
میاوردند
استکباری
نامناسبی
معیارها
اپیز
دووم
گواردی
تخیل
معناداری
کوهنوردی
امارگیری
مبارزان
فلک
موفقیتها
ایثارگری
بهجز
تحصن
بنیتا
کلیهها
درحالح
گان
ترانههای
##adee
منتظ
الهدی
جرثقیل
بیزینس
##بازان
تزریقی
اشع
معلولین
اثربخش
##تومانی
نسبتی
درحالحاضر
کوری
##ult
پاسپورت
اندیشکده
des
ستارهای
##پوستان
##ضو
سرخاب
##اسلامی
##یکی
مقاط
##یسون
وفا
ازادشهر
گد
اکسفورد
نداری
پنح
مایکرو
زیرین
##دلی
هرويین
##ایقهای
سراب
گفتگوها
خاویار
##ghtesadi
اتاقی
کاستی
navadee
navadeeghtesadi
میبود
کای
خلقت
وارونه
شستشو
براق
چاهها
vo
افکت
پلیر
فریبا
الامیرکی
مناسبترین
الزهرا
ریاحی
فسادهای
ترتیبی
اطفای
max
۱۷۱
خسروتاج
صوم
مضاع
لباسی
الکتروم
میکروب
پردازندهی
تناسلی
درحوزه
جار
نینت
حساسترین
۱۹۶۸
قدیمیتر
بپیوندد
##نفری
##لسون
فوقانی
دوبرابر
انفج
بقعه
##بريیس
خواندنی
غیور
انوقت
فردوس
برگشتم
پاتوق
سوگواری
ساختارها
یکتا
غیراستاندارد
گینه
شدهی
بحثهایی
تويیت
درحالیست
عاشورایی
طهماسبی
معالج
ارقامی
دوچرخهسواری
میتوانی
ماندنی
##عفونی
شغلهای
ولد
هندسی
چنگال
دژاگه
##فولی
##هایت
مهل
سرعته
اوینی
موسساتی
لهستانی
نواوریهای
متزلزل
انصارح
نتیجهاش
##sm
متول
همراهش
لرد
##گارت
شاهنشاهی
بلاعوض
##شتم
##شرقی
تذکری
چیده
##پژ
صعب
دیناروند
##پاژ
عطش
گواردیولا
اعاده
پساب
اینف
مرکزیت
ردیفهای
گپ
##واگن
##ome
تتلو
وگفت
دغدغهها
پسرها
نرسیدن
مجموعهها
اهنگهای
پیوندهای
گرفتهام
پیشنهادهایی
تجمعات
hiv
براز
پررنگی
اذا
نفهم
برچیده
منتفع
مهرجویی
قدردان
تاکسیها
حدادعادل
غیراو
مشهدی
ضرورتهای
گرجی
نابغه
##اینکه
شاعری
بزرگراهها
تراژدی
الاع
ep
مهرههای
height
##sung
گابریل
تکنولوژیک
تبه
##بیای
جراحات
طولی
##hone
مرگش
گرانفروشی
اتهاماتی
##ish
خت
مبنایی
قانونگذاران
کرباسچی
صورتگرفته
نمیدانید
نمازی
حقوقدانان
مالت
کیومر
گندمکاران
لاهی
ul
جیمی
##ژنی
تشریفاتی
راغفر
##شوندگی
قاض
هیج
نمیدهم
انبساطی
جنی
بلوط
کمپانیها
عبدالحسین
سوپرمارکت
سرگش
۵g
تقسیمات
comp
پینگ
سایتی
سرسبز
زغالسنگ
هالیوودی
##انتخاب
میلگرد
مکاتبه
##da
##اا
##امونی
سوختن
میدانستیم
نبین
##ings
مصباحی
بوروکر
مواج
دادخواست
هرروز
فردین
مریوان
زیرمجموعههای
بنیصدر
مینشینند
نمیگوید
خداداد
##میک
بسنج
صیادی
games
##هرود
المس
فیزیوتراپی
جعاله
شاسیبلند
صفری
بهعلت
ناهنجاری
تودههای
بانکداران
ترسی
شستا
##ستین
##ونیه
بیستمین
رامسر
بنگاهداری
صدیق
##فارسی
##روقه
۱۷۸
۱۳۶۶
##مک
ستونهای
ساندویچ
میفرو
جمهوریت
##جج
تماسها
تاکتی
گاراژ
مونسان
دعاوی
شهباززاده
##ردار
##اکل
نمیخ
کوچولو
جونز
رایجترین
ازت
میلیامپ
اقتصادایران
##سالار
اشتری
رجوی
دوومیدانی
مضاعفی
متضاد
نیلو
عرصهی
فزایندهای
##کوموتیو
عجب
داخلیسازی
جویدن
##ابراهیم
راهیابی
ثواب
شهرری
پنجساله
جدیترین
تیک
زرتشتی
تلاطم
زلات
samsung
۶۶۰
کودکانه
واگ
خوردهاند
med
شاتل
مارات
پیکار
باختند
حیا
۱۹۷۲
نمیدانستم
##وینی
فریضه
۳۱۵
بورسها
تسعیر
ارنست
بدیل
##کومان
اشنای
مختصری
##الری
اعتنا
میلر
پنحشنبه
۳d
ملقب
کاسترو
عاطفه
جکسون
خدماترسانی
##چهارم
زیرزمین
خلقی
ssd
حوزوی
بتا
پانی
فیه
قزل
##سط
شهد
بعدش
نینتندو
المانیها
##نف
اساسیترین
تعدادشان
بازرسیهای
لینکهای
ابها
ضدا
سوزوکی
##وتور
حکومتهای
##کاظمی
کبک
تجارتی
اطهار
قری
##قدی
رانا
اوز
زیربنا
ثامنالح
##طرب
حتمی
##اطین
سوداگری
کیومرث
##شاید
انفجارهای
##باسی
کنسولهای
atr
چهارگانه
نصیریان
##وتکنولوژی
کاردر
زندگیام
مولکولی
کمپرس
ثبتی
منظره
شکیبایی
صمد
پردازشی
ضابطه
کارهایش
۱۷۶
نمیتوانستم
ضدعفونی
میوهای
المح
اسکنر
هرسال
احتیاطی
غنیم
##خدا
ماي
جهانگرد
شنیدهاید
جیش
نامنظم
همدست
فولکسواگن
علاقهاش
منگ
ادر
تیموری
کنجاله
سرمد
اعتنایی
ابرها
لجستیک
ww
قشنگ
android
گردنه
نمیتوانستیم
موسیقیدان
ag
تامیناجتماعی
نوینی
تمدنی
ابطحی
منطقهی
محکومان
طراحیهای
مىکند
ضایعه
ابوذ
۱۹۳۰
زرش
اموختن
کاهنده
زوار
##ایفای
شستشوی
mw
بیابند
رویکردها
بنیانگذاران
ابهاماتی
کمب
apple
یخی
حجیم
امتیازهای
نمیایند
جوانه
کمیسیونها
##باء
ادارهکل
طویل
فرهنگها
نقدشوندگی
##طول
پشه
ارثی
کنترلهای
خالکوبی
ناپیوسته
بیتفاوت
معدوم
گیگابیت
nov
خللی
دولتش
حقانی
سیدجلال
نجیب
##ستهاند
سالمتر
۵۱۲
mobile
##ect
علیالحساب
فناورانه
کاستیها
iphone
علیدوستی
مبادلاتی
الجیش
مقایسهای
لله
ممنون
نقدها
شنیدهام
۱۳۶۹
ram
المپیکی
نطنز
اعیاد
۱۳۶۲
خطایی
صدوقی
دوستانتان
متناوب
هخامنشی
اوم
حواستان
بانه
ایو
##فیک
اندیم
مستشار
بستان
حاضرین
سرکرد
ثامنالحجج
ذبح
شازند
۱۹۲
##الة
میگردید
bro
کارتون
ردصلاحیت
کمبودها
علاقهمندی
پاتر
رسولی
کعبه
دلخراش
ویندوزی
دهیاری
۱۳۳۲
پسوند
اقام
مایحتاج
کلوپ
مطلقا
##چینی
انبه
سهماهه
بیوتیک
متین
پارا
استماع
محمدتقی
لخته
اقماری
امدهام
نماگر
مغزها
اختلافاتی
برملا
جویانه
عابدزاده
٢٧
تکاپو
عامی
تقارن
پاراد
پاییزی
زو
##ریال
صرافیهای
تلفنهمراه
بنشینید
۶۱۰
التر
ویديوهای
وایفای
متقاب
خدی
##دستی
کارگاهی
##ناپذیری
الثلاث
e۳
۹۶۰
خوابیده
نمیبینند
میشیگان
۱۳۴۰
بالادست
اسلواکی
نظارهگر
میامی
عکسبرداری
ضیاء
مخف
##نشال
نمازجمعه
یوگا
لسانجلس
##عداد
حقوقها
نشدم
کشتارگاه
بارت
##بیگی
rx
جریمههای
پیرزن
ویرانگر
پنسیلوانیا
رضوان
super
##ts
استعدادی
ژوزه
درادامه
۱۹۷۱
اعتراضها
مکرمه
بخوریم
اعتراضهای
میپیوندد
طر
ساقه
کورش
الدول
اپید
بانو
##ایاتی
گردونه
پیرامونی
معاشرت
سفیدی
غرض
##پرور
عقبایی
مدارا
سکونتگاه
ناممکن
مهدکود
##الن
##کلن
رسیدهاست
کاریابی
ماموریتها
قحطی
power
گرافیکهای
کمبری
##باقری
ریگی
دوبل
نوشیدنیها
میاندیش
سيوالی
متنفر
اسکیز
##ba
منسو
فرانسیس
بایستند
دیتای
##جموع
ناقض
امانويل
پهلوانی
نامر
##وانا
کمکاری
ماکارونی
##سبان
سازیهای
خطیبی
کلاهبردار
رین
##۰۰۰۰
جعفرزاده
انشاالله
##اقتصادی
##فرانسیل
moto
تابه
اجاق
مستر
سونوگرافی
دلخوری
پیشمر
معر
پروتيینهای
هیاهوی
wi
زمینشناسی
شورشی
شادمانی
اروگو
خویشتن
المتحد
متضمن
افریده
رهگذر
مضطرب
لوکزامبورگ
اندیمشک
دوستداشت
چگالی
صفار
۳۷۵
جسورانه
تقسی
نکردید
سرنو
vr
##وپی
##بتان
##گانگی
کلنگی
صدرا
راهحلهای
خف
مشاورههای
گلیس
میانسالی
مخالفتها
##يیسه
پشم
سالهایی
بیاح
du
۱۹۴۸
۱۸۶
۴۹۵
ازسر
ارزاوری
الحشد
##اقتصاد
اذین
تاییدی
مرغهای
##ختر
bat
مفتی
حجاریان
تقاضاهای
توحیدی
برس
متراکم
بازارچه
اسیبدیده
خلبانان
ایربگ
##شارژ
رمزگشایی
##ril
##کاست
مادام
کولاک
فزونی
بیفز
شیاطین
سبزیها
برنامهنویسی
گردانهای
جانمایی
ماساچ
مناصب
تاوان
درمن
##ازمایی
حسنه
متال
تياتری
سفیران
##خصصی
وایمکس
جاک
##گلی
دیگرش
۲۴۵
بدنشان
سکس
##شمی
حریر
اروپاست
برداشتی
##خیری
کثر
انجمنها
تصمیمگیریهای
gps
عبدالرحمن
پیکسلی
مصلح
پگاه
##انچه
##شتان
برخوردها
کاستیهای
موازنه
خوشحالیم
تکرقمی
ماساچوست
دستشویی
۱۹۶۹
ابوذر
مرقد
موبایلهای
عسگر
اختراعات
۱۳۵۶
غن
کانی
تعج
امارهایی
زحمتکش
##صیل
نایبريیس
##وون
اختر
قطبهای
ولیالله
سلاحها
دانشکدههای
التماس
لگن
اخراجی
نوشهر
انتونیو
line
٢٩
##بانه
شهرنشینی
تکههای
ضربال
زامبی
نگهدارنده
کورس
بریزد
سرنوشتی
گنجایش
توانگری
کشتند
##نژ
##ics
تپش
##طیل
عصمت
یزدان
##گرافی
غصه
اذن
نادران
مقاطعی
##ms
دقیقتری
رویهای
دغدغهای
بنویسند
لیزری
mt
شنی
##ینها
علتهای
کوچههای
دمنوش
گفتهایم
میخرد
پیشرفتی
دستمان
چکها
نیازمندیهای
##وفروش
ردپای
مینمایم
تیترهای
بیولوژیکی
روابطی
دیزنی
معالجه
dec
معاینات
اقازاده
میبرم
میکردهاند
##روحه
##امپور
فروشیها
شمیرانات
مستهجن
روزنو
سپیده
نشنال
دج
میم
صورتجلس
عجیبترین
##کریمی
##وفن
کلیدوا
ترفندهای
بلایای
بدانم
جهانگردی
مفس
موری
زردالو
شیلاتی
مسروقه
گرمترین
##جویانه
نهر
فیمابین
ثانیهای
لال
۶۴۰
نمیز
مطلقه
شهامت
اوران
##ظار
مغان
ملتهب
##والی
استات
ارایی
تران
اسرايیلیها
بازنشر
موحد
اینستاگرامش
فراخوانی
بازیکنانم
محرکهای
نمایانگر
##امیکی
فراوردهها
ناشن
فتحعلی
شتا
دندانپزشک
افتابگردان
مدیرعاملی
سلحشور
ناپسند
میترسید
قطریها
کروموز
کوهنورد
ارسلان
زشتی
نیشکر
##وهری
گوشتهای
پترزبورگ
رودر
##راوت
نیمروز
پرچرب
مطروحه
رنجبر
۲هزار
##اتوم
محتاج
تواناییها
علاءالدین
روبین
برگههای
فضاها
نیوت
صحه
اقاج
القل
جمجمه
استاین
سويیچ
کاهو
فدراسی
خاکستر
##sa
پشتکار
##وییل
شمرد
کیوس
بیاورم
تالابهای
دردسرهای
موسیقایی
راجر
متد
نوازی
اهنین
سرخورد
##دره
اضط
کنفرانسی
انصافا
ویرانی
رشادت
لکههای
تصوری
##لبیت
هرکیلوگرم
پپ
براون
راهسازی
دلتان
##سرپرست
حبیبالله
##بارت
سکون
برگردانده
اشکالاتی
دسی
مجلل
دامان
استفادهی
بایگانی
سفرای
حوثی
##گزارش
گروگانگیری
گرده
درق
۱۹۶۴
خاکسپاری
ترشحات
محجوب
مدرنی
g۵
کشاندن
گرمسار
پیشگاه
خطرناکتر
گریخته
فايق
شت
موضوعهای
فروغ
والاست
هلیکوپتر
##تونین
نژادپرستی
فوربس
##چند
افسوس
جوراب
##کنندههای
فراخواند
هفده
زیمنس
٤٠٠
نواختن
تایوانی
هویدا
ایثارگر
میپرداختند
فرزندم
نانهای
##ینگتون
بعثت
ببندند
یقه
کوهها
##سس
تعهداتی
lcd
المانیتور
ناپل
اغشته
شمایل
full
خاين
پربین
روبروست
کنندهها
شرور
سلبی
سروکار
لینوکس
pd
جزم
۳۲۵
۲۲۲
جوزف
لابه
##ودهای
میرباقری
سندرز
منسوخ
تنقل
مخرو
تومورهای
نظارتها
واتساپ
##اگر
صدقه
مینیبوس
الکتریک
تهرانیها
پترولیوم
حجام
اسکور
تعالیم
نامريی
##نشده
ماجرایی
اذربایجانی
فرابورسی
اینطوری
دیفرانسیل
##ورماتیک
نفیس
##چن
مجذ
تقسیط
دلها
همایشها
برت
بازپرسی
اشرار
تشعش
نگاهش
۵۱۰
کروات
##لسازی
کشیدم
فدریکا
مفا
ناسیون
نویسان
##ازاری
##جرم
علاقمندی
شجاعانه
sun
پرتردد
پذیرفتهاند
##زول
منقول
یغ
##قیقت
سنتر
اردکان
یافتهاست
##ence
عرفی
گزیدهای
بروش
گازوییل
تلفظ
صلیبی
میاندواب
قیچی
تویس
عبر
کبوتر
اجابت
انجاست
وضعی
تلاویو
##ani
##اهمه
محورها
اجتهاد
net
بمانم
تپههای
بالفعل
والف
اتومات
بطحایی
##دد
نیابت
اظهارنظری
##یتیش
چیتچیان
ملب
رقابتپذیری
##وستر
اسلوونی
ارتروز
۱۹۷۷
##ضاییه
نوشتاری
سنسورهای
ناق
نزده
##olog
بپوشان
##نیهای
دریاها
شوکهای
همسویی
عواید
فردوسیپور
خشت
قادری
##ترامی
up
شرارت
##دانش
بکشیم
ادیب
مشاجره
شیرهای
نانوذ
##حضور
نهادهها
بهموقع
نورپردازی
عون
تحریمهایی
فرامنط
الشیخ
سازندهای
انجامیده
عبده
نگاشته
##خواران
خرسند
##جامگان
السد
شکات
بپر
سمیه
##طبع
مظاهر
سفرش
تصدیق
ذلت
میتوانستم
پلک
##بوری
همینجا
عدالتی
۲۱۲
قرنطینه
av
اجلاسی
۹۲۰
##مو
حلو
ترابردپذیری
قدی
##ادیه
پاکت
دیز
۹۳۰
سجده
پابرجاست
##هنه
کوانتومی
بون
مقبول
ادله
امدهای
تقریب
میخوریم
شعبههای
شاکیان
۲۶۵
نیلوفر
کانک
البرت
وسیعتر
متکدیان
فرستنده
کلاهک
کرانچار
ازش
گرههای
خریدوفروش
کرنر
البومها
قرنها
دات
داک
۷۳۳
رابطهی
عناص
##سول
مواض
ایة
صباح
ملودی
گلوب
##ly
##pr
##زیو
بخشنامههای
##خوف
همپیمان
تکاملی
باغچه
تفریط
۳هزار
طیبه
ستیز
spe
چندسال
جبههها
##وفرنی
فلین
للم
نیوتن
نوستال
بیاحترامی
نوشتهها
##ارتباط
اجراء
بستهای
تخمک
ساینس
صدف
توامان
افشارزاده
بریتیش
دادگاهها
اخوند
نمیفهم
میخوام
قوهقضاییه
بیتاثیر
سزایی
گرمایی
##ood
مهاجرتی
by
مرف
درمانگر
ربودن
پلو
خصوصیت
محوله
##اورید
تدفین
اندازههای
۶۱۶
مصالحه
الل
بیشمار
سیانان
اقتصادنیوز
سفار
هوشمندسازی
##سالان
حقیقتی
##ai
##گوسن
فردو
fr
mus
##صن
##قاز
اینجای
مولکولهای
خض
##کست
دراگون
سازید
طبل
den
۲۰۴
مسولان
شسته
##عین
##اقا
تسنن
ایلین
فتوا
خمپاره
پربیننده
حجامت
استکه
البانی
دلبستگی
۱۷۷
تهیهکنندگان
جایگاهداران
کمیل
سراغاز
اواربرداری
مفتح
الومینیومی
محافظهکار
پسورد
مخالفتی
رستگار
کهکش
مستعفی
##زرندی
رومات
هیيتی
##گشتی
ایروان
۴۷۵
##راس
رضاشاه
مستقلین
چان
##اسو
چهرههایی
گرداند
چابک
افشاری
مدیریتهای
cont
برگزین
عابدی
۱۳۶۱
اضطرار
my
شنونده
میرزاده
ماشینسازی
لیدر
۱۳۹۷
حرفش
مگاهرتز
میبخش
مظفری
واژهای
پکیج
سوالها
حملههای
متبوعش
گمانهزنیها
۶۸۰
۲۲۰۰
قاضیزاده
##ادگان
۱۳۴۸
اهلبیت
سیاهجامگان
معرفتی
پیران
شورایی
نمیشه
هماندیشی
اوباش
زینت
۶۳۰
۸۳۰
برداشتند
صداگذاری
##ایک
حاملگی
بازدیدهای
کریستال
استنفورد
۱۹۳
##ماندگی
بیک
مقید
میکنن
علمال
وفات
مرام
ترند
##ator
۱۳۶۴
واکسین
فرستادند
جهرم
ازمایی
##منه
چهارصد
سپاسگزار
لطیف
بالی
انجماد
رضاخان
کاکايو
داربی
دلهای
نااگاه
بهعلاوه
بهسرعت
پون
میانمدت
چاله
ویکت
واگیر
جملاتی
الیه
هوادارانش
قایقهای
عمری
۲۳۶
۲۱۸
##راکی
پاییند
خوردیم
دشواریهای
دایم
##وزیری
صفوف
##ایمز
نیترات
کوالال
شانزده
پیداک
نوی
زمزمههای
##هارت
فات
##لة
فیاض
خشونتها
پویانمایی
##فاء
##فید
تلاشمان
لغزش
تکتک
پاییزه
ازطریق
عدن
##ملر
پارت
۴۲۸
راهش
سطل
نشنیده
میپسند
مولتی
نیابد
زندهیاد
معصومی
دوک
بازافرینی
سرداران
نمیدانستند
چسبندگی
همکلاسی
چندجانبه
بضاعت
مسعودی
اباعبدالله
##اتیان
عنف
دورد
##ضرب
اغازگر
سیدحسین
##rit
نیکز
پیوستهاند
طرفداری
۱۸۹
عمیقا
گراد
قسمتها
الرضا
زید
خاطراتی
ایستگاهها
وسایلی
پلههای
اناناس
تورنتو
ورودیهای
هورمونها
ریشتری
بلندمرت
ماموریتی
رزومه
الاسرايیلی
ساسانیان
##فهیم
السعود
سیام
امرار
جراحیهای
ببندیم
۱۹۰۰
لوپن
یخبندان
مهیج
بمال
##پردازم
شهرداریهای
خونس
نمیگیر
مناقشات
بناها
مناسبتی
نپرداخت
فرگوسن
سروتونین
ارادهای
صحرا
خسارتی
خدادادی
دایناس
۱۸۴
روباه
نتوانستهایم
نظیری
نیتروژن
##وهی
##وصول
رایدهندگان
سرتان
اندوخته
انک
خدمتگزار
سوسیالیستی
چانهزنی
۲۷۶
سهیلی
۱۹۶۲
بوکو
##خواهید
لخویا
ماهینی
ایمنا
افراطیون
بارزترین
دربارهاش
پرمخاطب
برنی
۴۰۲
##تیجه
فرزین
میخورید
مردگان
استخوانهای
هژ
بیضایی
هکرهای
لوتوس
##نفت
##لاوی
مصنوع
مراسمهای
جاسک
هستههای
##استر
کلاهبرداران
بالابردن
وفی
کچ
میشوی
##نیة
معاونتهای
کثرت
جاسم
یولی
نشاند
مواجهیم
مادربورد
بهدر
الاول
تایلندی
دیوایس
لغز
روزبهروز
سعداباد
جاودانه
امنترین
جرقه
هشی
برایت
پرسیدند
انقلابیگری
##اسکو
مخربی
۱۸۱
دزدیده
ابگیری
نمیکردیم
خوشامد
اولیاء
انتزاعی
اماس
موعود
گذاشتهایم
دکترین
خودکفا
ماق
الناز
تمرینهای
کوالالامپور
هربار
خرب
هوگو
استحضار
بدم
اربیل
میگذاشتند
صداها
موسسهای
صبحگاهی
پرشت
والن
تامینکننده
جانش
گلبولهای
مثمر
لیگهای
انداختهاند
ویلیامز
میکاهد
مسوولیتهای
مکانهایی
لامپهای
طهران
متجاهر
افلاین
باشگاههایی
انفورماتیک
۵۹۸
دایملر
نانومتری
۸۱۰
نابینایان
رانتی
منوچه
سویه
میبندند
اتلتیک
دخترانه
برترینها
بفهمند
فدایی
sky
ult
کمدین
تحتالش
شهرکها
سرخوردگی
##لون
راهحلی
ببندید
مسکوت
دیافرا
اورک
غوغ
پوریا
کاملترین
۴۱۵
تنباکو
الثلاثاء
تحتالشعاع
##کمی
سردردهای
احساساتی
ویدیوی
##شونده
واکسیناسیون
رقمهای
فضانوردان
٤٥
تنفر
تنبل
شیوهی
hp
حربه
همیاری
گلدان
نمیبینم
sony
##bm
##ايیل
بیط
هجدهمین
وتج
ارغ
تجسم
۱۸۸
چندمین
اشتباهاتی
اسپرین
تزيینی
پرحاشیه
##اندازه
سزارین
بروس
امونی
مگس
##ورات
دستفروشی
ضخیم
قرمزها
اهلی
مادرزادی
فرامرز
پاستوریزه
اکنه
حالش
##تیها
فیزیکدان
نخستوزیری
زیباست
##حا
شبای
محفظه
۱۷۹
محراب
صندلیها
المست
امیدها
##اریخ
##نامهاش
استراتژیست
اتفاقهای
##مزدی
##قهر
##ong
فدراسیونها
پارکینسون
مازندرانی
همدستی
حقانیت
##ژیکی
مراعات
سبکتر
پیامکها
تعیینشده
منوچهری
##دوست
##سکه
فتن
لابد
ماندلا
واگذاریهای
##کربن
درمیاید
مدیرمسيول
زیرنظر
۲۲۸
دروازههای
hdr
اتلانتیک
s۶
میفهمند
بازیهایی
هیجانانگیز
##نتهای
افیس
بفرستند
بدعت
میردام
پشتوان
ارزندهای
خودباوری
سیاق
لاهه
ني
سهیلا
داشب
خیمه
##cl
استروژن
پاوه
لینکها
##سترین
سیدمهدی
سگهای
##اضل
##رانهای
۱۹۷
قادرند
۳۹۹
کفاف
۶۷۰
##no
##گرها
نوزدهمین
چیه
##گرانی
مستم
new
مخفف
دورافتاده
سرگشاده
اعتیاداور
۱۳۵۵
بذرپاش
برجا
بناست
بالاخص
رعب
بروکراسی
متولدین
پتنت
جیغ
استادیار
منحصرا
##ونین
دلفین
بشقاب
واسه
نگذارند
##عتبر
بیهوش
بفهمد
اشتر
##ero
ترویجی
نرسیدهاند
ارجح
صومعه
الما
اغازی
قبلتر
call
jan
کمربندی
##وصل
##ضاء
پهنا
فرامنطقهای
نااگاهی
edit
سمفونی
غنیمت
دسر
رودکی
اینستاگرامی
فراخوانده
٨٠٠
هیلی
اظهارنظرها
مما
لیفان
علاج
گناهی
۲۰۹
توصیهای
الذکر
اموزشگاه
تطبیقی
black
کسوت
عاملهای
موقعیتها
تبلور
شبهنظامی
فاجعهای
البالو
مادرها
۹۸۰
اشیل
المق
تماشاخانه
سکتههای
رخنه
بلندمرتبه
##لایی
بلندپرو
انتقادهایی
تفلیس
الوند
رایزن
اعتمادسازی
طعنه
منم
##لوچ
دستفروش
##اعدی
بورد
بلب
فقها
دریک
مددکاری
البد
فایننشال
##سویل
نگرفتن
##جردی
##روسی
درجا
عبدالم
تانکر
وعدهای
بافی
زمینگیر
##باخ
زیور
خرمای
رستگاری
طلافروشی
اوا
دختربچه
شاداب
۲۱۶
تابستانه
۱۳۲۰
گزاره
بینتیجه
اوحدی
گلدن
واژهها
علمالهدی
نیکزاد
عجولانه
۱۳۴۲
اووک
بازنگ
##لبانی
مشاورین
وگویی
##طقة
نظرسنجیهای
بیخبر
اومد
پربار
فصلنامه
کشتیگیر
ریختند
میو
صدرنشینی
شاپرک
میبینی
کشمیر
۱۳۵۱
جایزهی
علوفه
sat
همایشی
۱۸۳
الحرام
یح
چکیده
یکسوم
پلتفرمهای
بعثی
عناصری
عقبه
بافتها
الیا
کلوبها
هايی
سابقش
sa
نیکول
ماقبل
مکن
روحیات
پمپاژ
رکنی
دنیوی
پتروپارس
مبتکر
عبدالکریم
۱۸۲
ایجادشده
میفهمد
اوکرای
ژيوپلی
##ربرگ
ضروریات
بهحساب
هشدارها
براش
کرف
گلس
معتبری
ورزشگاهها
گستردهتری
##yn
نفرین
دفترچههای
نوراف
توالت
گشتهای
بانکوک
قدرتها
سفارتخانه
##ادون
استغ
##برنامه
هوافضای
توف
وظیفهی
لری
اموی
ابوط
نگرد
بهشهر
نوازندگی
خشنود
##ational
انتزاع
مجذوب
توالی
۱۹۶۶
کوسه
اپلود
لجب
دوخت
بهنوش
دستههای
۴۶۸
بازداشتگاه
برهنه
هدیهای
ثروتی
غاصب
۲۱۴
##کنندگانی
bo
۷۸۰
نیافتن
سرقتی
۸۳۵
زیانده
۳۲۱
sur
کشورهاست
نهچندان
##باشی
##لله
دارال
##بوحه
بحمد
fam
همزیستی
انری
زدنی
تنقلات
۲۳۲
اندره
نروژی
میکروبها
مداوا
smart
طفره
برندی
مناج
فرشهای
قرنیه
مضحک
پورتال
الشرق
دستکش
وبسایتهای
نوسانی
زندگانی
بدیع
٢٦
فابی
عقبماندگی
##پیچی
ابرقدرت
تفاوتهایی
برگرداندن
برشمردن
##کتی
توانند
قشقایی
تفهیم
گلخانهها
طراب
ناراحتیهای
برید
چاوشی
دلنشین
۲۱۱
بلوکی
مارکو
نانوذرات
غنای
اتمسفر
دردسرساز
پرویزیان
تاسی
انشاء
bmw
pe
gdp
##تب
تابعی
غیرحرفهای
##قرار
هجومی
نابرابر
دروغگویی
۸۸۰
ناجوان
اولیهای
داشبورد
میشم
##گها
باورم
##جهت
غیرمتر
دوستداشتنی
دیدهبان
روبهروی
السیسی
بیچاره
الکترومغ
طراز
حقیر
اپرا
بحبوحه
زمانها
کافر
سوءتفاهم
دیافراگم
##دارد
سیمانی
۲۸۵
منظوره
خرا
##ینة
میفرستند
پانک
تیرگی
اختلافنظر
اتیوپی
مومی
انجل
تعاب
##یدیو
هواپیماسازی
مارین
کلانشهرهای
gp
##سکری
رکوردی
چرت
##وریها
سقفی
رساندیم
مادامی
##فرانسی
نابینا
##ناء
کمینه
قاضیپور
۶۲۵
کسال
##ارههای
توصیههایی
الگوبرداری
sd
مرجعی
سلوک
کازان
اقناع
##اسپ
مسالمتامیز
mol
##چری
##ory
مشروطیت
قوطی
۶۱۵
##بگیران
##الاج
۱۹۴۰
برشمردند
ملخ
دعوتنامه
کلماتی
میشنوم
بندگی
مخترع
ایندگان
دشتهای
موناکو
هموطن
ننش
##ودو
غیرفارسی
۲۲۴
مظاهریان
منتخبین
تخفیفات
۱۹۶
اراسته
ارایشگاه
بوگاتی
افتادم
خدیجه
موشهای
سردرگم
ریشهی
لاهیجان
تایی
چل
##پرایز
##صادق
باختگان
چشمپوشی
گرمتر
خانمان
بادوام
خلوص
##land
خرابکاری
سرگردانی
لایک
مهاجرانی
##واپس
سوب
قايمشهر
شکارچیان
ma
درنگ
کمبودی
بارگاه
تاثیرپذیری
معتمدی
۴۶۵
سیده
۱۸۷
##العظیم
کتابخانهها
شاگردانش
دانهها
٧٠٠
اشور
بادم
امتیازاتی
میخواندند
صاحبخانه
سرمازدگی
پوشاندن
ادعاهایی
پروتيینها
##ووس
بازتر
##ونیوس
۱۹۶۵
کلمهای
سهمیهبندی
ضعفها
قبیلهای
تکواند
ایکسباکس
اژدها
msi
۹۷۰
##برگر
نمونهها
جگوار
۷۱۰
##يیت
استخرهای
معماران
الاست
شنیدیم
مکانیزمهای
et
عیان
چکار
تکنسین
ماریو
cam
طراوت
ساعی
مراغه
یعقوبی
خا
##رکار
التع
مخلص
الخط
بیمهشدگان
مزایایی
دربرابر
##کنگ
##شنال
احتمالات
موقتا
##اگويه
سستی
باارزش
راستین
استایل
هموزن
##گرمکن
گفتاری
خلعت
طرابلس
##الهی
##خشک
کاملتر
##سترن
طهماسب
هانی
التو
دانمار
تحریریه
داراب
حوزههایی
no
فجی
##فورم
##ارداری
خروس
عروسکهای
direct
رفق
برمیاید
دراوردند
دزفولی
##وایان
یادش
هیيتمدیره
رهنما
##روض
##نهام
میانهرو
دهلران
چیره
اولاد
نشدیم
پیشرفتهتر
##وة
ابتکاری
بچگی
زوری
دلواپس
سوشا
سوزنی
بیطرفی
اوهای
حملاتی
جوابگو
نرمافزارها
mv
هاید
مداد
ایینهای
بانان
٨٨
انتفاعی
##وبین
##اسل
نخورید
کلهر
تفصیل
سارکوزی
هجمههای
گزینهی
استهلاک
ec
##اریو
واقعبین
کیلوگرمی
الحاقیه
وون
داشتههای
اجتنابناپذیر
ناجوانمرد
۲۲۶
نوسانهای
مارچ
نیمهتمام
سکوها
بنویسم
##طقه
کمپینهای
هید
وسطی
oct
مسنجر
کسانیکه
غرضی
استعماری
##پیا
معیاری
امدهایم
منوال
مارون
##ینگی
مختاری
طبر
##نها
نامها
تفسیری
کمرد
اختیارشان
##هایتان
پنجرههای
قسمتهایی
نعناع
عاجز
اروگويه
##ونیوز
بزرگترها
##یدرود
برمیدارد
ژنهای
الملک
بپذیرید
المتحدة
سودجویی
فنر
ماهوارههای
وامد
تولیدشده
مستعار
دیک
لحنی
کانسپت
فوتبالیستها
پلیمر
متجاوزان
منتج
۱۹۶۳
نیوج
افتد
پلان
هرندی
علیکم
فشارهایی
میگشت
خمس
##کوی
خودشی
##هنویسی
شجره
کرفس
کاج
استو
قطعنامهای
##کسازی
##یندخت
البسه
شید
خواستهای
شیره
بیداد
##ift
میفرمود
واتیکان
۲۲۳۱
##ایص
نسرین
جامعهشناس
مکلفند
میایستد
##شنا
##لوتی
۴۳۵
time
ماراتن
الخارجی
##بیز
اتکاء
۲۰۲
ناکرده
رباتیک
بازجوییها
سرگذشت
۱۳۵۴
##زهای
میره
مجهول
لرزاند
واگنهای
لعاب
یعنى
ستیزه
هاپ
ماخ
ناوهای
ناحق
سعه
##نق
نمیگردد
تزيینات
زایند
فروشهای
صداب
درازی
بیاطلاعی
زودبازده
نيو
ass
تاجران
##المسلمین
##ina
دیره
دربند
##صدای
خودمختار
مخصوصی
خدایان
اپت
رادیولوژی
ریاضیدان
کدال
مبتذل
طلبکاران
fre
کتان
رمزنگاری
##مثل
##ایمی
انتظاراتی
دلسرد
السبت
ربانی
۲۴۹
پارامتر
بچرخ
پاسی
اسعدی
##عدالتی
سوسیالیست
رختخواب
فیلد
عقبتر
داشتی
اینس
نیابتی
نیازمندیم
الاسلامیة
نمیگذرد
ایتمهای
پیچید
گیمرها
دستتان
غیرمعمول
خمین
بهص
میداده
۲۷۲
امیدوارکننده
الوح
سقز
الیاژ
بدخواهان
سرپوشیده
درف
محبی
##نگار
هدایای
sec
##ایرانی
ملیاش
ژست
براید
۱۳۷۱
جشنوارهای
پردازشگر
##وث
##طیف
جوابیه
دودمان
نیوجرسی
بافته
##علیزاده
خربزه
محتاطانه
واصله
بهاین
حرفهایش
غیرکارشناسی
ماهگی
نخاع
لازمالاج
مسجدجام
اقامتگاه
بپرهیزید
چاک
روزامد
چندگانه
بارور
معما
ابوه
۳۲۰۰
ایکون
مدفون
ذخیر
dr
عبری
وى
##ادند
عسکر
فحشا
tw
##tle
بازیکنانش
قلههای
wind
مشغله
الاحد
##عادی
##اسن
اولویتبندی
شقایق
##اهام
چهارساله
##بازدید
##نبی
جاسازی
##خلی
میکوشند
البح
دوطرفه
نوزادی
عدیده
##ابا
مصايب
##جناحی
چشمانش
پرنس
کیلوب
گزینشی
ندادیم
عالمان
زایندهرود
##po
##گردون
صیادان
##ادونا
دیکته
یونسی
غوط
نرمی
##لاو
پرسشنامه
۴۱۹
##old
التها
حدیثی
واریزی
##وشهر
سردخانه
##پوشد
سرفصلهای
##بتری
یارانش
فوب
world
##لالی
فدراسیونهای
ظالم
توافقاتی
سمع
کامرانی
اتومبیلرانی
ind
الشام
##ژین
بیخان
بادهای
بریدن
خیزش
رودری
الگوریت
لاب
اعمالی
count
پارگی
خواندهاند
مغتنم
بیشاز
یورو۴
ناسزا
##گنج
غیرش
نمیخواهید
منعطف
نبردهای
استند
##ریزان
hu
جمیع
چارچوبی
چنگی
۸۶۰
۷۶۰
فقهای
دامها
##ann
گذشتگان
ناصحیح
ناپایداری
ليوناردو
لاي
ذهنش
پرشتاب
لیفت
مسيولانه
مداربسته
صابری
##طراحی
مجردی
عدول
اسنودن
۲۱۷
خادمان
لیتی
نشستیم
##زیل
باربری
صفحههای
##الام
نیستی
family
##کنده
##اوریم
استیکر
تکانی
نمیشدند
خویشاوند
همدستان
click
۲۰۳
مهاجرین
##لوچستان
چندماه
##اغلی
باکتریایی
ماجراجوی
نیکلاس
##cess
استنش
ارتور
ابلیمو
عنبر
نداند
۴۳۲
عرسال
فتای
توبی
بیوتکنولوژی
##اوینی
اندیشید
ژاک
دلسوزانه
اووکادو
انور
مدالهای
دنبالش
ایستگاهی
گریپ
گرفتاریهای
انوشیر
##ical
دوگانگی
غیروا
نمیشناخت
گندله
میسوزد
گونهها
هجده
میانداخت
rt
##وبیل
دردها
فاصلهی
لول
۶۱۸
۱۳۳۰
۲۰۲۵
فازها
پستبانکایران
خفا
میشکند
بهرهبرداران
قارچی
بازارهایی
۲۱۹
شکایتهای
کلینیکهای
المهدی
ارگون
##وریسم
ماهوارهها
منازعات
چکا
کمد
اشرفی
خشنودی
مارادونا
##نظام
سرخی
نیمکره
برگردم
انبساط
پدرام
بنزن
محدودههای
ثمرات
مغرض
حراجی
ماهیچه
جینی
میرکریمی
سواداموزی
سوى
گرمایشی
کوار
میرکاظمی
فناوران
بیرح
خیران
لشگر
تاپیکو
سیدمحمود
امست
##عنوان
اجداد
خلافی
جناحها
مکملها
نروند
مشق
راین
چشمههای
والتر
انعطافپذیری
game
والفجر
افکنی
مشاغلی
##شایندی
per
یر
مقارن
##ric
رجل
غسل
الکسی
نشدهاست
تاجگردون
تاثیرگذارترین
۷۳۷
حاجیان
غیرمتشکل
##یرین
اختی
ارتباطاتی
لذتبخش
پلاتین
بالطبع
وعدههایی
سگها
توطيهها
وایر
##حوی
اساط
فرمانروایی
لود
کارمندی
چادرملو
منازعه
ریزه
کنجکاو
بنشینیم
##اتان
##دران
دلگرمی
دیجیاتو
اسکرین
پروژهی
مسلمانی
سنخ
##سلمان
قشرهای
ste
دانشیار
انصارحزب
محسنیا
چارلی
ناخوشایندی
##پلاس
کشک
صبحها
وتجارت
غیرمترقبه
برافرا
ایدا
باکری
جوانهای
۷۷۷
ابفای
ارتشی
گفتهها
هشتگرد
نکوه
عناوینی
وانگ
علفهای
نمیشویم
اوهایو
قمه
مجنون
جوشان
مضاف
شاخهای
واست
تشابه
هندسه
گذشتن
مهلک
واسطههای
##bi
حضورم
۲۲۹
بوروکراسی
ازدواجها
intern
فیب
مازراتی
رازهای
الخارجیة
پیشقدم
سهیل
##رانید
حایز
ممیز
الوط
##اکولا
۲۱۳
رانش
سوختگیری
##سیته
نقشها
بدهکاری
گریخت
رباتها
متبرکه
لیلاز
تیمهایی
۱۹۶۱
۵درصد
##gh
رندر
سیس
کک
اورتون
بهمع
پشتسر
یدالله
۱۹۴
قافله
افضل
بخوانم
##حمه
داغدار
##اهیمی
##فرما
فلهای
april
دانیل
##ردر
##اپیش
بتنی
اپارتمانها
مکررا
بیفتند
دهانش
نیوزلند
رولز
محسنیاژهای
کشیش
اسیبهایی
هورالعظیم
شارلوتسویل
احدی
کلیشهای
باختن
لانچر
یکچهارم
هدفشان
کندن
شاهان
دعوی
میداریم
نرسیدهایم
پروفایلها
##راورد
اوپو
مشتریهای
قرا
۲۹۹
بپرسیم
##حضوری
غیراوپک
بیمع
خوشنام
##پلنگ
صابر
##دیو
انگولا
هشداردهنده
hon
پرداختیم
برگزارکنندگان
النصر
مصنوعات
ولید
ذوالفقاری
فجایع
کمنظ
##يیک
بمالید
جیره
شورولت
مسيلهی
نیکوکاری
ver
شناساندن
بشوید
دیپلماتها
کذ
##بافی
میگم
دربرگیرنده
میمیرند
قاجاریه
سیبری
۲۳۰۰
غربت
##یدها
رشدهای
قابلیتی
دلاور
par
پانیونیوس
january
بازنویسی
شراب
زاکربرگ
##برز
لواسان
الکترون
کارکردی
##اسه
کدامند
کیایی
واژگون
کلیدواژه
##تار
نظایر
محرمی
تفاهمی
باطنی
بادمجان
بلاک
##uch
حلیم
##وسترون
رمانتیک
ادمرب
نقطهی
##سری
المانهای
هندور
تنگاتنگی
استکهلم
##رایران
صادقیان
بگیری
نوم
تاکتیکهای
۷۳۲
مالکانه
ژل
##دهزار
بیاندازد
لیک
برشمرده
فوران
نریمان
ویک
میکرون
راسته
##ارتا
گلیم
ارزشمندترین
فرقهای
کامپیوترها
کویتی
ویکتور
استنادی
سالخورده
دستبرد
##eld
خاصه
کاندیدایی
اقتضای
صع
۲۷۰۰
عبدالهی
رهروان
الفبای
مصاحبهها
ایوانکا
غواصی
ضررهای
خواستگار
۱۳۵۳
مافیا
بدنهی
مزدور
پراکنی
بدبختی
رانی
دستمایه
میزدم
توسعهدهندگان
۱۳۶۳
برهانی
زرق
##وویچ
بودهاید
مختومه
مروج
راسا
جیسون
ایوب
##اسیة
نخاعی
##هراسی
درامدند
ببخشند
تلو
##وشکن
نمیک
دبیرکلی
رفتارش
باوری
موضوعیت
جانشان
۵۱۵
مدیاتک
چسبیده
شاخصه
پیشرفتها
مناجات
ازنظر
عزای
گلایههای
استونی
یونگ
جادوگر
تیمشان
نمیشناسند
دکمههای
بزرگانی
عنکبوت
پاسگاه
##الدینی
cre
نزنید
حریرچی
##ظاهر
مساحتی
شاءالله
عالیشاه
پوندی
##ازهی
اپیزود
مایر
ومع
خوداتک
اندیس
انقلابهای
دخترک
همدل
الهى
میجنگند
نامطلوبی
کاسب
پیشاپیش
دعواهای
بفهمیم
بیسواد
##وزد
قناعت
v۸
##ron
زهکشی
نزند
هنجارهای
سزا
نذر
##ork
چرمی
ایمیلها
قویا
لوکوموتیو
خلط
عرفات
##ايله
تختهای
مانويل
جنگجویان
خوز
شهیندخت
بزرگو
پورزرندی
ذن
##ندهاش
کامکار
ریزیها
استرسهای
هولوکاست
مکزیکی
اجری
الحق
وخیمتر
رادان
٢٠١٦
درگفت
##وسعه
کمبریج
##ith
واسطهی
عاشورای
##ومیر
سپیدرود
۴۲۲
الاجرا
اغماض
##دانی
شیردهی
رونقی
فایرف
التیام
##نجار
نمیشوم
هیوندایی
زاغ
المد
هیچی
عینکهای
قتلهای
ابله
هشتگ
ویروسهای
اسایشگاه
اسلح
اراذل
ربایی
اسراییلی
ساد
اجح
پایمال
الاز
مستوفی
گازسوز
بچهای
همپیمانان
بشنوند
یوزپلنگ
۲۰۵۰
جودو
استیجاری
##اپا
پارچهای
بسازم
محکمتر
عایدی
کسالت
##pi
۷۷۰
توزیعی
مولایی
کاسبی
صریحا
طنین
التص
هرچیز
##ows
زلزل
قدمتی
##انگیزی
بینهایت
چندبار
تلاشم
گشایی
##اندیشد
همافزایی
##شنر
صلاحیتهای
##هدف
والاستریت
پاناما
حاتمیکیا
کمیجانی
##شیرین
همزبانی
بنر
وثایق
سوژههای
۳۶۰۰
بپیوندند
بایستیم
ارتریت
مثنوی
اورش
زیستن
میترا
باتلاق
وله
٦٠٠
میله
مشخصههای
بامو
شعلههای
امستردام
پورس
##ton
۲۳۸
مرزبان
متهمین
۱۹۵۳
##مدیریت
دوا
سمبل
وحشتناکی
لیکس
وطنی
مشاهیر
یاداوران
تراکت
عبدالناصر
##وسوی
لحظههای
##رداری
اینچيون
##نفره
نامهنگاری
هنگکنگ
قیافه
غیرواگیر
طبا
تعزیه
مخلوق
##تیا
دلالها
۲۳۷
بزاق
ضدای
پولنیوز
حقه
##ولاری
نمیگویند
##تورمی
home
سههزار
##اشان
دانشور
تاتنهام
تفاضل
مطلوبتر
dev
وجو
##نگان
##شیش
۴۱۸
حیدریه
all
##ینز
استرا
بینظمی
سفارشات
اشغالگران
خصلت
تاثر
توصیفی
##فضلی
اپیدمی
اورکلاک
منجی
مومنین
عرضهکننده
بوقل
کاتال
اوکراینی
چکاوک
خوداتکایی
پدال
کامبیز
غیرعضو
۷۱۲
سرگذ
دادهای
کامب
##پست
##پتون
کارتنخواب
ab
گوت
قرق
سناتورهای
عرضهکنندگان
نگرفتند
ایجابی
مصط
وقتى
همچنانکه
زمینخواری
بدرفت
گلوگاه
چنار
چقاز
##ضع
درمقابل
میناوند
خانوادههایی
چرخشی
feb
##لاکس
بالکن
قرارداده
نیوک
بلر
شیار
علاقهی
tech
##واچ
چقازردی
##وبا
##اشاره
ایسر
##ودشت
میست
استالین
##ریحه
سهمیههای
عامیانه
بهدرستی
مطیع
بلژیکی
فیروزه
خلعتبری
نکا
##دهد
۱۹۵۸
السوریة
پابکم
متادون
محتواهای
کمونیستی
وامی
##شیت
اینترن
۴۰۹
سانفرانسی
برههای
امال
امورات
موکلم
##yab
بریم
میگفتیم
تغ
مهسا
کویری
برسانم
##بودند
بدنهای
شخصیتهایی
گسیخته
اولادی
نیمسال
مسافرتهای
bu
خودرا
ناوشکن
مسافرین
لقمه
دانمارکی
اقیانوسها
فرزنداوری
بهادر
##جاعی
حايری
بط
بدحجابی
بمنظور
کاروانها
##لاطم
##گود
ابعادی
طوم
##لوس
بستهها
پریشان
پاتریک
##ریحی
کوفی
میشناسید
فتاحی
منعی
۱۳۴۵
مردمنه
مزید
تابوت
##ونته
اشتراکگذاری
##واران
دستهجمعی
سدی
##ویة
حکیمانه
حن
هرمی
##یدیان
امادهباش
اپشنهای
فراجناحی
۹۴۰
jo
۴۲۴
روایتهای
بیانجامد
برنامهریزیها
استثناء
۶s
روزمر
مذاق
##ci
سازمانهایی
مفاهیمی
عطار
ماوس
میانبر
فتنهگران
مقرری
##حدودی
کدرشته
mwc
تاخیری
کمخونی
مجسمههای
العراق
فنلاندی
بویی
پرای
۱۳۴۹
پروپیلن
۱۹۵۶
کازرون
الفر
۲۷۴
زرند
##راد
عربها
##ench
سراوان
نشیبهای
قضایا
فهمیدند
خاویاری
زلزلهای
کردار
هنگامه
هتلی
کمردرد
بخور
سازوکاری
عقده
۴۱۲
شکافی
بوته
##خد
برسر
ضرور
پرتق
اسرا
اخیرش
سهمگین
متقابلا
۲۳۴
فلاش
مددکار
هیبرید
استریم
جالبترین
##هفته
##امور
دیگ
اخرش
بخشند
متروکه
وکارهای
ملبورن
فتحالله
تکلم
##ایى
المنطقة
هجمهها
##یرسان
سامانهها
ویکتوریا
جاش
پرشیا
۱۹۲۹
الدولی
##وشیم
اردنی
الودگیها
مسجدجامعی
۷۴۰
##نوج
وگوهای
جونی
همسالان
بشویم
bank
شخصه
##حرام
ذاتا
بیز
انتساب
۲۲۷
سوزانده
ارسطو
نامحرم
جنبی
عزمی
##ifi
##انتخابات
لیبرالیسم
میار
ناگواری
پرتال
فایرفاکس
ارب
نکردهاید
شفافتر
##احد
##مالان
۴۲۶
raquo
خسارتها
منافذ
محدودتر
البومهای
گردانندگان
ناارامیهای
جبل
مسيلت
گلن
یکسره
soc
تاشو
اندرانی
میخوانم
رونی
توانی
پربازدید
مرزبانان
تونلهای
دمکراسی
عقیم
حالم
clickyab
۳۰۸
۲۴۸
٢٠١٥
میگن
النو
فاشی
بازان
مستطیل
پتو
پهناور
عموی
ابون
شنیداری
ifa
پنگ
##app
الوقوع
افقهای
اپتیک
شادگان
خیرخواهانه
۹۱۱
درمجموع
صورتجلسه
برام
بوقلمون
نشناخت
میزی
بوندسلی
نویز
امدی
۵۹۰
درخشنده
##کومة
nv
##شتاین
نیس
قراد
جنایتی
طفل
برگی
سالمون
##استیک
اسفنجی
نقیض
اندرانیک
۸۷۰
اصله
محمدبن
۵۰۸
حشیش
درا
خوزه
قاتلان
##اراتی
کارگرانی
مشکلاتشان
##ase
هانس
اتشفشانی
تزلزل
حوله
##امات
داداش
۴۵۸
##ارة
تواضع
شاخصترین
المج
دجله
رنگد
حسگرهای
گراهام
##رایب
خارک
خلاصهای
احمقانه
جابری
نثار
##نینگ
ضربههای
پهپادها
ولف
همە
۳۳۰۰
اسکانیا
اشد
شتابزده
گشودن
##کاظم
محرومین
مرغی
۴۶۹
##reen
امینه
اسکیزوفرنی
الکتری
سیارات
غیرحضوری
##rid
off
موزیکال
نغ
یس
همی
##باشند
عصرایران
شفافی
اورشلیم
حنج
##پوس
##فلی
نرمش
مشتق
گلر
جیپ
راهبردها
میفروش
تخریبها
میشنود
بدشانسی
سینی
هود
زنیهای
دلمان
ایراداتی
##ارفی
##eng
انبیاء
تستوسترون
##الک
##اتها
اسکل
تلویزیونها
تماشاچی
دروغگو
داروسازان
##برا
پیج
هواپیمابر
کششی
مربا
نقوش
اسفندیاری
بنیانگذاری
۹۰۰۰
اسرای
عنصری
قبور
تحویلی
فیلیپس
غیربانکی
##play
۲۳۱
##خانو
##دریس
کنسرسیومی
##نامی
روبر
##ابقهای
ارزیابیها
متقاضیانی
خوردهای
تصویرسازی
ناروا
##گزینی
ریهها
##بالا
شعبات
رکوردشکنی
حنا
موث
دلهره
پرحجم
لژیونر
ژیمن
##نگه
غضب
##گامی
اناه
سانفرانسیسکو
##کنید
بیسک
رکعت
مصلای
سازیها
ایساکو
بیدگل
۱۳۵۲
میگرفتم
pol
گاد
وساط
٣٢
ازدست
سیاهپوست
زیانبار
لنزهای
فروشها
مراجعین
##au
##وکا
برجامی
پوستتان
sept
حوال
۲۴۶
انجلینا
اشکهای
سواران
فیلمبردار
والام
تالارهای
مورگان
ندانسته
قبح
اکاذ
تناسبی
پختن
میانرده
عجایب
عودت
##وییه
کسانى
تکفیر
تندرستی
حضرات
دیدارش
لیستهای
جیوه
کیهانی
اقتضايات
##منش
تیلور
طهارت
سرخو
خریدها
##رشهر
خارقالع
os
دانگ
تکثر
اندیشهها
لاوان
فرمانی
۱۳۴۶
هواداری
رمانی
ملام
ازرده
##جیا
ارزوها
کولرهای
لاپ
قنبر
بوتان
انقضای
##سفید
بازتولید
زلاتان
mess
زندی
##انای
روایی
##سوادی
خالصانه
##نویسان
پلهها
کلود
اهو
شاملو
خدوم
نگذارد
بازپسگیری
##ober
شیوهها
سرخس
پیدر
عمدا
المانها
گوزن
کارلو
کوپر
جوانگرایی
غضنفری
نمیخواستم
برداشتهاند
مکرون
##برقی
لاجوردی
۳۰۵
اکتیو
بازخوردهای
دانیال
مردمنهاد
رافا
برایان
##انداری
نبیند
درعینحال
یورونیوز
##گلاس
مولود
##ولن
پیروانی
بشنود
سوغاتی
rec
نیمفصل
ips
دمایی
پرشین
بعدتر
پانت
تنور
۳۳۵
اصطکاک
الازهر
اموزگار
عتیقه
خوزستانی
##الملک
وضو
رغبتی
اولتیم
فیلمنامهنویس
فندق
نثر
قلع
پلاسما
هاوایی
کاور
##موس
##وزا
ویژهی
عبدالح
mot
##المقدس
براد
نوح
رودهن
میگذارید
رگها
##وشهرسازی
دوماه
سامرا
۶۱۴
##gin
اتشی
موک
روزشمار
نواخته
پررون
میپیچ
سفارتخانههای
کسبوکارها
رمانهای
رابه
act
عزا
سختگیر
ارامنه
معراج
حسینیان
febr
##فود
##pn
بیعدالتی
حقارت
ضرری
##ويه
دوقلو
ho
##طب
باخ
سالک
احکامی
october
##باید
تصنیف
میبایستی
گشاد
کریستوفر
##رسانهای
fin
بتمن
ویژن
پالس
september
گوری
##فشانی
استوایی
بومیان
متخلفین
بردی
##فتاح
امدید
بنک
۱۲۲۶
موقوف
۸۴۰
##so
خانوادههایشان
شباهتهای
منافعی
پسی
احتکار
روسا
گیلانی
رید
وجودش
عجین
february
بایدها
##نامهها
فردیس
##سبب
مستعم
هرس
وسیلهی
محرابی
سابقا
یخچ
tele
ملاقاتی
تصمیمگیریها
سوپرجام
##فعه
کلن
وقتش
اصطلاحی
sms
غیرعمد
سفارشهای
cent
خبی
بخوانیم
ضدایرانی
##يا
الاسلامی
december
tur
##سابی
اپراتوری
۲۵۴
بندها
بگذرانند
عزتالله
قارهای
اسلات
سیدعباس
##ولها
راهوشهرسازی
۱۹۱
سحابی
واهمه
درزمینه
کنن
توسلی
تخمه
۲۶۸
اردوها
پرتوهای
دیگو
۱۴۴۰
البی
ملغی
مشهوری
تماشایی
۱۹۵۹
موتورسواری
استری
دوربینی
اجزاء
اریان
ادامهدار
۲۳۹
میایم
##اکری
##اپذیر
اچدی
هدررفت
ناگفتههای
فرونشست
ابنیه
تهرانپارس
۲۴۲
##aneh
نامت
تقاضایی
الفرد
پیوستگی
اکسیدانها
تجاریسازی
معضلاتی
بحمدالله
چکش
التن
سرپا
بخند
ملیتی
جوک
ضدالت
مفتوح
مقتضیات
لطیفی
##پش
مادرشان
##رویس
۱۳۴۷
بازخواست
عنایتی
مذاکرهای
پلید
اشتراکات
قومیتها
##ودین
##مالا
جایزهای
day
لنین
دلخوش
هنرنمایی
hy
تاخت
۴۷۴
کوشا
تويیتری
استرو
استانهایی
##کوتی
۴۴۵
شگفتزده
سمیعی
کندتر
تجرد
سازندهها
مفاخر
میرمحمد
##ance
اسیبدیدگی
فغانی
سنتز
دراماتیک
ابتکارات
علامتی
حنجره
gu
پرگل
رودهای
کامپکت
۱۹۵۴
بازطراحی
چهاره
مهمتری
کارامدتر
هاچبک
نبوت
جنیفر
گشتی
تلاقی
شکستی
نبش
کانونی
فراروی
بلکبری
تاسوعا
فاوا
لنج
##ha
قیمتش
۲۳۳
زیادتر
##حون
##ىها
##فیا
ant
طوایف
زوریخ
##وداشت
الاب
سقم
بازرسیها
تانز
یوفا
##باح
تکریت
دیگرى
ملات
##era
متابولیک
mp
نفتکشهای
november
ضعفی
باله
##ابتان
۲۲۳
ارامشی
بهعبارت
توربوشارژ
خاق
فرجه
دماغ
لبخندی
بیاموزند
لجستیکی
dist
pap
درگاههای
بیتالمقدس
مکرم
عیوب
چوپ
میاورید
##هایمان
انگشتر
پایگاهها
شوشتر
فوتبالیستهای
##نیوم
خیبر
بههیچ
معز
ملاکهای
معذور
برگزارشد
قرضی
##ايین
اهمال
نکوداشت
نگذاشتند
سامويل
جویان
۲۵۸
##زارهای
اسا
شامپو
استراتژیکی
چرای
همو
تریبونهای
##اهش
سروصدا
قصهها
١٣٩٥
ذغال
ایگور
شبکیه
مستندهای
ras
دراورند
دیاکسید
تقوایی
۲۸۰۰
سرقتها
خروجیهای
خواهدشد
##ابدین
۳۸۰۰
##ild
پنجرهها
سزاوار
افشانی
۲۶۴
ورشکست
سکاندار
لیتوانی
امونیاک
##uk
روبی
جمکران
رصدخانه
عفونتها
امارت
دانهای
##چای
تابلوها
میرداماد
##رکة
خواج
##eral
پراگ
راش
تندگویان
۱۹۵۵
یافتگی
کوشید
ایمنسازی
استپ
نیزه
لوکا
تدم
پیشخوانهای
نژادپرستانه
مجادله
##لسر
##امدن
بهادری
اشتاین
۲۶۲
۲۹۵
الشعب
دوسالانه
ظه
لوم
##لاع
طوفانی
استیناف
نبوغ
##یتس
زرده
فراستی
۲۴۷
خوردم
##ream
اویشن
بارندگیهای
مناقصات
بهتن
اذربایجانشرقی
فیبرنوری
فانوس
ژوییه
##فشار
حقابه
اورژ
قرارگرفتن
ناجوانمردانه
مشاع
بیابید
عبدالعظیم
زحم
عطسه
مغولستان
rac
٩١
##یروز
##يوپ
دیبا
بازو
قویتری
mac
مضی
درهر
قلابی
عالمی
میپرسید
sim
امیرعبدالله
رشاد
اخطاری
اسپین
بفروشیم
اناهیتا
##بیهی
##غدیر
##ساخته
اگهیها
تبصرههای
استنشاق
##ناها
##ml
##انند
سرگرد
افتی
##شرق
نیمههای
ازمونها
تيوریک
معش
جهتی
پرستش
علنا
ضیایی
نمیزنند
هاین
دروی
اوگ
یاور
لجبازی
far
ثار
پران
رویان
۲۵۲
##اریه
رضايیان
جنجالهای
رایانهها
توربینهای
مگه
سهلان
دریادار
موتورها
اونها
نمایم
##وتای
نهان
اقتصادى
سورپرایز
انتصابات
الامر
القی
برخى
زمینهسازی
۲۴۴
بج
##درمانی
عملهای
بیانیههای
اکاذیب
کرت
gro
دلجویی
نسبتهای
مراقبتی
اندیشیدن
٣١
مسالت
اشتهای
الموت
براوردی
g۴
معاد
پروتون
نمیپرداز
##طلبانه
لگد
##شنج
gen
فریده
رضوانی
هرکاری
تندروهای
ساف
##مانند
شایعتر
ضعیفترین
صلى
۶۱۳
همگن
دستیاری
ریاضت
رباتهای
اینترنشنال
##ونو
p۹
کلکسیون
##واي
بهگفته
ناپولی
دنیس
پیدرپی
گنگ
##سینی
##ys
نشانده
##ere
موجهای
##انیتری
خوشش
عاشقی
انزجار
زهی
ضارب
دونده
##ush
پارادایم
طارم
زبده
گینس
val
میبل
یولیو
استامین
سخاوت
رمزی
ویدیوهای
متفکران
کاربراتوری
لابیهای
cro
بیگل
رویی
قراين
dri
رالی
چراغی
نگرشی
هنرمندانه
مینوشت
سوداگران
##الیفی
لغات
باردی
pos
٨٤
پایاپ
عملکردها
سنگال
مفرح
ماجراجویانه
##ادیان
پیراه
end
نورافکن
وساطت
##out
زیبنده
۳۸۵
تخمگذار
بپرسند
##قده
همپای
ساختهی
مهرعلیزاده
کنستان
دعایی
فهمیدن
ملاقاتهای
سفتهبازی
پذیرنده
پستانداران
میاورم
نیند
##ep
هفتصد
##ology
روانک
##جزیره
نونه
حرص
عجل
امیرعبداللهیان
مجبوریم
فیلترهای
لپتاپهای
میخندد
##تعریف
سوغات
نذری
##وکو
##پاد
بازجوییهای
استانداردی
۳۹۵
شباهتی
وصیتنامه
بفرستید
بیمهگری
احتراق
سپاهیان
غله
##رویت
معقولی
فرور
نواک
۲۰۲۲
لاتزیو
همسریابی
استوری
۴۳۱
میباید
کانونها
منوره
غیراص
نگردد
##ختههای
##تیس
علتی
##کوثر
باندی
کتابش
فضاپیمای
ستودنی
بخشنده
فرصتهایی
اردوگاههای
نقشهها
فشردن
الریان
دستر
ماخو
رایی
پیل
طولانیتری
مایو
بپوشاند
اگزین
##یدو
تصویبنامه
۰۲۱
وثوق
هرتز
هرانچه
##فیفی
۲۵۳
ارامتر
اجحاف
ننوشته
##یتبار
تعظیم
##ari
منتظرند
اکرمی
همرزمان
تاون
انتظارش
satur
بخوابید
القاء
مارول
tuesday
tv
۴۸۵
درسطح
لرستانی
##aster
دهن
هارت
کلاف
##رافرین
عباد
سوادکوه
سحری
اورژانسی
۲۲۱
تهیهی
پیمانهای
تویسرکان
فلی
۱۹۵۲
روزن
ولیکن
نگویید
##شیب
فلاحت
##ایار
لیسبون
##ربانک
اتوماسیون
پلاکارد
county
اقبالی
اختلالی
معنایش
##ینگن
۵۵۰۰
کوهپایه
لاکت
##ادیها
استامینوفن
جیل
وزارتخانهای
انفصال
کمپینی
پوپولیسم
انتیاکسیدان
جیرانی
غای
۶۹۰
شاکر
میکشیدند
خوک
۳۷۸
حاملین
ناسازگاری
هق
گلپایگان
ازسرگیری
جال
پایهی
شاء
اوساس
واف
حومهای
خطور
شمالغرب
بومیسازی
زاویهای
ضمیر
الخلی
خراف
مشتریها
درجریان
##فایده
شکوهی
خدشهدار
ابوموسی
سمپوزی
##صح
##view
مرة
مستندسازی
برگردانند
سرعتهای
##باند
##agon
استدلالهای
دانشاموختگان
۲۷۳
قطرهای
اوپکیها
ps۴
نوا
فرکانسی
fcp
اجلاسیه
اگزینوس
##خرهای
##stem
##الحرام
مهاجری
##کینز
باردیگر
درجهت
سازیم
عزاداران
زبانه
##ication
چغندرقند
فاس
هکری
استمه
۴۰۴
روانهی
میترسد
میکروفون
پلها
موزهی
دربرمی
بعثه
ابوع
پیادهرو
شهروندانی
اریز
تبعاتی
بالگردهای
الاسد
القدس
سپردهگذار
القاي
دوردست
هادیان
تریلرها
درنی
اکسون
تاد
معرکه
سواستفاده
شمارهی
خاتمالان
مارشم
بهنحوی
زندگیمان
واصل
هرچیزی
تیلا
التحریر
انشالله
جمی
##باغه
بگونهای
۴۷۲
سانتیاگو
طایف
قشری
۲۴۱
الاغ
جبرانی
بیفزاید
لویی
بهجت
پرسه
درایران
zte
ناله
اختلاط
شیروان
مارسی
##کنا
##اندین
۲۸۸
جنگلداری
شهربازی
کفن
انفولان
سقفهای
میاموزد
عریان
باواری
اثارشان
تجسس
بیراهه
برزگر
پایم
۲۶۶
بیفزای
الدر
الشهدا
بیانکه
تلاشش
تشت
رومیزی
دوتا
اختیارش
تندتر
۹۱۰
قعر
گاف
نظرخواهی
لایروبی
الاوسط
کنفرانسهای
کاردار
خویشتند
arm
مهیب
اسکایپ
گلچین
فیبرهای
کاردان
##يور
##سوار
بیاساس
شمردن
گذارده
غیرمنصف
کورتیزول
استیفای
کمنظیر
رفتید
تکدی
##اوات
کوس
بارکد
مباه
شوالیه
بینیاز
تیزه
ضدافت
یمکن
زردی
ریختهگری
پاشیده
بنج
##امیری
دیویس
کفار
بوتاکس
ضرایب
۶۱۲
دنیل
چهلمین
نفتا
هناک
ویندوزفون
استانداریها
مواضعی
ترنس
کرخه
پایگاهی
تلویحا
جاوا
ثق
مساعدی
عدسی
پهپادهای
زرشک
eb
میگرفته
سرریز
اعتص
۴۸۹
افکارعمومی
منگنز
کرهی
عبارتاند
سرایی
رساندم
الهیات
سازمانیافته
ملکوتی
مشخصاتی
جدل
ناحیهای
گنجاندن
هنجارش
کومی
داغی
حضرتی
نگهبانی
##زاعی
مانتو
عرضهها
موسیقیهای
مورخان
honor
مردمش
سبزه
سردبیری
انتیبیوتیک
خواهشمند
tab
چهرهی
قیصر
گلوبال
قورباغه
##مبر
ریکاوری
العراقی
##fi
بهگزارش
##سلیمان
مىتوان
نمیرسند
ایزو
خلبانی
##pa
سیدم
۱۲۵۰
اکسیدانی
همجواری
sett
۱۹۴۶
کابلهای
۱۳۳۹
##بانو
گوشیهایی
مرزبندی
وسیما
مهدهای
استص
##روپ
نشاسته
حقال
التهابات
ارتوپ
قارچها
زودگذر
مافوق
٢٠١٤
نکوهش
بازکردن
ابایی
صدری
##سیان
برگها
بنیانهای
شفیع
##ظام
پارچههای
مدرسان
مارشمالو
##tt
سافت
غیرهم
سوسیال
هریس
مامون
زخمها
نطفه
ورطه
وابستگان
##يیل
رویس
نمیافت
تابان
فیصل
ایتیرسان
زودیها
بخشدار
تاملی
مصلحی
صمت
ترسید
سکولاری
اکسپرس
بهخود
صلاحدید
ریسکها
غیرنقدی
کاراکترهای
قش
##اشتی
چیزى
جلدی
##oma
ایدی
چندم
میلانی
کابلی
بازاریان
پیچیدهترین
قایقرانی
حرب
همپوش
کاسی
بیامو
مزدی
سرطانزا
##یو
saturday
i۷
نمیپذیرند
ultra
بطل
##جمان
نوای
ظرفشویی
##ماندنی
ویلای
نپذیرفته
##راتب
ملان
زمامد
##فسکی
خفگی
گرام
۱۹۴۷
بهسوی
هستهیی
پدرشان
اریزونا
##ترال
موسم
سپاسگزاری
مفسدان
##ودرد
##اسة
حسنزاده
پستها
۴۶۶
پیشتازی
بیفایده
متقی
افزودنی
مشکلساز
ستوده
تصمیمگیر
سپهری
##ich
حساسیتها
تانکهای
cpu
گسیل
بیدلیل
بامزه
مهدکودک
ایرلندی
عنان
۳۱۲
بنتلی
معشوق
انسانهایی
۳۷۲
۲۰۲۱
کرامتی
هیاتها
۴۸۸
خلل
بهتنهایی
گستاخ
پروندههایی
ریشهکن
رهنمون
تملیک
حکومتها
کهنسال
نبردی
cm
ddr
ساکس
ایضا
##ويی
انتالیا
۱۳۳۵
##شیبی
تیون
دایرهای
وزیرخارجه
مبلغان
الانبیاء
خلج
کاشف
اسطورهای
ds
اشته
پریدن
عاجل
اوساسونا
زع
ندیدهام
پاشا
فى
مرغداریها
تانزانیا
باسم
ساختها
اعتکاف
##ision
ژورن
ثروتهای
الپ
ناباوری
میگرداند
کامپیوتکس
بوکوحرام
علیا
حقوقشان
اتومبیلها
شگرف
موریس
تیمم
نعمتهای
##خسرو
بابلسر
همرا
##وزین
تلاشند
مبنیبر
۳۴۹
دزدید
سمپوزیوم
##چف
بهاء
تقوای
شکری
##rom
وو
##شتهای
##بیوتیکها
لیگا
سرنوشتساز
عبدالفتاح
امپول
فراد
دبیرستانی
برداشتم
موکلش
سخیف
نیمهن
فخرالدین
رشتهی
بسپارند
بهبهانی
الاخبار
##کرانی
نیکوتین
کاوشگر
تایپه
اصولگراها
عزادار
شارپ
سوناتا
اطرافیانش
اگزوز
عابربانک
ادبیاتی
سالنها
دیرهنگام
##ير
نمیگنج
الکتریسیته
##لسط
اکواری
میشناختند
شبان
پیکاپ
الارهابی
##اردر
۲۵۹
مالاریا
۱۹۵۷
دیمیتری
پردرامدترین
صان
پالت
##کههای
##وردن
مستشاری
نبودهایم
مجرمین
زرتشت
تازی
پام
مسطح
##واء
مانیت
##طهیر
##لحاظ
مقالاتی
بنمای
ازاینرو
ترامب
پرتره
دهانی
یادشان
سنتور
##ana
هیم
گیریم
ناسازگار
زال
##پیگل
یاق
داوودی
خاتون
بیابانهای
قرب
##باشر
۲۵۱
۳۱۳
شاغلین
استمهال
تجمعی
##قص
ناموس
رفتهایم
جب
سمپاشی
مصداقی
٧٥
سدههای
خیم
سامی
دارايی
خدمتگزاری
سمات
تناوب
##وثی
ایاتی
۱۹۴۹
۵۵۵
##یداس
پرتلاش
سلیقهها
داب
ویراست
نقدهایی
پايولو
۶۷۵
مدیت
##کتایمز
نگرشهای
کربنی
لوییس
مگام
##ندوق
ذهاب
پیشنیاز
##ههایش
مینگر
تجاوزات
قراری
اشکاری
کتابخوان
inst
دندانی
باحضور
تلم
اکتان
##اتیکی
مسکنمهر
خندیدن
بحق
مطرحشده
۳۸۹
مردمانی
بلاتر
عملکردش
چهرهاش
انفاق
سرحال
لوسی
سیداحمد
اماتور
قرارگرفت
عرضی
چندرسانهای
هوازی
نوراللهی
##lex
کرهایها
ندیدهاند
##صاری
ندادم
توریستها
ثقل
##فتری
##بهداشت
##ومادرید
مصور
کیو
مولر
میخورم
وما
فواد
مجلسیها
##صله
گفتی
مترقی
منعقده
خواربار
لاز
##نته
۳۵۵
۴۶۲
کاتب
حشمت
بهگزین
سوریان
وامید
##غذیه
ژنها
الخصوص
گذشتههای
خوبه
غیرانسانی
بسپارد
۷۲۹
برونرفت
اتفاقها
دیواندری
سروری
شعبی
سازندهی
شتابان
نوارهای
کانالی
قلاده
##اوای
پایاپای
معاهد
##وقفه
۴۰۸
وصولی
sunday
پاپی
##چرب
دوما
انتخابها
همانها
درحقیقت
فریبنده
گت
##ایدک
شخصیاش
گیرندههای
لینکلن
صور
فرکی
دخترانی
سهمیهای
هستن
##گوشی
نکاح
بفهمید
cs
##سوری
اسامه
یاشار
نامیدند
مادرت
۲۷۷
بدرفتاری
داس
##وجب
##فظ
متبادر
ایلینوی
##پاری
بافق
تمیم
سکهها
مطالبهگری
##وکسی
عبدالو
بکشم
پاکدل
کاروانسرای
گزافی
موتورسوار
sol
##مش
ایلان
اتلتیکومادرید
چرک
۴۵۴
معمر
معاو
##سازیها
کردنش
انعطافپذیر
کانتینری
بیثبات
انریکه
##di
باهدف
تعص
روستايی
ترسیده
توپهای
موزون
نیمهنهایی
کتف
والنسیا
##ابها
##کنتر
##ital
زیربناهای
##ena
نعیم
بگنجان
ثارالله
معطلی
میتونید
رسا
۳۸۸
قزوینی
زکری
وکان
٣٣
انجیل
زیگ
وزارتی
گلولههای
میفروخت
منفور
بههمین
سرخابیها
نخر
wto
نوپای
میکردی
اروم
مسافرانی
الایرانیة
##ووا
##سپار
نفسه
اهدافش
پیامهایی
##پنها
بیاموزید
##راشی
##لسل
مراوده
وهو
نیویورکتایمز
dv
کوشنر
خشایار
اذربایجانغربی
##حاد
درپایان
اسفراین
قشقاوی
خزاعی
لبههای
کنترلر
هاد
برزخ
جونیور
rasaneh
انانی
بردگی
۶۵۰۰
محرمان
bi
##وشن
##گوین
الکترود
هنجار
اطرافش
کاروانسرا
windows
مگا
نگارخانه
۱۳۳۸
معاملهای
اینا
۲۶۷
##وینت
بایت
میچسب
دانشاموخته
العملی
مالدیو
ناشایست
##سازیهای
فضایل
خندهدار
سایپایدک
##انهها
کمون
اخلاقیات
شاکله
حوثیها
del
سینوس
ایمپل
پدیدهها
ترجیحا
جرگه
پف
استدل
متمم
الحر
پرکاربرد
پیرانشهر
پاسخها
شکوفه
الشب
کارتونی
چراغها
راهنمایان
انزیمهای
برنم
العهد
راهنماییهای
دوپامین
نارنجک
قالبی
##شگر
##پتو
پژویان
الشع
موزهای
##ریکایی
مغرور
قمصری
۳۷۶
مردن
ضلعی
##کهن
بقاع
##هاشم
۲۷۱
اندامها
لشکرکشی
شتابی
گاندی
##قبل
##روزها
ارايهشده
پرسود
میخرید
mark
همهاش
جانبازی
لويی
##ern
وحد
میگرفتیم
لابهلای
نورم
خیاطی
بیراه
اژانسها
نگیریم
مومیایی
اهک
اعطاء
اینسایدر
##ارتص
##منس
کلنز
دامپینگ
میاندازیم
ازمونی
تراکنشها
تفرج
زادگاهش
بوندسلیگا
##پاک
بهرهای
شهوت
شایعهای
لیند
پرب
محاسن
rasanehir
##ژو
الظ
##مایت
تمسک
مسابقههای
۳۷۹
حبابی
میسپار
حاشیهنشینی
بنف
غیرمس
ویلایی
گزاری
##میة
کنسل
برندهایی
پسابرجامی
پراست
##ca
تومن
العسکری
##وفسکی
##iss
نروید
زیمباب
rem
کفه
##ica
باگ
یکش
##ley
اخری
نفراتی
اپارات
منهتن
سهند
متفاوتتر
فجیع
qhd
غمان
##خا
پیله
پیونگی
هیکل
داماش
system
غیرتورمی
جویند
نجار
تيوریهای
مکاتب
باهو
بهمدت
عبدولی
مقادیری
رنسانس
##ازنی
چشمش
بشارت
بازتعریف
هیست
ساختههای
##وحش
راداری
فیزیولوژی
هاارتص
کارکردن
کاتالیست
جماعات
کنشگران
تعابیر
شعی
##نوتی
بیستون
سراشیبی
##board
رنده
نمایه
۴۴۹
ویلسون
اردویی
کوچهها
پیونگیانگ
مسترد
هيیت
جانم
العلاج
اگاهیهای
۴۱۴
کاریکاتوری
ca
تطهیر
##يیدی
##هاج
اماج
جنبشی
یاسین
اییننامههای
مدیترانهای
دوان
اروپ
اپی
میمیرد
٨٥
افبیای
بشوم
دهندهی
asus
دیالیز
غفور
بروشور
مفسر
شگردهای
اشرافیگری
واقعبینانه
چله
##عى
بیوقفه
تعریض
متعصب
فروشیهای
نمونهی
جدیدتری
متقبل
۳۷۰۰
فا
تولیدشان
۲۴۳
دوستانشان
اسپای
کامبوج
حیایی
سانچ
۴۴۴
جند
صاع
پرکاری
سابقهی
غرفهها
اوزان
##اقضی
##اصلی
پنس
بالش
مینویسم
ماهیچههای
بسپارید
##یمون
##علیق
محترمانه
دستمزدهای
روزمرگی
بیخی
بازههای
قاری
تاثیراتی
پذیرا
رزق
ابنبات
پارسایی
ساینا
شرکا
متغیرها
نمیاورند
خواستهایم
عبدالحمید
##وادور
##ابيو
تنکاب
بازمیگرد
شفاعت
access
ترتیبات
mini
اولتیماتوم
##اطمین
حجابی
فریبرز
زیرکشت
وایرلس
ارتز
lu
٣٦
عمقی
اتشین
##کسیونی
انتفاع
داروخانههای
روانپزشکان
استیلی
عالمانه
##ناطیس
بیاعتنایی
mode
متورم
نامع
مدتدار
مازوت
روغنها
رحمانیفضلی
مستمریب
##صور
##ستور
رايول
اشپیگل
نقایص
اینترپل
شاخصهایی
درمیاورد
جوانمردی
دستجردی
کلو
غیرایرانی
اهدایی
استیک
مشروب
درخشید
تاپهای
نلسون
اوازه
کلونی
##عیتی
##وير
زرگر
بشنوید
##چاله
۱۳۴۱
جلوهای
۲۶۹
الحکومة
متشنج
۳۴۵
snap
رافايل
هایت
ورقهای
کلاژن
فیما
##اسا
المسل
اژاکس
مطلوبیت
##افزوده
جنینی
بدخیم
استط
۳۰۲
فروگذار
۴۵۲
میدیدیم
بیاموزد
لنگرود
ژیمناستیک
##پرا
استدر
یونیس
مارکس
افکنده
inf
راهگشای
##ایدی
۴۹۲
درختکاری
الگوها
ویسکان
##فیس
جیمیل
ستر
کادی
بیاثر
ضدب
مدعا
اخرى
##ats
بلوکهای
طالقان
ناپليون
##نة
##he
افرو
distri
بغر
روزنامهای
مینامد
واضاف
کروش
##سلام
فریادهای
بکشانند
دلیگانی
comm
فرما
کسل
اشناست
۴۵۹
کمرنگتر
نگفتم
met
امب
نمیبرند
وقفهای
اختلافها
برجستگی
دوسویه
مولای
رستورانی
معذرت
گوانگ
ابش
تباهی
شکافهای
شدهبود
فرعون
سایتهایی
دستورهای
شیرخوار
نابجا
میخواسته
اقلیتها
پسماندهای
قراردارد
۲۶۳
مرزنشینان
سانتر
محافظان
زیمبابوه
rog
لهم
نرساند
بوشهری
غافلگیری
##سلم
الون
شاهزادگان
سیامین
stud
مسافتی
##بافت
رسوبات
باسواد
۴۶۴
گودال
پورمختار
انتخاباتهای
جملهی
پیکرهای
منتظره
ناظم
نمایشگری
روزهداری
منزلش
٥٥
۹۹۰
##وشت
مدلینگ
مامایی
گزینههایی
پاکیزه
##جامعه
تسبیح
دیترویت
##ندهی
مبس
صندوقدار
موثرتری
معلومات
فطانت
مستکبران
کهنوج
بازى
میایستند
cle
##ودور
ترساند
نقلوانت
العال
بموقع
شریفه
ele
عیاری
##هاری
۱۲۸۰
امامزادگان
موهایتان
جلی
زالی
روباز
گرید
مرگومیر
نایاب
دیتاسن
نگذاریم
march
##دادی
فابیوس
##gro
سیارک
##وسا
مسيولانی
روایتگر
میخوردند
مفتخر
هوافضا
##ایایی
عمود
رایس
پولشان
الامریکی
touch
طبسی
۲۹۴
مسجدالحرام
ریحان
بازدیدی
##rol
ورک
مساعی
مییابیم
۴۴۸
جراید
بلندیهای
بما
مقولهای
دستاوردهایی
النمر
لشگری
بتون
نون
##ستانهای
العرب
نجابت
کریمیان
بدبینانه
دوطرف
##ert
میخواندم
##ave
کلافه
فاحشی
اختیارتان
غیا
انیم
مکث
ماهیچهها
کوششی
بچههایی
توبیخ
##عانی
##وندگان
کاربرانش
عقلایی
کولیوند
بجو
وتح
نتوانید
مسکوک
انوشیروان
ضریح
سرپناه
متشکر
##مدتی
مترتب
متناظر
fe
مراحلی
ارايهدهنده
یافتیم
۴۹۹
غیرمنقول
جریحه
روتر
تنیده
##علمی
جاروبرقی
##bench
رامنی
photo
بازگردانند
کروموزوم
طاهره
##رخ
تاحدودی
میکشم
نسنج
پذیرهنویسی
یواش
سرکن
مطالباتی
بکاهند
intel
web
اتاب
ملاي
پرکردن
متفقین
بخرم
طبیب
str
حفرههای
نغمه
سهلانگاری
گزارشاتی
دلپذیر
نمایندهی
مینامید
فرزندانمان
فروزنده
انژی
نیکسون
ابقا
نیروهایش
توست
پیمودن
خراش
ولس
محق
۱۹۳۹
۲۶۰۰
روسپی
ریسکی
##فلد
لث
یادی
کاراي
والیبالی
##اسبت
سودده
اضطرابی
مریلند
هارون
تیری
##ond
لوزالم
ct
صراط
معیارهایی
کنتراست
تدمر
مدح
ندادهایم
اغوا
بازگشتی
اختلالاتی
ماتیس
استفت
الدوله
شبهنظامیان
جاییکه
دودکش
پاییندستی
اشام
نانوایان
ذوالفقار
بیاطلاع
گوا
گیب
##وهانس
ماژولار
ثبتشده
نباشم
ngo
ابیطالب
مسجدسلیمان
فولادگر
التق
بیبدیل
فیدل
یونیسف
##فردی
سرمایشی
##ame
سلیقههای
مفقودی
نفسی
۴۵۶
غیرمنصفانه
توتون
ریحانه
افرود
منصفه
خریدم
معاوضه
##وسیت
گامهایی
بدینوسیله
بپرسم
بریزند
شروطی
بینظیری
اعل
بزنی
همهجا
فروید
نردبان
##یراد
مهرابادی
استحقاق
متانت
پرید
گلودرد
المومنین
نویسندهای
بیسابقهای
افزونه
##کسید
۳۰۶
تمدنها
سیاسى
opt
همانی
سرپل
ملح
۵۷۵
فروشندهها
ترسناکترین
کمابیش
الوحده
##work
کارن
##وشوی
بشنویم
sch
زیره
نفعان
۴۷۳
ژيوپل
##ادان
میدم
۱۹۴۲
۲۶۱
بولت
##کنش
دوربرد
##گذشتگی
رادیواک
نرفتن
مستکبر
۷۱۳
##ایمن
مسولیت
کمانچه
تکدیگری
موردتوجه
ساعد
۴۲۷
غفوریان
المل
۱۳۴۳
تشکری
رهسپار
سیمون
رتبهی
استعدادیابی
جفری
قابلمه
سرکردگی
تولیدش
توییتری
وجاهت
رسالتهای
##شرط
bar
اخه
سیاهنمایی
suv
همپوشانی
۶۲۶
هیدروکربوری
ماوراء
۲میلیون
منتجب
گرنه
##بریز
۴۱۶
باجافزار
خصی
چرو
عقبگرد
##چهارشنبه
##اگاهی
##ذن
تکاب
واجبات
مولفهها
برنامهاش
فضاپیما
لانت
تنبیهی
تسهیلاتدهی
ناقل
هیروش
املا
کمه
دلیری
کارگزاریها
can
روه
خبراز
تکاهنگ
اسکاندین
دینداری
watch
افلاط
بازارچههای
دلخور
اثاث
جلودار
الاف
##خاک
الحی
حقوقب
بدنام
##ages
شادمان
خاطراتش
گاود
لوزالمعده
not
##line
##التان
گذشتهاش
##خرج
گسترد
کمیتهها
اختلافهای
حسابرسان
پناهیان
مظلومانه
مارشال
pay
افسار
خجالتی
چیتگر
ماخوذه
ایتالیاییها
برانداز
کدورت
تنویر
پرشمار
قانونا
تزیینی
کارايیب
متقل
مرصاد
۱۳۲۹
مخاطبانش
اندیشهای
برنارد
ویسکانسین
چیدن
##نفس
##شغ
الض
ادیداس
بزرگش
محلاتی
جسور
نادان
ترابایت
حجر
ماکت
بخیر
اصراری
بازارساز
ازبین
##نوازی
میناب
نعنا
si
عرفه
همانطوری
تکنولوژیها
نوازش
استوان
##کتاب
##شینان
جشنی
ابوح
جنت
اشتغالزا
مشغولند
روبنایی
پلاکهای
اصلیاش
زدودن
فرماید
صحیفه
##فاوی
مکشو
نهادند
تکنولوژیکی
فرانسی
عرصهای
کابینهای
لیتیوم
هش
##وتوپ
اشتغالی
الیگود
جعفریان
##طاط
مردد
بدینترتیب
تریل
اولترا
منظمی
کربوهیدراتها
البحرین
مۆ
مرمر
کاوی
تفنگداران
چری
##انکاری
میراثی
##ریة
موکب
بیوه
مانکن
فعالیتشان
اسکاندیناوی
fir
hed
امادهایم
قیمتهایی
بلندگوی
ورزیده
بپرسد
pen
نگوییم
##ثمر
ازمود
اینجور
پیکه
قندخون
بپردازم
موسسهی
##لتون
نامنویسی
بهزادی
چا
انتون
##شدگی
##واجی
چاقوی
قاطعی
پردرامدها
##لقه
ارنج
توافقنامهای
۳۹۸
۷۲۵
مادون
hdmi
سلو
نمیگوییم
حلقهای
جهادگران
تکاندهنده
##چو
##oled
امنه
بهعهده
مدارهای
بهسمت
##بخار
##کة
دیزین
مقدونیه
##اهاست
##بالع
امنتر
حاضریم
زبانزد
بگذراند
##رسول
اردکانی
برنامههایش
ادرسهای
غافلگیرانه
زنبورداری
بیجار
عقرب
برندینگ
۳۸۴
دامپزش
مکشوفه
۱۹۴۴
اقتباسی
ترحیم
پررونق
ایدهی
صداوسیم
۱۳۳۴
##اکوس
نیمهکاره
##len
سمنها
هانیه
نوادگان
پرسیدن
اعتبارنامه
مادرانی
لایهای
جانبداری
مظلومان
ابیپوشان
الاحت
##لسطینی
انبیا
##ریقه
##نگیر
مربعی
گناباد
فیلسوفان
##فیر
گوهای
۳۶۸
۴۳۶
ژنر
طرفدارانش
ناخنها
ادمربایی
##فیلد
تقبیح
اتشکده
عمومیها
میدانها
شرمند
۳۵۸
##ضیة
کويین
پشتپرده
محلهها
افراطگرایی
الجدید
داگلاس
جلسهی
سفینه
مفروض
بیتفاوتی
اونجا
mit
تبحر
جبههای
مژده
##سوتا
##مدن
مترادف
نمیدونم
بوستانهای
عروسکها
تودهای
##ختهای
نقاشان
المص
##هرفته
داعیه
ذهنشان
pdf
مباشر
شهراورد
زمانهایی
ویکیپ
لها
براتی
میاییم
هزارتومانی
متوسلیان
۳۲۳
افسارگ
میسازیم
دمکراتیک
عمه
##فهمی
۳۳۳
شهرکی
بهمعنای
##اربه
مشکو
الترن
oc
غش
یام
درطول
##احمدی
بشکل
مستنداتی
لنگه
تشعشعات
میبخشند
ووشو
پریش
مخالفند
ارسباران
اعیان
جسته
نجم
بازنمایی
نماهنگ
خطاها
نداشتید
ازادگی
سرگرمیهای
الیگودرز
lit
##زارها
سفرنامه
تلویحی
پیشگویی
##رتبط
##ية
مستخد
نخورند
۳۸۲
سرسختی
میریخت
تادیه
اوایی
ریا
ابفا
رانندگانی
خاکهای
۳۲۸
۴۳۹
بمن
موبیل
شارل
نذ
کوبیدن
الفی
دلچسب
میشنوند
ونکو
پذیرفتنی
سانتریفیوژها
صار
##الههای
تمکن
مستدل
بیبهره
جاستین
شکس
جامعیت
اشغالگری
بزرگواران
۱۳۳۷
کالین
اپرای
عبادات
##امینی
##زیون
سالمترین
##سطس
پنی
مرشد
ابقای
هشتصد
هاوس
بهبهان
میورزند
دیدارهایی
بندپی
مهدیه
ردمی
ملاحظاتی
رودی
##dl
##رايیل
بحار
یوگس
برنابيو
سانتافه
تاند
اغسطس
اعتمادبه
district
iv
ماتی
حکمفرما
لنفاوی
میج
سیفی
کوبیده
وسواسی
وظیفهاش
براف
ملانیا
پتروشیمیهای
بخشنامهها
سوییچ
درپاسخ
ارزشافزوده
گرانشی
قرصها
adv
##سیونی
ایرادهای
اوازی
۱۹۴۱
فسادی
دندانپزشکان
اطلاعیههای
خویشتنداری
ژنی
##لاغ
سرشت
خانهام
منسوج
مسیریابی
پسربچه
بهعمل
وعدهی
امیدبخش
راستگو
نیکبخت
اموالی
##نمی
بهاران
الکر
ادمین
کمرش
اهرمهای
تعدی
لایو
کارهایشان
سرکش
لیزینگها
خوشهای
ابدار
مسکنی
سینماگر
واداشت
##ریع
۱۳۴۴
بعلت
شهیدزاده
معترضین
خودپردازهای
اونا
فراخور
دنیایاقتصاد
زمام
بزرگراهی
iso
بامیه
فرمی
##ریکس
گرمازدگی
شروعی
قدسی
خلاهای
متفرق
مبرم
استدلالی
سرکنسول
نیکوکار
دلواپسی
ابرک
طیبی
نمایندههای
ششصد
کبابی
رینگیت
بزرگواری
میبوس
اقلامی
زورگویی
وگاس
٤٤
بیو
رایحه
##نتال
کوچکتری
fa
بیزار
بارزی
میدون
تخصصهای
ناهنجار
##fs
سفرا
۲۹۸
مادربردهای
قولهای
بازدیدکننده
موضعگیریهای
تیلاپیا
اینجوری
اولویتدار
۳۲۴
امدادگر
احتیاجی
اسلامیت
میلیاردتومان
سمتش
۱۰۰۰۰
۳۷۴
ریشهها
نازیها
جامجم
##ايف
گلمحمدی
مدیریتها
##اجان
تیغه
الجن
مقوی
##همین
هزینهکرد
ممنوعالخ
مسکنهای
تحتانی
نخواسته
شوشتری
زدگان
بازدیدها
ریختگی
ردهی
عمرم
۷۲۸
قصدی
هیرمند
xl
##الزمان
۱۹۳۶
رسانههایی
ربوی
مایلیکهن
aw
لذی
##تک
بابی
##البته
##ابنده
میدهی
مینشست
اسکیت
خودخواهی
ادینه
هیول
سروصدای
پرسشهایی
عزیزانی
باتوم
۷۱۸
تکانههای
ماندم
سیاستگذاریها
طبری
فونت
##bl
vide
##بة
کشتهشدگان
هخامنشیان
فاتحه
۷۱۹
سطر
موافقم
المالکی
حنیف
ليو
##نلی
بررسیهایی
میخوابند
##اموزان
برگشتند
##دفعه
۸۲۱
الثانی
صخرهای
بااشاره
الیم
##ادرس
گلوی
خاطرم
جدولی
اسببخار
##igh
ویلچر
بازارگردانی
بارهای
فسفات
real
لازمالاجرا
مروی
پایا
ورشو
مستثنا
بویایی
۴۹۶
دوچرخ
##ترند
دوساله
##چیچ
##الیزی
##فرازی
##ویروس
کشتههای
گرانش
##tex
نانواییها
سوءتغذیه
mx
انژ
سره
تامسون
الیاژی
غوطه
عمرشان
ولایتمدار
فاطمیه
ناملایم
##طلبان
شماها
رفتهرفته
سفارتخانهها
المنار
##يال
پردههای
اسیران
محمدپور
عزتی
اندیشمند
استوارت
ابوس
پرفور
شوخیهای
##فتهای
غیرسی
نارساییهای
trans
موهبت
البدل
شاگردی
۲۵۷
ناهنجاریها
cc
خروش
ژاوی
سلبری
۴۰۶
مثالهای
ماکرو
منذ
جشنها
رانتهای
خلافکار
راموس
اجتماعى
اگزما
مفقوده
٣٨
استفادهای
زول
ظله
##ایندی
ایج
لاجرم
##الذکر
تعقل
انقدرها
کیسهای
clash
##الودگی
ترن
زیرنویس
۱۹۱۹
رحمه
مددکاران
مگویان
##ریهای
نامتن
بحر
والدینی
صعبالع
##وناس
بیله
شرمس
اپلیکیشنی
ژنراتور
قام
##وابی
۱۹۳۳
شرمن
فرسایشی
##شتههای
مصوباتی
بارندگیها
فستفود
##دوم
قرابت
۱۰۷۰
ابرهای
##awei
vpn
##شیری
##ddr
##les
شکایتها
یووه
مرادخانی
اویز
دیری
نشناس
##امیر
تلاشیم
تخمیر
سهمخواهی
۴۱۳
##cher
رفتارشان
۲۸۹
۴۳۸
نابینایی
جلفا
عباسپور
دقتی
بطریهای
هیروشیما
هدایایی
فروغی
سفیدپوست
##جعفر
واضحی
یونیو
یکایک
میپرسیم
محجبه
دربخش
هاوک
شهابی
وول
راشد
انالوگ
زیکا
جنگیدن
میخواد
سردسیر
۶۲۴
دریافتیهای
موثرند
منافقان
amg
۵هزار
##دگی
ارمین
حقایقی
موص
مخالفم
لولهها
باتریها
هرزگوین
نستعلیق
رشادتهای
##gc
برین
الدا
۲۸۶
فلاکت
out
##ual
بهطورکلی
کنتاکی
یلن
برغم
اشوری
پاداشهای
لرزهای
طریقه
##علا
استاندارهای
۴۲۳
رضایتنامه
زنجیرههای
منتظریم
یکدفعه
بیبی
شهود
نفتخام
اپولو
اختیاراتی
مهدویان
عربستانیها
موقوفات
منامه
تصمیمها
نوشتهای
رحمی
۳۲۶
کلاغ
انیمیشنهای
اساطیر
گات
بردباری
تونسی
متصدیان
www
ضدافتاب
gh
##ثانیه
فعالترین
کاریز
۳۲۲
دربهای
جانفشانی
خواستن
محیطبانان
افغانها
##اووس
گسلهای
hel
اعلای
اپها
طلاقها
رشیدپور
جاکارتا
شیدایی
gpu
ژي
دههها
ناطقنوری
شیوخ
۳۲۹
خبردار
ماین
##رونیا
بالکان
تعجیل
##ae
##ازهاش
##وریک
اسلاماباد
۳۳۶
انبارداری
##۷۹۰
لجن
##گوس
کلارک
جدیدا
##ینیان
##وچهار
ابهامی
پدافندی
بپوشید
امحای
خبیث
لانگ
چمد
ادواری
نامهی
رودخانهای
تنگتر
کبودی
##گبا
مقدر
کنسرتی
huawei
یال
جوینت
ولاسکو
صاحبنظر
دریافته
خوشایندی
##السلطنه
##جهان
اردلان
احصاء
برخواهد
نسیه
تاکیدی
پولهایی
سنگاندازی
##ater
۷۱۵
داورزنی
بیندیشند
##خانواده
jour
پولادی
۲۱۰۰
تحصیلکرد
شيونات
صاعقه
توقعی
اشکانی
استغفار
dark
زلال
عمرو
پنجگانه
اختلالهای
تهن
عشر
وغ
دوستت
۳۱۹
نگهبانان
نرسیدند
نخوردن
##جیر
رواندر
شیرجه
المثل
ونک
پریسا
ونگر
زادگان
##سنس
##پارک
منان
امامجمعه
شوخ
مطالعهی
ویکیلیکس
خصول
##جاتی
خودتون
چندصد
خوابگاههای
##وپنج
١٥٠
بزهکاری
الگوریتمهای
کماند
اندرز
احصا
بیخانمان
پوراحمد
##افزایش
۵۲۵
شگرفی
سنایی
بچهدار
گاهشماری
انگیزشی
یکپارچهسازی
۱۹۵۱
التحصیلی
سلماس
سواره
میدوید
مشترکات
تجربهها
پوزش
فرانسیسکو
صخر
ظفر
نوشتیم
ولکن
##ors
چارتر
di
میگویی
هشدارهایی
انحطاط
امریکن
##ke
برداشتها
تالاسمی
بنویسیم
گورد
۷۱۴
پیکس
داون
نمادهایی
تعمیرگاه
##مقاوم
۸۹۰
##سیو
قهرمانانه
تمدنهای
لوزانو
سرکردگان
مورو
براند
شکسپیر
وسترن
عملکردشان
ازمایشگاهها
۳۸۶
star
جادوی
بوندس
بیسکویت
##رة
##گیت
کارشناسانی
نورث
۳۱۸
##اسین
بودایی
دارابی
دوراهی
مذکر
چشمم
جاى
حساستر
اکواریوم
عاص
مناره
الوز
همانقدر
مدتهای
افسری
شبهجزیره
اویخته
ادرنال
لنف
عنکبوتی
۸۱۲
دويل
قبادی
خوشبو
##عفری
نااطمین
همسطح
اریکسون
مدونی
اشمیت
شمقدری
مبارکی
مشیر
فیشر
غیراین
اشتراکی
##پوشش
amoled
پختگی
زراد
laquo
er
نصرتی
پروتکلهای
نامعلومی
جفا
صغیر
فونهای
سرزده
سبزواری
##المهدی
میترسم
تکی
کنعانی
سرمان
تکنیکال
شیبانی
##لاقات
کوبید
بمیرد
الکترومغناطیسی
##گوشت
اعلامشده
نمیدهید
جنایتکاران
پندار
باجههای
مینهسوتا
موردش
##منظوره
##خرد
زیرس
برجها
یست
##ینههای
قدیری
نویسندهی
خریدی
الحوثی
لعنت
روزنه
قضاوی
مونترال
جاهل
دالان
##مسکن
##ورود
کاراموزی
##اپست
نمایشگاهداران
۴۴۲
۴۸۴
رمزهای
جرایمی
دنبالهدار
غایت
##وحی
عهدی
سنتها
فرزندانم
بلیتها
منسوجات
po
خست
کهولت
ماندهاست
کارکرده
تاراج
char
میانههای
بیفت
اعلی
نشستم
خویشاوندان
میکشیم
بینام
اندرس
حاضرم
##arch
چاووش
بندان
پیشخرید
اخط
بیمهکوثر
تولدش
##ife
premi
ننه
##ham
یکون
سبدی
دینامیک
گمراهی
s۵
##عول
##المن
ارزیاب
لوکاس
۴۳۳
ضوابطی
چهارهزار
ve
خانهشان
۴۳۴
ازموده
میکروسکوپ
اخرالزمان
انگیزش
کشمکشهای
همفکران
شیمیدر
بیاندیش
فراگرفته
مقاومسازی
ماموت
##وين
sport
نابارور
واجدین
دد
مجالی
##ager
برگردید
رودهها
key
##فنی
احرار
مرغها
نگرانند
۴۷۸
محتشم
##وفیلی
٦٥
علویان
حاکیست
پورتهای
کاوشهای
جاودان
میام
امراض
دیانت
دیانای
۲۸۲
شعبهای
فونها
##طلاح
##ابن
۳۵۴
حقیقیها
بورسیهها
ژيوپلیتیک
سونگ
رویم
##شهید
متوسطی
##اساز
خدمتگزاران
##enc
۳۶۹
رنجش
##ieh
link
جویش
کدی
##گستر
اتوبوسی
##زنس
post
زایش
##گای
##یدنت
کوبی
اسطورههای
برح
کمسیون
نسبیت
مواجهند
۳۶۲
درسها
یوگسلاوی
سرده
##اخههای
۳۱۴
بقره
داغتر
پلاکت
ژرفای
هزارنفر
لپتاپها
زیورالات
مذموم
سراغش
ثالثا
چندملی
پاسکال
الشباب
۳۵۲
حافظان
مونته
##برتر
داودی
۴۲۱
نفسگیر
بدافزارها
میسوزاند
شاتر
##fone
رسوا
مرتجع
۳۳۲
بازگردیم
نژادهای
راغب
پرافتخارترین
##ground
فورت
گونی
ولرم
شعبانیه
هون
رمی
لفاظ
پورد
اسودگی
تمامتر
زیادهروی
۱۳۳۶
کسادی
ملکش
۳۰۴
انفجارها
ساختوسازهای
a۹
ازن
خواستید
محکمه
لقمان
پرانرژی
##دنده
ایامی
ونکوور
##سابقه
نیازسنجی
جوشهای
بلندپرواز
بانکهاست
پاگیر
گودبرداری
ذرهبین
زومیت
##چون
میکوب
جنگید
امیرعلی
۱۳۳۳
متنهای
افسانههای
ذهنها
عالمیان
حوش
ظو
فلام
##طة
رخشان
مجدانه
##افریند
غیرمتعهد
تمساح
بیگلری
قاریان
کارند
ترکهای
نشدهایم
ملوانان
تریک
کوزه
همکف
ایتام
عملیاتها
اولیهی
یز
اینشتین
زیستشناسی
گسست
فرع
فسا
نرسیدیم
نیاوردند
##قطع
عبدالرحمان
غزن
##الحسین
رسوخ
حقالت
بوسه
خونسردی
ایمپلنت
شاهدایی
وارن
میدرخشد
مدود
##خواهند
همراهانش
چندملیتی
وهمچنین
##دختر
##کلام
خوانش
دوزی
هیاتر
##اورم
حساسیتی
اسداباد
ایبنا
حریت
سلنیوم
پارسجنوبی
۷۴۷
فسیل
پرچمهای
۴۹۴
انکارناپذیر
مجاهدان
ناکامیهای
ایندیانا
##tp
##خیزی
fire
wifi
##اسیس
شیرخشک
سارد
میسنج
بشیر
زیاناور
قرايتی
##ivers
شرمندگی
##ذلک
##انتی
##واند
غیراقتصادی
علیک
پرداختهایم
کاستاری
درشرایط
رقیه
ظرفی
پیکربندی
ins
میتونه
۶۱۷
##اهراتی
همنوع
متحدین
گروگانها
منحصرب
نافذ
بیرحمانه
##امام
ایلی
متمول
۱۹۱۸
کلیشه
فروریختن
نسنجیده
##بز
خطرساز
واژن
جلسههای
هیاتريیسه
هیس
هموفیلی
هرمس
اردک
دریاچهها
##ider
ماخذ
غیراصولی
##چنگ
۲۸۴
لاستی
cy
۴هزار
توخالی
الکی
خوف
نمیپسند
خساراتی
ممنونم
فوبی
##ینجر
ريالم
اقدامها
نیازشان
##امپی
بافتی
##oll
والامقام
غمانگیز
##دث
نمازخانه
درکی
انصافی
خانوارهایی
۵۹۹
برگشتن
اسکاتلندی
تراک
##صفی
مرودشت
حرکتها
مرفاوی
اپتیکال
قلو
نوحه
منظورتان
مطمينی
پانام
بیلد
اوگاندا
b۲
امیل
##شانید
۳۷۳
##الفنون
اشکی
کلات
ساوت
۴۰۱
پوسترهای
۳۶۴
انجاییکه
زدا
سلاحی
موهوم
شراي
تنابنده
سپاری
هدستهای
پورعلی
پرتگاه
خرگوش
بالت
سبلان
سکونتگاههای
پانکراس
cop
##غدی
نیوم
ایذه
دریاچههای
مدبر
##انتشار
عبداله
رنگر
mg
فومن
مخوف
پالی
۱۳۲۵
##وشا
فراق
##سامان
غیرشفاف
##ضبط
امفی
ورودش
##شکوه
تورها
##مردی
مبداء
طایفهای
##nal
اوپل
مافیایی
##شنگی
رخوت
صعده
وقای
فلاس
فضاهایی
##ارین
##امح
دهخدا
۳۰۳
بیرنگ
نوزده
السل
مرند
نفتیها
حسینزاده
۳۹۲
music
ريالمادرید
##ex
مصریان
ساختم
اذرشهر
ایندهاش
##اعتماد
شتافت
تارت
۷۱۶
مدبرانه
اهتز
۳۹۷
الشریف
تونلها
##fl
سرخه
تقنین
پاکدام
انداختم
اشعاری
بالهای
دامنگیر
حاصلخیز
۸۰۲
تردیدها
لنکرانی
##بابایی
ارتوپدی
٣٧
بیام
هاشمیان
شناسنامهدار
اسقف
tah
کشها
تنهای
کارامدن
هیپنوتی
##یراژ
سرپیچی
##ota
پربینندهترین
##رکردن
##استین
نقده
شهلا
دلیر
۳۰۹
انتظام
جبرانناپذیری
سیراب
بولتن
اهنگی
مچی
نری
ژی
یدی
##الیستها
خودروسازها
درامدهاند
الاسکا
بیاندازیم
دلتنگی
حیران
##اسونیک
کرونا
سعاد
سینماست
##ظیمی
##گذران
پارکینگهای
مستحضر
شعلهور
##یتیشن
رشتههایی
مانیتورهای
cas
انشق
##اهدهی
نمو
تدافعی
مواجهاند
تاخیرهای
نمیخواستند
video
ساح
دارالفنون
سوریها
نیات
گوگ
۱۹۳۸
فراکسیونهای
گواهینامههای
١٣٩٤
mc
کاله
۵۰۵
متعادلی
رضایتبخش
استکبارستیزی
بولیوار
منقرض
قنده
##طیر
مته
فرمولی
ایفونها
مىکنند
لتونی
##چشم
مطلو
نمیبر
##گلوبین
نفسهای
پاران
##لاست
افی
محمولهها
میاندیشند
##فرت
معتق
تصاعدی
گوشههای
##esh
هموطنانمان
بایستید
تکاپوی
نمیافتاد
رضی
میباز
##کزاده
فلاحی
مشتریانش
۳۴۸
میپیوندند
pet
الری
۱۹۴۳
پاریسنژ
دیوارههای
بپز
۳۴۲
رادر
اتات
وزرایی
اندرسون
۱۹۱۷
تیرهای
۳۵۹
سابقهدار
کفپوش
درازا
مینمودند
کمباین
کز
اجرت
##گریزی
خارقالعاده
ساره
##روفی
سربار
زمینههایی
۱۴۱۵
۳۰۷
hedieh
پاریسنژرمن
bus
خودبه
##دیس
##شماره
سخره
##ster
##جری
##گرگ
متخاص
بازشماری
ترکیباتی
گذارند
khani
##سبورگ
میگذرند
##سرمایه
سمب
۸۵۰۰
نمیشوید
##نیای
سوءمدیریت
مریلا
بهمراه
##قف
مدلسازی
بانکیها
سریعی
##اخلاق
۴۰۳
استثمار
mal
ناگاه
مرگهای
ماتریس
##وژان
اهتزاز
میگوی
ژنوم
روبرتو
##مقاومتی
لاف
پربازده
ساختیم
هماهنگیها
اطمینانی
پدرو
ef
عرشه
ملى
ایستادهایم
##ara
کمپهای
##اکاروتن
##واست
##ادول
نگاهشان
تگ
وهن
##ازیس
نشون
فیور
##وضات
سرورها
پرفورمنس
سینوزیت
اقاجانی
##زاست
پروبیوتیک
ورزشها
سورنا
دوگانهسوز
الروسی
عنبیه
معتمداری
##پردازان
##کزاکی
خاکریز
پوران
شجاعیان
sci
چریکی
مدیتیشن
تالیفات
بیبر
کوي
ترکیبهای
قلبم
رذ
##اردار
عنوانهای
دورود
مبارزهای
lum
##سعید
##عدن
##بانها
پیشرانههای
رزن
ناملموس
کروی
مخبر
مهجور
مستبد
مرتع
الحرب
۷۲۷
وریا
##uro
##تراز
نمیگفت
بالن
۱۳۲۸
محموداباد
قت
الحمدلله
انکولوژی
فردایی
عبود
الفلسطینی
##use
سانتریفیوژهای
میتو
خشونتامیز
##نفش
##pc
رات
##انیک
شدگی
گزارشگران
نامههایی
پیروزبخت
گیمپلی
دربیاید
premium
حیله
دریافتهای
مقابلش
ضدیت
میزدیم
بابونه
مسابقهی
۶۲۲
موتورسواران
خودسازی
بیمهری
##گینی
##خن
##الید
بدتری
۳۱۶
ایدین
برگزیدند
شیرینیهای
##لسه
شهناز
اگرهای
ملارد
تفکی
قابوس
نفتکشها
مستی
کارجویان
ایرانول
شکوری
صخرههای
مسجل
قوسهای
مايده
نپرداز
##پکو
##gram
درباری
میاندیشد
فقد
۶۰۹
مسيولیتپذیری
کرمانشاهی
کارشکنیهای
##گرمکننده
قوز
##چت
روتین
الزمان
نظرهایی
فرودین
۳۳۸
قايمی
صدیقه
بگردید
##فیلم
نیکن
بیگاه
دلگرم
امارسازی
اعتراضاتی
قايدی
ماورای
بصیرتی
مباهات
مشکین
سوای
مشتی
ابتذ
جزوه
تالش
الاخر
ارجحیت
رادیواکتیو
مژه
شیو
المصری
اکراه
لاکپشت
کبودراه
pa
##ولایات
منیر
##انهی
برخودار
داستانهایی
مولا
چهارمی
مردانگی
رویدادهایی
مستمریبگیران
##ناوه
شیخی
##ادهاید
بشم
##لوم
##ینژ
توشی
ترکش
پذیرفتهشدگان
شکنندگی
بولتون
بیاندازند
نوان
ابولا
گلگ
کمااینکه
مالزیایی
نانوشته
١٣٩٢
فورس
کولون
اشامیدنیها
ایبی
اجازهی
اخروی
اندری
سردمداران
##مردم
معتمداریا
چریک
##ier
نمیکش
همسن
اسپم
برمیگیرد
بغرنج
ساختی
داخله
هاي
##ابلی
بوداپست
میکس
بسمه
کنکاش
نمیکشد
لذیذ
همبرگر
اقاخانی
تلقین
سینک
وبگردی
واکنشهایی
عباراتی
##ناکی
بتاکاروتن
ببخشیم
ext
خدار
۷۹۰
##ware
اقتصادمقاومتی
۱۹۳۷
سرویسی
۹۵۵
##افتادگی
بوف
ضمانتنامههای
مکانیسمهای
کژ
اجماعی
ابرقهر
نیامدند
خودپردازها
محبوبی
##قران
دورترین
بارنامه
##گردش
ربنا
میرسیدند
کدخدا
امحاء
san
خفته
##زاس
##طبق
بیتد
##کنم
پرری
پیرمردی
تاجی
الامن
##هیونی
فناور
نواوریها
امیزش
##ربایستی
اثرش
۷۳۱
جویندگان
##داوی
بسیارى
voa
خرافات
##عتین
اعجاب
##کلاه
##امدانه
منور
الکم
پسزمینه
خردمند
دریابند
##alk
تروم
نوتی
درمنطقه
کادیلاک
##ta
##کنندهی
نداشتهام
نوساناتی
تاپها
تیپهای
نمونهاش
برافراشته
منصه
اسوه
الکترونیکس
سنگینترین
رادیوتراپی
مودب
صورتم
بازنشست
##over
سکانسهای
cap
شانههای
رایانش
مطمينه
dead
بنگریم
open
ریشهیابی
التعاون
دوکشور
موصوف
mag
حبه
۹۹۹
درسته
کارهایم
سربر
تقلا
هدفمان
بگذرانید
جنجالیترین
##وزو
القاب
بعضى
لانتوری
خنجر
##دیدگان
##جیو
محمدصادق
نمونهبرداری
۳۹۴
فتوش
مالکین
تياترشهر
بچرخد
درویشی
g۶
٤٢
سیاهچاله
خشکسالیهای
بیزانس
کلانتر
##oot
کمونیسم
ریب
تامینکنندگان
ساختهشده
حامیانش
مکانیزمی
کامیابینیا
باع
##میزان
بنزینهای
توران
خلاصی
وبسایتها
فریبکاری
معزز
سوله
ننم
میبال
کردنی
شنای
کاریهای
۳۶۶
mate
شیت
چاد
##بیمه
تایرهای
##ug
##ونتی
گرن
۴۷۶
mod
##ازده
##شنام
کمیک
کودکازاری
##ris
اژیر
گلدمن
m۲
للت
##کرم
اموزنده
صندوقی
##نتینا
فاکتورها
العربیة
میرسانیم
استبدادی
##ازاد
زنفون
السابق
پرفسور
دیدنیهای
فطریه
##پف
##ابم
منافی
خانههایی
ابیهای
کلیدیترین
حواسمان
افسارگسیخته
وانی
سیچ
ریزان
حاشیههایی
##چرخان
فوم
ارتی
##گیرها
نزنند
یارگیری
لوي
فارین
متعاهد
ابیار
سانتا
بروجن
عصا
b۶
الوار
ارنا
متمدن
سردفت
کشتیگیران
قايد
راستیازمایی
ناارامیها
ابونمان
ظریفی
اوه
کلاهی
بهترتیب
۳۴۴
گسسته
settings
کدوم
ازادیبخش
انفعالی
۴۲۰۰
تنکابن
cant
تغیر
بندهایی
قاچاقی
پیموده
##دلار
جاهلیت
میشنوید
mer
۲درصد
دیجیک
مرتک
وسیعتری
رویاها
فوتبالش
سنگان
الانبیا
تعهداتشان
فرستادیم
درخواهد
۱۴۶۰
مشترکا
سرویسدهی
عباسیان
دکمهی
##ارگانی
حلوا
شاهدی
اوریهای
##محوری
فرمایند
یوسفیان
توجی
رقب
##اخان
سریعال
مقصران
اخوانالمسلمین
گتوند
موع
یافتم
تفاهمنامههای
دیوایسهای
میلیامپری
کبودراهنگ
الویت
ستادکل
چرخها
دامدار
سانتیمتری
ایکاپ
ساید
شون
##way
دریچههای
همسرانشان
میپندارند
۱۹۳۲
رنگتر
گیاهانی
دیوانعالی
پورتو
همراستا
ibm
ژاله
غریزه
میپوشاند
کیوسک
چنده
##سکا
نمایشها
المو
مستندساز
##omb
جول
نامتو
سوچی
##پاشد
ابتداییترین
دروغی
مسابقاتی
والدینش
برگردانیم
خاویر
الوک
ارتشهای
رفتی
مطرحی
بنفشه
dig
هنیه
مدلهایی
۳۷۱
فشنگ
##قرا
گراند
##گذاشتن
۲۹۲
مغزهای
پرسیدیم
استنداپ
افتضاح
اوفک
بانکدار
انجامش
اسیاتک
سوپاپ
دوتاب
پنجرهای
دوسوم
هزارم
مانوس
##جرود
خردل
طبقهای
اتیلا
##ict
معتقدید
داووس
پرتیراژ
الامیرکیة
٤٨
فلکی
نوستالژی
میوههایی
##عاش
##امعی
میروی
ملیون
##شکند
تضامین
نقصان
کرمها
جماعتی
مفقودین
داوطلبی
حلوفصل
میارزد
راشات
##ins
خساپا
مورخه
۴۷۷
نفسانی
لرزان
پاشیدن
استارتاپهای
pix
بلاد
فرزندانتان
خاقانی
درامدن
تکنوکر
الفار
طوفانهای
هدایا
##ویتسه
سفلی
ذخاير
وصال
الهامبخش
مارکوس
فلوراید
وراثت
جردن
##وفه
۴۴۶
پردیسهای
پرفشاری
html
فرخنده
راشاتودی
بفرد
انتظارها
ولنگاری
ناارام
فخریه
بلبل
اینت
۱۳۱۴
##انکار
بازخرید
ussd
##eek
فهمیدیم
##صادقی
گاراژها
زوجی
چنگیز
انظار
مواهب
ادل
۴۱۷
۳۴۶
##معظم
بادامچیان
##وسکوپی
رزیدنت
برچسبهای
۷۲۴
مشاهدهی
##فرید
صادرشده
##بردن
گرانبهای
بهمراتب
شمشیربازی
میگرنی
player
بگویی
لاذ
گیس
۵s
دستاویز
بایدن
##مرزی
شاهراه
قلوب
اندازد
ابهری
قناعتی
اینروزها
پذیرندگان
الاط
پروپان
##مپ
هارمونی
بیخیال
غارهای
##اسدی
نفعی
امضاکنندگان
مکتبی
قابلیتهایی
فرابنفش
کفشها
مطلوبتری
جیان
همخوان
##امیها
ارتک
رسولالله
ابومسلم
امویام
صارمی
درعا
عینیت
گستردهترین
تابعیتی
گوانتان
##ظن
کدگذاری
شیش
پارادو
انساند
تورین
مجلهی
مغرضانه
city
تبت
همنشینی
بیسرپرست
##قیقه
فیکس
پژوهی
##صرف
##ویون
بیپاسخ
غیرب
۵۳۵
گردشگرانی
ارضای
شمشک
خطهای
جرارد
قصهای
میکروبهای
نااشنا
##سنگی
##خیم
باارز
خامهای
سیراف
مودت
دوزخ
manager
انشقاق
##لاء
گازها
نبایدهای
اسپیس
الاصل
تحزب
فولات
مبهوت
عامدانه
کورد
ورلد
لوید
##بام
##vel
باورش
بیوتیکها
##کلین
وزاری
پرسنلی
کوتوله
نیمهشب
تماشاچیان
ندیدیم
میگری
ارمنیان
مانیف
۴درصد
طرحریزی
نمیشن
حقش
دروغهای
بیخطر
ژر
میرش
۱۹۳۵
الزاماتی
تینا
حیر
##اینده
روزى
دلمهای
۴۵۱
برگر
یارانهبگیران
دادستانها
##اشوند
فردریک
اپهای
زنش
سناریویی
برامدگی
battle
برگیرنده
۱۳۲۴
مرض
کوپا
فعالیتهایش
عیدانه
بیاموزیم
تیس
گناوه
##صافی
##ورث
موهایش
محصل
خوابه
انگیزترین
حیواناتی
زارعیان
رخدادها
شویی
بیجا
احمدینژ
۴۶۳
سوارز
پلاگین
مستحب
ناامیدکننده
روباتها
حشر
##fa
قبلش
٢٠١٧
background
بهاینترتیب
ابتذال
z۳
##اییم
بازوهای
مخزنی
قتلعام
##idia
فلورانس
ترامادول
۵میلیون
##قبول
##hs
اوايل
تکون
##شناسانه
##شیپ
نفرشان
رقابتپذیر
کاربریهای
استواری
##لیست
##فیکیشن
مشکلاتش
مدرنترین
عمیقترین
اصغرزاده
mm
گدایی
##عرب
##طرح
۳۳۹
ناوگروه
انصاریفرد
پایشان
نشوم
##ربعی
گیمر
میفرمایید
سیانور
سپاسگزارم
کیپ
تمن
بهشکل
چهطور
برگزارکننده
مخالفیم
زایران
ریود
خوبیها
##رافشان
۴۸۲
زاوه
##uty
حواسش
مماشات
۶۳۵
##نبرگ
ترکاشوند
تلطیف
ضمانتهای
kn
##گاهرتزی
لردگان
td
فطری
##رکارت
ساجدی
##خمینی
##راور
شوال
قلبش
snn
خوشبینانهترین
نخوانده
##ناست
فرزان
سرافرازی
سلجوقیان
کهکشانی
خوکها
ندیمی
خیاط
##ano
اتومبیلی
چشماندازی
ستارخان
پوسیده
نیکولاس
خودزنی
##مالله
اسیاست
نصفه
##مصطفی
ناهموار
فروتنی
رومان
گردنش
دستخط
بیمورد
##وسن
کتابت
بشکنند
الفبا
جنسیس
شاعرانه
یاقوت
وهی
##پشتی
سرمن
میزنی
یادداشتها
فینالیست
ویولن
شهرضا
جامعتین
##گهام
##مولد
نکردنی
حاجت
خمسه
ممتد
کمپوست
روبرت
تازهوارد
وحیدی
اهنگسازان
کاسبان
##ودرمانی
تصفیهخانه
نافرمانی
کواچ
الجمهوری
الويه
بیکر
خریدند
کردنشین
نخجوان
حجره
بمبی
۳۴۰۰
ناخال
عطایی
عامری
زانوی
##برو
مشفق
##تاباد
نمیتوانی
ریشهدار
۷۲۲
سهرابی
پرخاشگر
خونهای
الغدیر
علتش
لیبرمن
هاله
وجودشان
شناورها
##کوش
امدها
قوامی
۶۹۹
هنرجویان
اتاقک
جاسوسان
افلاطون
har
شبک
روزانهی
۳۹۶
پارازیت
##عیة
گلوتن
ترانزیست
ژنرالهای
الکمار
فاو
نوتر
تلاششان
نیمهی
##پوستی
جوشانده
مصطفوی
data
دندهای
مادا
شوره
حملهی
پوستهای
صاحبش
نایبری
برمه
ارامبخش
متقن
هواپیماهایی
کورتانا
هاتف
مشکوکی
ویم
گردانی
رودربایستی
خدشهای
کاستاریکا
پادکست
اریایی
متعلقه
۴۸۶
بیندیشد
جامی
چپا
##be
ظواهر
۱۳۳۱
پرشکوه
سوکت
۱۹۱۴
بدنم
مورچه
ندانند
زرتشتیان
عبدالمجید
شخم
قهری
برکلی
##هراه
مسری
##قیح
بلال
پفک
##پاگ
کلیپی
جیبی
الباب
گردیدند
صانعی
پارادوکس
نشانهی
اسکندریه
شاهکارهای
ناخالصی
دومینی
السید
لاستیکهای
شرفی
##ودان
تهمتها
فقیرترین
speed
##کردی
جانانه
بودنشان
لوپز
هیدروژنی
هیرکانی
اسکورسی
عبدالوهاب
بهام
ارایشگاههای
دردم
فرقان
تابو
گزینی
بندیها
محکومین
پروانهها
##خوردن
kir
tri
۱۳۱۰
بینا
##زینی
خردمندانه
۴۶۷
کاتالیز
توریستهای
رودررو
da
زکزاکی
##ازید
پلیاف
مقالههای
مستعمره
مستخدمین
بیتدبیری
وبی
اینههای
مجوزهایی
عیبی
طومار
bre
صدهزار
گلستانی
تجربیاتی
کوزوو
اوستا
##ایشه
سوگو
قباد
گیرانه
بارانهای
کاتد
nvidia
قراداد
##دور
پیشامده
اموزشگاههای
فلسف
نسلکشی
خوارج
خیرهکننده
رسته
احتشام
فروم
بسوی
فالو
بدرستی
لولهای
وجب
٣٤
واگرایی
اورا
پرورشدهندگان
لیبرالی
نرفتم
##ضمن
عرش
بالین
##البلاغه
درامدش
غیرمجازها
درمجلس
قاطبه
##بوم
##هرنگ
مرجانی
تموم
ورزید
فازی
ماگ
هیپو
نمیزد
محرمانگی
ترساندن
جثه
##ونس
گرت
همهگیر
ملاصد
سهروردی
میفروشیم
ننمای
##هات
##ذین
معادی
۱۰۶۰
دماغه
لیزینگی
متخاصم
گوانتانامو
ثلاث
اسبی
اصالتا
شایستگیهای
قریبال
edition
فمینی
##لهم
اکید
سومریه
اوردهاید
قتلها
برمیگشت
تظاهراتی
دوقلوی
ولسوالی
bot
##by
کويید
کلرادو
میلیامپر
وامدار
جانداران
##کتوری
##تانگیز
نویدبخش
نخریدن
code
##اخانه
استفس
ایتالی
بشکنیم
۳۲۷
تفاهمات
کوکايین
نگریسته
اینی
نیروم
افساید
رادیوی
مکاتباتی
پرینستون
بدید
داند
قراض
رافت
خوابها
گشاده
iran
##سراها
##ضايیه
تشکیلدهنده
قطعهساز
زکریا
om
تکس
نپرس
نعیمی
مسالهی
##خاله
شکافت
گلزنان
پوستان
لطمهای
ازانجا
نامتوازن
بیارزش
##فرم
اموزانی
کاویان
مارپیچ
هویزه
##plus
##la
۲۹۶
مبارزاتی
جبريیل
کمپرسور
اسکورسیزی
وتر
##فیزیک
درونزا
چرچ
۴۱۱
گزند
نامیدهاند
وکیوم
##وفیه
سفالی
باوریم
کراچی
سکسکه
tahoma
##za
ارعاب
اوور
ريوس
##ايیت
سنگک
محدودهای
پروژکتور
منسجمی
لابیگری
غزالی
لجام
##فرهنگ
توسع
##ille
الدینی
هژمونی
زدید
دوایر
##عیار
دانان
کشتهها
کاشمر
میکروگرم
هیيتر
نهجالبلاغه
ربه
قصاب
هاض
برسی
ولایتمداری
منفعلانه
کید
##پری
##ons
فراساحل
بودجهی
خوابالودگی
پردازان
هتلداری
نماگرهای
الاعلام
pad
بوریس
مداوای
۱۳۲۷
قضایای
ایان
اکد
نسلها
تانکها
اهلیت
بیمهگذاران
روندها
##اوردن
دریابید
کوکاکولا
جسی
گسی
##يولی
خاوران
تستها
جلالپور
فودها
high
داچ
تجدد
اکست
تیراهن
کلیدها
ماداگاس
خدام
##انلو
تشکیک
میدل
تفسیرهای
منافات
تگرگ
جمیل
##هادی
##انکی
ولیعهدی
خطرهای
السیر
حلقهها
استنلی
وقایعی
اراکی
zenfone
af
##يم
##ject
بهروزی
نیایند
درجهی
پرتوی
سورن
جوانفکر
پوشه
صحنههایی
بایکوت
کاتولی
تمشک
کوچکش
شمارگان
افشاگر
##وضوع
pci
غايله
وقتهای
۳۳۴
دامداریها
قومیتی
لاذقیه
۱۳۱۶
۳۷۷
رزاقی
ریاضتی
منطقیتر
canton
قوات
ژلات
اخوت
درماندگی
رعنا
۴۷۱
کونته
درشهر
دستبه
پدرخوانده
الکسا
چارهاندیشی
توپی
##ملکی
حقشناس
سیمهای
قطعنامهها
تکنیکها
تنسی
دلد
سیاستمداری
پدیداور
##زنم
توجیهات
روحیهای
کارکن
داش
سوسن
قداست
العو
بسمالله
سرمقال
گیمز
بازتابهای
##حدود
۱۹۳۴
تسامح
مزیتی
اهنگها
وتوی
light
خودسوزی
اسپور
##کاریهای
##اهیان
فتنهگر
اوجگیری
فرکانسهای
رویهها
اسکناسها
ثقفی
۳درصد
##لرز
مدینة
۱۳۱۳
##وریکو
پلکان
وامدهی
فرمولهای
r۹
tra
ایرانیهای
لیپ
##قانون
استحمام
الامام
خلاءهای
بقیهی
چطوری
بیار
گزاران
مارمول
غضروف
اعتدالیون
هیيتريیسه
##ترش
تجارتنیوز
مترمربعی
الخروج
فروختند
fif
لد
بیقر
حدن
چاپخانه
۲۹۳
فراملی
حاجصفی
پذیرفتم
مخلوطی
عبدالعلی
uv
۶۷۹
نمیساز
چپاول
mem
تکوین
نگاهم
منتظرالمهدی
حرمین
سويیت
یابید
نمیگنجد
الشم
ماهیتی
بدور
نامجو
نامرغ
اسلامیان
ادارهی
کاستا
##محلال
چماق
نمیگیریم
الشان
##مایشهای
رفتهاست
امیرعباس
ig
##ایة
ناایمن
حماسهای
چلو
حلول
بندران
۳۵۳
گناهکار
درمیی
ملموسی
قوهقضايیه
عمدهی
منظری
##شکافی
##گاهای
میداشتند
اغراض
بخوابد
enter
القلم
رنا
بیضی
ریزم
پروس
جامهای
یادماندنی
مصدومین
انشعابات
ویکیپدیا
بریک
۳۴۳
خانههایشان
پاناسونیک
هشیار
لما
وافر
تیران
وارنر
بهناز
سرلشگر
نبینند
دهیاریها
ناشت
وغیر
مقصدی
فرمودید
توهینامیز
ترازو
شیشهها
مانیتورینگ
پازوکی
##aph
چادرهای
سردفتران
کارک
معمایی
قرچک
۱۴۱۳
جاناتان
##گارو
محترقه
مزیتها
##mo
بدسرپرست
هندورابی
##واک
##دندان
##کامل
شهرتی
نرخگذاری
ابهت
وارونگی
##۱۸۵
مینگرند
pers
تکبر
نمیترس
فسادها
خزعلی
راهروهای
حرا
##یدار
بیپایان
اراد
مشرک
مجب
سوسنگ
شباویز
مانورهای
۲۸۷
فوقالذکر
معلولی
جورجیا
سوسیالیسم
طاقتفر
ldl
طاع
##توس
براه
عبید
اضمحلال
رنگامیزی
جلاد
خسروانی
live
کهای
بروک
وقد
اغفال
لیکو
پردازشهای
حوضچه
فرناندو
پرریسک
استیم
##اقتی
مبرا
خاکپور
۳۸۳
۴۸۳
۴۷۹
##وگرافیک
امانتداری
surf
ریودوژان
تین
ازاداندیشی
خروشان
باغداری
اشرافیت
گهگاه
##uck
##برابری
بیزنس
محاور
پولاد
بسرعت
ریسمان
۷۲۶
پردازندهها
۶۶۹
##شاپ
بیض
۱۰۵۰
رینگهای
پیامرسانهای
صدابردار
ببینی
نحی
افش
نظاممند
ممکنه
سالمسازی
بندرانزلی
وبلوچستان
پلاتینی
abs
رهیافت
شکستها
بادکن
نظریهای
جبری
##وردهای
##گریز
اکبات
موسسهها
گذرگاههای
زلزلههای
افخم
هموگلوبین
##حاضر
راگ
پلوت
استقبالی
سانتوس
direction
خوشامدگویی
ایهای
وزراء
saf
پیشوا
نیرنگ
صلاحی
گشنیز
مرورگرهای
lab
عمانی
میپردازید
ناخنهای
##وجهی
راهپیمایان
کاتالونیا
مگاموتور
نشیمن
تخفیفی
inc
پاراگراف
دوده
##اردن
جهشهای
انفع
موریت
تانکرهای
جریمهای
خیلى
لوحی
القران
هلن
کلیساهای
یکشبه
first
هیپنوتیزم
عمیدیان
اهدافشان
اجرام
غیرمسيول
بهجا
امگا۳
بیفزایید
اعتصامی
##اسال
افعال
نمیبینید
افشاگریهای
مینش
رجاء
قریبالوقوع
هگل
۶۶۵
##pad
میراند
گروپ
محمدابراهیم
پاراگويه
نوشتهی
کارگردانهای
بهاندازه
افکند
سازهها
##اصول
یونجه
بچین
میشمار
گرمکن
لبها
پیما
فیزیولوژیک
news
پیشمرگه
خفت
زالو
لبریز
سالنی
اخیری
##کنندهها
۴۸۷
عجلهای
١٢٠
پنجهزار
سوسنگرد
##ii
السلط
##حسنی
استحاله
شستوشو
پراو
glob
کوان
##ضد
بهرهبردار
##شاخه
تعارضات
viv
برلوس
خواران
میدری
خودشون
گذارانی
ییلاقی
حوضههای
حدنصاب
##وجی
سیاحتی
پسوری
تشکلی
تقاضاها
۳۵۶
##کشها
اسمانها
ارمن
جمعهای
امیررضا
میخر
تعزیری
یمنیها
فراساحلی
##گت
ابوی
وضعیتهای
بخواهی
لباسهایی
reg
بازگشتهاند
الویری
دوندگی
هفتگانه
تهدیدامیز
فرودهای
حیدریان
قندهار
الوصول
بالله
مغازهای
تصویرگری
##شوری
کمتوجه
##بارا
کدامشان
اژدهای
هلم
##pm
غیرمولد
##على
دلسردی
فلاحتیان
فهمی
شترمرغ
بفه
پردهای
تباه
کشاورزیان
چاپگر
مارگارت
نگریست
بیاخلاقی
##بهشتی
فیلمنامهای
رسیدید
بنابه
بوستانها
سولفور
الرژیک
لاکتوز
fit
file
##px
خودگذشتگی
قرارهای
ارتباطهای
نورالدین
والدینشان
منجیل
نمیخورند
گالی
زندگیهای
پارچین
۴۴۳
بقیع
ننگین
یوبی
گوست
فراورش
حماقت
شیرده
داستر
همجنسگرایان
ماداگاسکار
fbi
اقدس
گذری
##نوات
مونو
کمالوند
غشای
والله
ادوی
کنارشان
۳۸۱
سوپراست
ممالک
##ایس
راف
۱۳۱۲
نقصی
هیبت
۵۷۹
بدیعی
عرقی
##مرز
کشتهای
ناخرس
اناتومی
بازتابی
تنزیل
معلمین
کفالت
گنجشک
لارنس
##جینال
##بهداشتی
ندامت
##بارو
هنرها
پوشک
##رضوی
اسپیل
##hn
##ولند
هستهی
افتهای
زندگیش
والایی
مولداوی
توجهای
زجر
##برها
افضلی
مبد
جانبهای
##ایرن
پرترافیک
دادستانهای
معصیت
انچلوتی
مدودف
خویی
##چهره
##سیها
دلب
توقیفی
نهايی
گادوین
ربود
درمانها
فرزندانی
ذهنمان
المپیاکوس
فرابخشی
##قبض
یکنواختی
##کشیدن
##مومنان
gprs
ایزی
گذشتند
قلیایی
یکن
عمومیت
ریگ
لیو
اکسیر
##زبی
مشقت
زیستگاههای
امیراباد
درونشهری
میخايیل
##جنوب
##هنگام
سلیمانیه
غولپیکر
هاری
نشانها
سامور
هزینهبر
پناهجو
میپذیریم
##خواندگی
نااگاهانه
اکباتان
کپنها
سهجانبه
سانگ
توهینها
ذوالقدر
کالبدشکافی
نیاکان
بیوگرافی
بدارد
سیدابراهیم
##طیع
عادیسازی
##ask
ستونها
gf
بهايیت
بیخود
حرفم
هدایتهای
افتادیم
atm
نیکار
بدش
یادت
عالیقدر
قبضهای
دستمزدی
گرایشات
هیدرولیک
مشوقها
فرمانداریها
ارتکابی
پراهمیت
ملکان
۱۹۲۸
روانچی
گریزان
دیگهای
مردهای
امیرمومنان
ناتنی
نترسید
زوجه
طه
لوران
کریک
بهنگام
سرمایهدار
اورنده
صدقی
محمدکاظم
۲۹۷
نارمک
عهدنامه
خوارزم
پاهایش
##sc
باهاش
ملای
تکالیفی
زمستانه
الاتحاد
فلاسفه
ترقه
##قلابی
بارون
همینها
گوات
مختاباد
لذتی
پارسخودرو
کاشیهای
الاجل
استشم
کنشهای
بخشیم
چندباره
۲۸۱
بگذرند
پتانسیلها
توطيهای
پتروناس
مایکروویو
استنت
تلخت
پچ
بازوبند
نوذری
طلاهای
##مين
اریو
الکات
##واضع
برادرزاده
نوریان
مینماییم
گردنبند
زاییده
برنزی
techn
##عسل
بنن
مذاکرهکنندگان
انگیزهها
پايیز
gaming
خویشاوندی
mult
دربرد
تشرف
سیدمصطفی
دیالوگهای
کمهزینه
##ادعی
##اتش
##اومة
جایگاهش
سوءاستفادههای
اپتیما
پانس
کلاک
یف
مهماند
۳۳۷
مشترکانی
بفرستیم
رواندرمانی
کراک
پوره
النظام
hse
ابهر
شکستند
مباحثه
پیامدهایی
تیزرهای
الاحتلال
منحصربفرد
ملاصدرا
گرایشها
شستوشوی
سرقفلی
سمر
نهار
##طلق
کندو
ترمیمی
موجوداتی
الاخیر
شنیدنی
هموارتر
##انهاش
تاشکند
نوعا
وحتی
جذابیتی
زیادهخواهی
ضربالاج
اولنگ
محورهایی
گرانیها
بدعهدیهای
ناملایمات
پاند
چانگ
##ji
##فتح
منها
ارادی
مشام
##گذرانی
السوم
بذل
البلاد
میجو
استریل
mb
خمی
چز
چسبان
##چاری
مسولین
##فرانس
##دمات
قضاوتی
پوگبا
سپردند
شیرینیها
زمزمههایی
سوبسید
international
نایبرییس
##ستانها
بتازگی
پانور
##یرید
تحدید
تهرانسر
##وییها
۴۰۷
۵۱۸
صیغه
سختگیریهای
tit
غصب
نکو
میسی
اوراکل
نمودهاست
کارمندانی
لويیز
کیلوک
پنهانکاری
حدیثهای
اهرمی
سکولاریسم
کالبدی
پلدختر
اوردهای
ارسنیک
دالی
بازل
امامخمینی
مراجعهکنندگان
کاپوت
ایزوتوپ
مموری
##جازی
##امروز
منقبض
شیروانی
طواف
بوز
صریحی
سیست
ابریش
پاسخگویان
نامرغوب
mri
بیضه
ارتعاش
مکعبی
تکواندوی
##دستان
##روور
##اسکا
موذن
سرودن
کمکر
دهنم
تقرب
هیچچیز
پیشرفتهایی
مناسبتها
حوالههای
زولبیا
تمی
شوهری
منضبط
ایرویز
مهماندار
نماهای
میجنگد
m۳
پونه
##ملت
سرمایهداران
۸۸۹
ضدالتهابی
عمادی
درحاشیه
رقبایی
۳۶۳
توتفرنگی
تقیزاده
موزیسین
تمیزی
حايل
شانهای
عسک
##هاند
##ذات
##اسون
اخم
##مهند
۲۹۱
۶۰۵
پروتز
باریکتر
برگردانید
زامبیها
##اندرو
سنن
##کشورهای
پرتنش
بهرههای
تفتیش
تکهای
نمازهای
نمیرساند
رسانند
نازایی
راسل
بیسوادی
تریم
##اصطلاح
تقطیر
شکرگزاری
حاتم
rs
چادری
##ارام
صدوق
استراتژیها
لاکچری
مشتاقان
پیشپرداخت
نوبرانه
سخنانشان
محافظهکاران
میرزاپور
طاعون
استشمام
۶۷۸
یاوری
شواری
واقعیتر
النع
جسدش
بپرهیزند
دپو
سوسک
خوبش
استودیوهای
چوپان
بهايی
سرگرفته
خانواد
منظوم
اینچه
##اکاری
سوءمصرف
کولین
شاکردوست
باقرزاده
نیامدن
فیورنتینا
طحان
ییل
##غهای
##دهادی
تاکیدکرد
۳۱۱
پورنو
موقعیتهایی
خاورمیانهای
حری
##بیم
میدارم
نیره
العابدین
اصلى
نگارگری
هامونی
jpg
مویدی
نیازهایی
اثران
نبودید
جیبوتی
##المعارف
۲۸۳
پاشید
مستشاران
بههیچوجه
دیگرانی
حالحاضر
##تاژی
الیزه
۶۵۵
سپهبد
داف
فقی
واید
##فوذ
ازکار
رادیاتور
فرسا
شامخ
تيوریسین
dual
##قالات
امض
مقول
تهرانفر
سوس
طریقت
رسانهی
البومی
امپریالیسم
حمیدیان
نواندی
کیلوکالری
##uv
راویان
##وعده
تناقضات
prime
##urit
بهتره
۳۱۷
چشمانی
قندهای
١٣٧
مایلند
sup
پرینتر
منادی
کنگان
##استهای
۱۹۲۵
##rix
۴۴۷
باح
میهنی
##هاور
تصمیمسازی
خامفروشی
اقلید
طناز
زبر
##گلیس
##قرم
البرادعی
کوهنوردان
دسیسه
pixel
vol
سالش
ماجراها
etf
racing
هالو
استبه
گیجی
رمق
تعلیمات
مشتاقانه
انستیت
##hr
تنظیمی
اتاقش
شیوهنامه
free
ریودوژانیرو
##ندهها
نفقه
سراش
عباساباد
نابسامانیهای
##نوسان
cv
nok
بیجان
سرگرمکننده
مشیری
گرش
ادولف
بیانضباط
کاغذهای
مودمهای
چکی
۶۷۶
بهیاد
درسهایی
نمایشگرها
سوارکاری
گوسفندان
##گراها
نوابی
موقوفه
القوات
کپچر
fifa
hal
بشت
میلههای
زیرکی
اهوازی
پژوهان
ایلخانی
فضايل
روسنفت
علیهمالسلام
تارهای
صله
دربازار
دستانش
رجعت
iii
میورزد
ملاتونین
ابلیس
کنندگانی
تکانه
فارسیزبان
##۷۴۹
##وپاتی
کالیبر
وبلاگها
نبرید
g۳
فایر
۱۳۱۵
پسرک
پراب
میرفته
برودت
میگردیم
رخدادی
گرینویچ
بیقراری
king
##زویل
هرت
مقابلهای
مىکرد
کرایهها
غلت
۸۳۳
##امریکایی
گفتوگوهایی
پسرعم
اتهامهای
۵۴۵
اسانترین
شفاب
space
بالابودن
عبودیت
۱۹۲۱
##شاخص
مصریها
اسیبدیدگان
سرعین
##دیث
##وشیما
بلدیه
ترکیا
کوهکن
محوطههای
فیروزهای
امحا
##ایید
گرفتهشده
النبی
میشناختم
syn
تخط
صفدری
۴۵۳
مصدر
۴۹۳
کمالوندی
cortex
مانیفست
##mer
مسلسل
قضاوتهای
سبوسدار
توانید
##اظهاری
کامپوزیت
ابلاغیهای
z۵
شمارهها
بهنمایش
بهسادگی
بیلبوردهای
امران
افشان
اشراقی
پزشکتان
اعتباراتی
تلفنها
هایپر
جاسبی
میپوشند
جاعل
موبایلها
شیخون
شنیدهاند
یورگن
قوچانی
ادرنالین
دیجیکالا
شنگ
وبال
چهارماهه
والع
اتوموبیل
art
بگری
ژله
کردان
بارک
کاخهای
تفریغ
دانشهای
بلوری
مهرهها
serv
زری
مدخل
سرامیکی
هرقدر
نرسند
کمیساری
کشتیسازی
تراست
۳۳۱
برادرانه
طالبیان
مجعول
سیاتل
##اکتری
زیانی
پناهجوی
تضمینهای
پیداکردن
بشی
لکم
٧٦
مخملی
۶۰۳
پردیسان
نگرشها
مغتنمی
##ium
عنه
ملین
تکفل
سنگفر
جنایتها
بنزما
بیگدلی
دکان
##mp
انوا
##اتین
همیار
بیوک
##اندیس
اتا
##لواکی
درامدشان
مدارج
همسایههای
سوداگرانه
برازنده
بپوشانید
ساختمانهایی
سیگارهای
نگفتند
تبهکار
هاضمه
##ولیها
تیررس
الماسی
عهدهی
##حصیلی
موکد
تصمیمش
اوردید
اکتسابی
ابوطالبی
##soft
زرنگ
##گرافیک
##سردگی
نخرید
##گیردار
سهمها
چوگان
میاموزند
خودشیفتگی
انفولانزا
موعظه
##بايی
کلاری
مخمل
##شکلی
فریبی
کوشیده
کنتورهای
##دانشگاهی
صددرصدی
روزنامهی
باختر
##سفارش
##طبقه
گوم
##بهاش
تصلب
##وتورز
منطقة
چگینی
دوختهاند
ارگونومی
رکیک
درجای
احض
تنومند
هندست
##افزود
کوبنده
رزماری
##ومتریک
قراضه
##ردانی
امیلی
کاربل
گفتهاید
۱۳۱۸
دورانهای
##شهد
چشمهایش
##press
cross
part
##شرکت
##شخص
##قارن
بازخواهد
فعالند
اوراقی
۶۰۸
۵۴۹
##گاوا
معاهدات
ایازی
نواخت
پیروزیها
شارون
روابطش
##alth
میفهمیم
میبد
مشگین
تهذیب
جوامعی
حرفشان
۴۶۱
حاشیهنشین
زنبورداران
pass
##جهاد
متلاطم
خوشههای
##بورن
برافرو
نوتیفیکیشن
nat
فرنگ
۱۳۱۹
##شانیم
ترانهای
مثقال
صباحی
زبانشناسی
پسرانه
اوبام
گالن
سحرگاه
پایانهها
تیتانیوم
غایبان
##جة
##ظرف
نیجر
دورکاری
مفیدتر
تغذیهی
راکتورهای
##الیها
تنشی
واردشده
نقشهی
شخصیسازی
صداو
یونیت
##omi
##دولت
api
ییلاق
فخرالدینی
##الیستهای
##کلاس
لوبیای
اومده
##ux
##اندز
افریدند
جمعیتهای
شناسايی
بستیم
کفاره
نیکوکاران
پمپهای
میکروفن
همانهایی
صحنهی
مینیاتوری
گربهها
نمیگذاریم
##پراکنی
vir
۳میلیون
##سطح
##انتهای
الولایات
۱۴۱۴
حداقلهای
فرانکلین
انفعالات
duty
##جرب
##yl
بودجهریزی
ابیک
غیرهستهای
برفکی
ترفندی
سرسختانه
خوداگاهی
نیاورند
هیزم
حجاز
درخشندگی
الارهاب
چوبه
بررس
کارنا
دوستانمان
تطمیع
صداوسیمای
پسوریازیس
رومیان
پرندهای
اشتهایی
##وکامپ
نوجوانانی
##۱۳۴
کولبران
کاسیاس
cast
gs
سلا
مصرح
۳۵۷
تخریبهای
دشتستان
ذبیح
##بعد
##چراغ
داوید
صداهایی
میبارد
شبههای
بلااستفاده
چشمانم
مسوولیتی
اثرانگشت
div
ارزویش
انقلابها
##ابطه
رمادی
تورج
لیبرالها
lx
s۲
رجز
مرع
پریمی
برنامهریزان
شنیدند
مسترکارت
شکلاتی
سرخورده
گشایشی
##ise
##br
گردیدهاست
##۷۳۵
گاوص
السلطنه
قدیر
کوشک
سندیک
برمیدارند
شیمیدرمانی
gold
##یرز
کنای
سیدجواد
مىگو
شریانهای
phone
اتاتورک
تیان
فله
فنگ
افروز
ایش
##اکش
اولد
سرخر
کاربردها
مارکسیسم
فتوشاپ
۶۸۲
کلفت
گذشتهی
گروی
بلگراد
سینگ
اسپورتی
محرومیتزدایی
کرونر
بسپاریم
پیشدب
تابهحال
journal
##ژان
تصورش
شهربانی
۱۹۲۳
سويز
امیال
سارقین
دلاوری
یغما
پروندهاش
بلخ
شغلها
پرستو
نامعقول
ویار
نقاد
۱۹۲۴
##ird
استطاعت
ea
کمچرب
گلبرگ
منظورش
مینگرد
۴۵۷
##زایری
اچای
فضلالله
cdn
ابرکوه
##ثیه
سالوادور
زنهای
##ovo
اعتمادبهنفس
چارس
##ویند
شهران
۱۹۱۲
میشدهاست
توهمات
مژگان
فاع
نانی
ونه
##ev
##fr
کردو
زیرش
دونفره
۵۸۵
صرفهتر
نویدکیا
گارسیا
شالوده
کتابفروشیها
xia
طاووس
۲سال
##نعی
الیمن
انتنهای
##گیزی
کلاین
محدودهی
الماتی
گوربا
درعر
واداشته
راجرز
کارمزدی
جامانده
اکسل
کوبانی
##اکوویچ
موریتانی
رور
##روجی
الرم
##دامین
کوپن
کارهایتان
پیمود
برچیدن
متیس
یخچالهای
قشنگی
هاشمیط
۳۶۷
درختها
##ورکین
تابلویی
کاپیتانی
مرزناباد
زمامداری
زحل
##ربا
دوسر
راهروی
فارغالتحصیلی
اسپیلبرگ
بهین
بربی
صنعتگر
سهمهای
سهماه
رونوشت
پورنا
جريت
ابریل
amer
view
جايی
##سنت
##ینال
##اکید
اگاهسازی
نعمتالله
تردیدهایی
باریکه
محافظتی
ساطع
##ستاره
گروهش
رفح
جداست
نجاتی
مجددی
کربلایی
استانهی
گنبدی
بلندگوهای
چچن
مقعد
سیارهای
واشن
مغفرت
فاصلههای
سیلوا
جوشکاری
بیابیم
ابشارهای
پریناز
##فتامین
ماهوی
جوانههای
حلزون
##محصول
مبالغه
جوزانی
تیونینگ
cat
تاویل
##گیرى
چندساله
حلها
خدمتکار
نمیشناسم
ham
تبخال
عطاریها
##پژوه
اسکلتی
تاتو
دمی
ورو
محدث
برداشتیم
ماجراست
واشنگتنپست
الودهترین
الاتفاق
جاهطلبی
منتظران
##پهای
##ردان
دستساز
احسانی
سخنگویی
تختخواب
سولفات
a۷
##هاوس
الرج
سراید
نمیکنی
ناپدری
انساندوست
شعاير
قلاب
۵۵۸
عارضهای
gddr
یم
##شوار
##gl
##ze
سیخ
طبابت
گیگاهرتزی
۳۴۱
شفای
سالهی
##وزر
نظامات
رضویان
بانش
لیندا
۶۵۲
##۱۴۹
جزیرهی
هاموند
org
شرایطش
سوءظن
استعلامات
استفاد
بپوشد
اینهاست
مویر
مريی
تقدیری
۵۸۲
عقیدهاند
زراعتی
متجلی
ومس
مرندی
بازیساز
همینگونه
اظهارنامههای
۵۰۲
کوششهای
hs
کاي
انضم
##ونیوم
غیربهداشتی
۱۲۷۰
##جاوه
۸۰۵
سیروز
کمتوجهی
مطی
مشکلدار
خانها
نن
نشتی
دراست
بهاصطلاح
همگروه
ایرانهراسی
چهقدر
صادارت
۴۴۱
یونها
##eta
ممتازی
اسمارتف
nokia
۷۶۸
##ثبت
سردترین
واسپاری
۵۳۲
کهنترین
بپیچ
نتاج
##دینی
خارگ
##باث
بیمهگذار
دریچهای
تهدیداتی
معلمها
میریزیم
خلیلیان
اشامیدن
تیشر
##پسندی
اوارگی
پرندهها
رتبهای
اسپن
رباعی
گوریلا
len
##واد
هیولا
چهکار
بالابر
گرداب
۱۵۱۵
جامعهشناسان
ولگرد
اکسپل
الاباما
ایسا
کوته
گوشتها
سکینه
۳۶۱
زايری
برگشتیم
##ui
ارزویی
شوکی
عصری
ابداعی
اماد
اکنده
پیوستهای
کنفرانسها
بازارگردان
اطفاء
همراهتان
بذور
##بسی
##ماندن
سرهم
ملودر
۱۹۳۱
جمهورى
مقطوع
سلطانیه
ابریزش
لکنت
کلار
۱۹۲۲
فیلمهایش
بایسته
ویلن
leg
##dragon
ارنولد
نوستالژیک
over
##وسیان
##خاصیت
انصارالحسین
ارمنیها
##سیوس
القدر
جوکار
دعو
مجازاتها
ماریجوان
میاندورهای
دربرمیگیرد
گاوی
##قصد
هستش
عنایات
پریز
نصیرالدین
vip
یوک
##ذول
بودا
الطاف
میتوانسته
##نجک
##وسکی
##ویرا
زنند
سانا
مجروحین
##زة
##dc
روحانیان
نتف
جعبههای
پورناظری
##یمنش
کارو
بکوب
##بخشهای
سولف
بردید
فریمان
##یلتون
##گیرندگان
پنچ
مفسران
پسیانی
ضداف
توشه
نامهایی
لیبری
امضاهای
##ebook
ظلمی
gb
فیلادل
فیزیولوژیکی
روستاهایی
شکرخواه
نفیسی
طبرستان
شرمساری
##امة
##شیز
درجهبندی
۵۶۵
نکتههای
hot
لمن
##ازا
گرگانی
میلرز
قلمی
##کلیف
برنداشته
ونچر
سحرخیز
اشارات
دوتابعیتی
##مطالب
سباستین
گلهمند
##رفته
##pp
ارون
کمت
وجودم
چندمنظوره
##ازمة
دوستتان
بنیادهای
فولکل
دوستانهای
منافعشان
قرمزهای
الفالح
##خانگی
موجران
##ports
تلخترین
افروزی
دلق
بیشترشان
انجاکه
##نامە
سیاهپوستان
روبهروست
چرخید
##فعالی
اساتیدی
چابکی
فرمتهای
ddr۴
شینه
یوت
##سها
ساج
قانونمداری
محدودکننده
دقیقترین
بث
لوش
دیدنش
خصوصیاتی
رانندهای
خواندهام
میکروارگانی
واضحتر
نمیدانستیم
نمانند
پورش
یوهان
##gy
درمانده
فولادشهر
الامکان
برزو
میستورا
ومت
##ning
##برهای
استفادهکنندگان
##کتاش
مکش
نوشتهام
کابینت
برنجی
اتوبانهای
توییتی
الترناتیو
پیشدبستانی
##زیم
النا
##تصادی
مهراد
لطافت
۵۴۸
ضربالمثل
غلاف
##ورگ
میرزای
جهانى
##less
ترانسفر
بااینکه
مظفرالدین
نمیمان
۱۴۱۰
نشستهایم
اسپارت
رایزنیهایی
##ecd
پرکالری
برخاستن
هايیتی
##ماش
خطم
سفیده
بورژ
نااطمینانی
kirin
بازتوانی
پنجاهمین
حواسشان
انواعی
##عوت
کارى
محزون
خواف
مکبوک
snapdragon
۷درصد
##ww
تویتر
میرجاوه
سفرهایی
حاکمه
کوربین
کورکور
تپسی
دکلها
خدابنده
z۲
خشتی
##نات
قطرات
اسیبر
##۳۰۳
براوردن
کابینهاش
درسالهای
۶۷۲
نوام
رویشان
##ارتز
اردستان
چارچوبها
مستحکمتر
انرژ
روهینگی
پالیسی
##سیمی
##قلعه
مثلثی
عجیبتر
فراکسیونها
وجوهی
حاجیبابایی
منافاتی
لاینفک
توشیبا
گاوصندوق
۱۲۹۹
پاداشی
۴۹۸
فروختن
ارضا
۱۳۲۲
قزلال
عسلی
وکالة
میسال
ماههی
زیرگذر
قطور
##iness
ردیاب
کاتالوگ
نیکولا
global
رزین
۷۳۵
مقتل
تصنعی
مینای
طارق
عاف
مشکلتر
تورات
##خارج
##uth
top
شپش
۶درصد
نواری
##ions
مارکسیستی
تشتت
نال
##زمانی
##قها
##داء
تصمیمگیرنده
قاسمخانی
##شوهر
سمندریان
غزنوی
ابریشمی
پوم
یش
##یتال
رفتنش
##ense
اییننامهای
بخارا
isi
تنباک
شاب
فهد
متیو
بدنیا
مترجمان
کولایی
انیشتین
روانکاوی
نتفلیکس
ذلیل
بربری
مبتدی
تورب
ملاحسینی
بمبها
ژيوفیزیک
cis
پالیز
موکت
بداهه
هیولای
بنشاند
میزهای
انگلی
##۳۳۳
##۱۱۱
قصابی
تراشیده
پراوازه
دستهی
هراسان
رانندهها
دریانورد
##علاقه
چاهی
##key
##غازی
##کتوز
توسعهیافت
دریافتکنندگان
پاچه
الگوسازی
اشیانه
کیتکو
force
٥٧
##ایون
بعیدی
ورزشگاههای
اسپاسم
تردیدهای
خوانندههای
نشینها
کوانتوم
کیلوبیت
##ضح
##پرستان
تومورها
کاراکاس
پکک
دشمنیها
اسپیکرهای
ذک
منات
##سیة
مواخ
مسول
امادهی
مالچ
۷۰۵
دخترشان
واکسینه
##ذهب
گمانهزنیهای
اسعدیان
تفکیکی
طاي
وگاز
##نیافت
سوارس
۱۹۱۵
ذکرشده
class
ضدافسردگی
big
حجه
بهلحاظ
چهارماه
اقایانی
اوردهاست
بگشاید
خباث
ضدم
بازیسازان
ورزشکاری
کتبا
e۲
وینگ
##جدید
اشنویه
##روفن
دردست
میخریم
راحتترین
##تراب
##شدار
توسان
ازدواجی
الکترال
حکمتی
برندهی
توپخانهای
##ola
فاکتورهایی
##لاطین
پشتوانهای
فونی
همتراز
نمیباشند
کسان
نگاشت
##orth
نوردی
سینماد
شدیدتری
فلاور
افسانهها
map
حماه
لوث
##۳۰۲
واگنها
جلف
##يونه
فربه
۱۹۲۶
مراجعت
قاصد
نمودم
عبدالب
##خانم
lez
الرقه
فیلدز
li
ترفی
٨٩
پوت
ابگوشت
##واجه
امرزش
باغملک
ملاقاتها
اسکورت
فرستادم
فانتوم
دوبارهای
الماضی
تاکستان
کامنتهای
بستک
جایگزینهای
ناخدا
گردوخاک
ریست
دلیجان
ویرایشگر
هروقت
باواریا
اونت
کونگ
اقاب
شوشی
##مرگ
رنجهای
جنگندهها
هالک
##force
rtl
##field
مقار
غیرخ
خراسانرضوی
dc
همن
##بهار
##اقبی
تجری
سرمشق
سرانگشتی
برونشهری
اتر
##یمو
همراهم
##عشده
ضدسر
درایور
پرایس
لبهای
فهرستهای
هاوانا
فتنهها
phot
گورباچف
ایلات
##صالح
ترابر
##۸۰۹
درختهای
کنوانسیونهای
کراساو
فرمانروای
nx
##سبی
کمککننده
تپنده
##پیماید
سروسامان
##erm
بردهای
بردهایم
##ose
road
ناشتا
هوايی
مسلمی
غیرمرتبط
ناحیهی
##rop
شعرخوانی
مترمکعبی
شنیدههای
##قم
ازنا
۱۹۱۰
##سازمان
تعزیر
چیپستهای
سراشپز
جاز
قق
قیط
##زدا
ساپورت
مهین
میزانلاین
حذر
##پاروف
متخل
خندید
لاستیکی
بههمیند
##ورزشی
تکواندوکار
بندانگشتی
نرسان
۱۴۱۲
الاي
نامتعادل
##کنترل
سبت
##اعات
برخود
شنوا
مجازاتی
پروفیل
فاطمیون
مدرسی
دوفور
محلها
شناختند
##وینژاد
میفهمید
screen
بههمیندلیل
run
۹۷۵
##ستیم
قرنهای
صبحگاه
مسعودیه
mvno
گوردون
oecd
شرای
بدگ
واگیردار
##ino
تمرینها
اجارهبهای
خمیردندان
univers
جریمهها
صفراوی
##گروهی
تعجبی
دهنمکی
##اسری
##زیان
##هرمز
دوتایی
##نعت
##ye
##تصاد
##ادران
##قیمتی
قمع
صدایشان
ملاء
سمانه
هانت
وسای
برک
پاسیفیک
مونا
ایشون
ادریان
حالى
کلت
دستوراتی
عقربه
زدهایم
جاویدان
مقولات
سايوپ
دومش
ثبتسفارش
##الشعبی
شاهم
##son
##ازای
پیشواز
کوهرنگ
نشستهایی
بانیان
خانوادهشان
ابزیپروری
باشکوهی
قصرشیرین
میفهمم
پرجمعیتترین
۱۹۲۷
جداره
خانمهایی
##ويیدها
سیدالشهداء
پریشانی
يی
فراگرفت
توافقها
سریالهایی
مربیانی
طبقهی
۵۱۴
۸۷۲
خوشر
۵۰۴
##تینو
خادمین
کهیر
محبیان
خستهکننده
نیافتنی
موافقتنامههای
مفسده
ازاء
رومن
البیت
مبذول
شیپور
فراخ
بیماریزا
##oss
نقاشیها
پیامدها
کربوهیدراتهای
موگ
ماجدی
الانسان
مسيولیتش
##اعلام
فقرزدایی
گاوخونی
غیرعلمی
ترجمهی
مورت
##افة
##اقه
نوکر
ترکمان
کرانههای
##تمامی
جویبار
پیشرانهی
نمیپذیریم
فقیهی
دشنام
تقسیمی
دریافتکننده
بته
display
کاین
۶۶۲
##يود
زیرپا
پروندهی
بدنساز
خیرخواه
ارسن
مدعوین
نیکاراگويه
بکام
خفق
##پینگ
میپ
موفقیتهایی
##چیها
خیراندیش
پایتختهای
الاخت
میپسندند
العمر
سنجار
مارا
استودیویی
اییننامهها
رانتخواری
بستم
متواضع
عقیل
##att
زندهای
microsoft
ذکری
یوری
##بگیر
شدهاش
۱۳۲۶
دولتشاهی
سیاستورزی
احوالپرسی
ادمیان
محبوبه
قرنطینهای
پانسمان
غرو
اقلیتی
نگاهمان
ناشیانه
شدهترین
##خوابه
حسابش
پاکیز
هماهنگکننده
کارگروهها
افکتهای
کوارتر
اچایوی
خامی
طوطی
انتر
معلی
شبح
صحابه
جاء
##let
مجتمعها
هفتادمین
دراینده
المعارض
میشمارد
لیکوپن
صورتتان
همراهشان
المش
۲۹۰۰
۶۰۲
نامزدش
محمودرضا
ارایشگاهها
ang
جهتگیریهای
f۱
##md
اثراتی
##ange
پايینتر
معارضین
تزیینات
انساندوستانه
غازی
موهن
بنگاهی
مهرزاد
ماما
ازادیخواه
۸۰۸
جوابهای
فریدونکنار
ملامت
port
یاوران
محرومیتهای
##ورکوزن
تنگناها
فشردهای
ریلگذاری
بنجامین
خصولتی
حکمران
##۱۵۵
کرایههای
center
ur
زبیر
##اسای
کدها
شیرزاد
دهندههای
ملکوت
laun
مطیعی
مرثیه
شورلت
تلک
۵۰۱
انسوی
صادقیه
جیلی
استخدامهای
الحمدالله
ti
ريیسان
##ستیز
تلنگری
کوکو
حکمیت
روباتیک
۳۴۷
کاخسفید
نادانی
مایلم
نگرفتم
خنککننده
لنجان
##ایمنی
۶۲۳
هیجانزده
دیلم
ترحم
دیزاین
پربرکت
سلاطین
تدبر
مزخ
کلاهبرداریهای
ارشادی
##رکش
کارول
یافتهایم
۶۰۴
##eco
هلس
ژوز
درامی
میاز
منهم
اکیدا
##شینگ
همسفر
رازیانه
securit
رولزرویس
book
تولی
میتوانستید
مسافتهای
a۳
##رونی
group
میانک
بیسر
کارنامهاش
۵۰۹
کارگشایی
##ورر
میاف
زیرمیزی
سپاسی
اشتعال
محیطبان
بیربط
خلاقیتهای
شلغم
درایوهای
کاراکترها
استهبان
ملايکه
mig
ونیم
کلبه
گرفتی
حسابشان
معظمله
رودسر
خنث
aut
cnn
سانچز
ثل
صر
##سرایی
شنوندگان
شهیدبهشتی
حاشیهسازی
[...]
