{
  "version": "1.0",
  "truncation": null,
  "padding": null,
  "added_tokens": [
    {
      "id": 0,
      "special": true,
      "content": "[PAD]",
      "single_word": false,
      "lstrip": false,
      "rstrip": false,
      "normalized": false
    },
    {
      "id": 1,
      "special": true,
      "content": "[UNK]",
      "single_word": false,
      "lstrip": false,
      "rstrip": false,
      "normalized": false
    },
    {
      "id": 2,
      "special": true,
      "content": "[CLS]",
      "single_word": false,
      "lstrip": false,
      "rstrip": false,
      "normalized": false
    },
    {
      "id": 3,
      "special": true,
      "content": "[MASK]",
      "single_word": false,
      "lstrip": false,
      "rstrip": false,
      "normalized": false
    },
    {
      "id": 4,
      "special": true,
      "content": "[SEP]",
      "single_word": false,
      "lstrip": false,
      "rstrip": false,
      "normalized": false
    }
  ],
  "normalizer": {
    "type": "BertNormalizer",
    "clean_text": true,
    "handle_chinese_chars": true,
    "strip_accents": null,
    "lowercase": true
  },
  "pre_tokenizer": {
    "type": "BertPreTokenizer"
  },
  "post_processor": {
    "type": "TemplateProcessing",
    "single": [
      {
        "SpecialToken": {
          "id": "[CLS]",
          "type_id": 0
        }
      },
      {
        "Sequence": {
          "id": "A",
          "type_id": 0
        }
      },
      {
        "SpecialToken": {
          "id": "[SEP]",
          "type_id": 0
        }
      }
    ],
    "pair": [
      {
        "SpecialToken": {
          "id": "[CLS]",
          "type_id": 0
        }
      },
      {
        "Sequence": {
          "id": "A",
          "type_id": 0
        }
      },
      {
        "SpecialToken": {
          "id": "[SEP]",
          "type_id": 0
        }
      },
      {
        "Sequence": {
          "id": "B",
          "type_id": 1
        }
      },
      {
        "SpecialToken": {
          "id": "[SEP]",
          "type_id": 1
        }
      }
    ],
    "special_tokens": {
      "[CLS]": {
        "id": "[CLS]",
        "ids": [
          2
        ],
        "tokens": [
          "[CLS]"
        ]
      },
      "[SEP]": {
        "id": "[SEP]",
        "ids": [
          4
        ],
        "tokens": [
          "[SEP]"
        ]
      }
    }
  },
  "decoder": {
    "type": "WordPiece",
    "prefix": "##",
    "cleanup": true
  },
  "model": {
    "type": "WordPiece",
    "unk_token": "[UNK]",
    "continuing_subword_prefix": "##",
    "max_input_chars_per_word": 100,
    "vocab": {
      "[PAD]": 0,
      "[UNK]": 1,
      "[CLS]": 2,
      "[MASK]": 3,
      "[SEP]": 4,
      "!": 5,
      "\"": 6,
      "&": 7,
      "'": 8,
      "(": 9,
      ")": 10,
      "*": 11,
      "+": 12,
      ",": 13,
      "-": 14,
      ".": 15,
      "/": 16,
      ":": 17,
      ";": 18,
      "<": 19,
      "=": 20,
      ">": 21,
      "?": 22,
      "@": 23,
      "[": 24,
      "\\": 25,
      "]": 26,
      "^": 27,
      "`": 28,
      "a": 29,
      "b": 30,
      "c": 31,
      "d": 32,
      "e": 33,
      "f": 34,
      "g": 35,
      "h": 36,
      "i": 37,
      "j": 38,
      "k": 39,
      "l": 40,
      "m": 41,
      "n": 42,
      "o": 43,
      "p": 44,
      "q": 45,
      "r": 46,
      "s": 47,
      "t": 48,
      "u": 49,
      "v": 50,
      "w": 51,
      "x": 52,
      "y": 53,
      "z": 54,
      "{": 55,
      "}": 56,
      "~": 57,
      "æ": 58,
      "ø": 59,
      "đ": 60,
      "ħ": 61,
      "ı": 62,
      "ĸ": 63,
      "ł": 64,
      "ŋ": 65,
      "œ": 66,
      "ƀ": 67,
      "ƃ": 68,
      "ƈ": 69,
      "ƒ": 70,
      "ƙ": 71,
      "ƛ": 72,
      "ƞ": 73,
      "ƣ": 74,
      "ƥ": 75,
      "ƭ": 76,
      "ƴ": 77,
      "ƶ": 78,
      "ƿ": 79,
      "ǀ": 80,
      "ǁ": 81,
      "ǃ": 82,
      "ǝ": 83,
      "ȥ": 84,
      "ȷ": 85,
      "ȼ": 86,
      "ɉ": 87,
      "ɋ": 88,
      "ɍ": 89,
      "ɐ": 90,
      "ɑ": 91,
      "ɒ": 92,
      "ɓ": 93,
      "ɔ": 94,
      "ɕ": 95,
      "ɖ": 96,
      "ɗ": 97,
      "ə": 98,
      "ɚ": 99,
      "ɛ": 100,
      "ɜ": 101,
      "ɞ": 102,
      "ɟ": 103,
      "ɠ": 104,
      "ɡ": 105,
      "ɢ": 106,
      "ɣ": 107,
      "ɤ": 108,
      "ɥ": 109,
      "ɦ": 110,
      "ɨ": 111,
      "ɪ": 112,
      "ɫ": 113,
      "ɬ": 114,
      "ɭ": 115,
      "ɮ": 116,
      "ɯ": 117,
      "ɰ": 118,
      "ɱ": 119,
      "ɲ": 120,
      "ɳ": 121,
      "ɴ": 122,
      "ɵ": 123,
      "ɸ": 124,
      "ɹ": 125,
      "ɺ": 126,
      "ɻ": 127,
      "ɽ": 128,
      "ɾ": 129,
      "ʀ": 130,
      "ʁ": 131,
      "ʂ": 132,
      "ʃ": 133,
      "ʄ": 134,
      "ʈ": 135,
      "ʉ": 136,
      "ʊ": 137,
      "ʋ": 138,
      "ʌ": 139,
      "ʎ": 140,
      "ʏ": 141,
      "ʐ": 142,
      "ʑ": 143,
      "ʒ": 144,
      "ʔ": 145,
      "ʕ": 146,
      "ʖ": 147,
      "ʘ": 148,
      "ʙ": 149,
      "ʛ": 150,
      "ʝ": 151,
      "ʟ": 152,
      "ʠ": 153,
      "ʡ": 154,
      "ʢ": 155,
      "ʰ": 156,
      "ʹ": 157,
      "ʺ": 158,
      "ʻ": 159,
      "ʾ": 160,
      "ʿ": 161,
      "ˀ": 162,
      "˂": 163,
      "˃": 164,
      "˄": 165,
      "ˆ": 166,
      "ˇ": 167,
      "ˈ": 168,
      "ˉ": 169,
      "ˌ": 170,
      "ˏ": 171,
      "ː": 172,
      "ˑ": 173,
      "˒": 174,
      "˓": 175,
      "˔": 176,
      "˙": 177,
      "˚": 178,
      "˛": 179,
      "˜": 180,
      "˝": 181,
      "˧": 182,
      "α": 183,
      "β": 184,
      "γ": 185,
      "δ": 186,
      "ε": 187,
      "η": 188,
      "θ": 189,
      "ι": 190,
      "κ": 191,
      "λ": 192,
      "μ": 193,
      "ν": 194,
      "ξ": 195,
      "ο": 196,
      "π": 197,
      "ρ": 198,
      "ς": 199,
      "σ": 200,
      "τ": 201,
      "υ": 202,
      "φ": 203,
      "χ": 204,
      "ω": 205,
      "ϒ": 206,
      "ϕ": 207,
      "ϡ": 208,
      "а": 209,
      "б": 210,
      "в": 211,
      "г": 212,
      "д": 213,
      "е": 214,
      "ж": 215,
      "з": 216,
      "и": 217,
      "к": 218,
      "л": 219,
      "м": 220,
      "н": 221,
      "о": 222,
      "п": 223,
      "р": 224,
      "с": 225,
      "т": 226,
      "у": 227,
      "ф": 228,
      "х": 229,
      "ц": 230,
      "ч": 231,
      "ш": 232,
      "щ": 233,
      "ъ": 234,
      "ы": 235,
      "ь": 236,
      "э": 237,
      "ю": 238,
      "я": 239,
      "ѕ": 240,
      "і": 241,
      "ґ": 242,
      "ҫ": 243,
      "ҳ": 244,
      "ӆ": 245,
      "՞": 246,
      "ա": 247,
      "բ": 248,
      "դ": 249,
      "ե": 250,
      "զ": 251,
      "թ": 252,
      "ի": 253,
      "լ": 254,
      "խ": 255,
      "ծ": 256,
      "կ": 257,
      "հ": 258,
      "ձ": 259,
      "մ": 260,
      "յ": 261,
      "ն": 262,
      "շ": 263,
      "ո": 264,
      "չ": 265,
      "պ": 266,
      "ս": 267,
      "վ": 268,
      "տ": 269,
      "ր": 270,
      "ց": 271,
      "ւ": 272,
      "ք": 273,
      "օ": 274,
      "׃": 275,
      "א": 276,
      "ב": 277,
      "ד": 278,
      "ה": 279,
      "ו": 280,
      "ז": 281,
      "ח": 282,
      "ט": 283,
      "י": 284,
      "כ": 285,
      "ל": 286,
      "ם": 287,
      "מ": 288,
      "ן": 289,
      "נ": 290,
      "ס": 291,
      "ע": 292,
      "פ": 293,
      "ץ": 294,
      "צ": 295,
      "ר": 296,
      "ש": 297,
      "ת": 298,
      "״": 299,
      "،": 300,
      "؍": 301,
      "؛": 302,
      "؟": 303,
      "ء": 304,
      "ا": 305,
      "ب": 306,
      "ة": 307,
      "ت": 308,
      "ث": 309,
      "ج": 310,
      "ح": 311,
      "خ": 312,
      "د": 313,
      "ذ": 314,
      "ر": 315,
      "ز": 316,
      "س": 317,
      "ش": 318,
      "ص": 319,
      "ض": 320,
      "ط": 321,
      "ظ": 322,
      "ع": 323,
      "غ": 324,
      "ف": 325,
      "ق": 326,
      "ل": 327,
      "م": 328,
      "ن": 329,
      "ه": 330,
      "و": 331,
      "ى": 332,
      "ي": 333,
      "٠": 334,
      "١": 335,
      "٢": 336,
      "٣": 337,
      "٤": 338,
      "٥": 339,
      "٦": 340,
      "٧": 341,
      "٨": 342,
      "٩": 343,
      "٪": 344,
      "٫": 345,
      "٬": 346,
      "٭": 347,
      "ٮ": 348,
      "ٱ": 349,
      "ٲ": 350,
      "ٴ": 351,
      "ٶ": 352,
      "ٸ": 353,
      "ٹ": 354,
      "ٺ": 355,
      "ٽ": 356,
      "پ": 357,
      "ځ": 358,
      "ڃ": 359,
      "څ": 360,
      "چ": 361,
      "ڈ": 362,
      "ڌ": 363,
      "ڑ": 364,
      "ڔ": 365,
      "ڕ": 366,
      "ڗ": 367,
      "ژ": 368,
      "ڟ": 369,
      "ڤ": 370,
      "ک": 371,
      "ګ": 372,
      "گ": 373,
      "ڱ": 374,
      "ڵ": 375,
      "ں": 376,
      "ھ": 377,
      "ہ": 378,
      "ۃ": 379,
      "ۆ": 380,
      "ۇ": 381,
      "ی": 382,
      "ۍ": 383,
      "ێ": 384,
      "ې": 385,
      "۔": 386,
      "ە": 387,
      "۞": 388,
      "ۥ": 389,
      "۩": 390,
      "۰": 391,
      "۱": 392,
      "۲": 393,
      "۳": 394,
      "۴": 395,
      "۵": 396,
      "۶": 397,
      "۷": 398,
      "۸": 399,
      "۹": 400,
      "ۺ": 401,
      "ۻ": 402,
      "ܓ": 403,
      "ܨ": 404,
      "ः": 405,
      "अ": 406,
      "आ": 407,
      "इ": 408,
      "ई": 409,
      "उ": 410,
      "ऊ": 411,
      "ए": 412,
      "ऐ": 413,
      "ओ": 414,
      "औ": 415,
      "क": 416,
      "ख": 417,
      "ग": 418,
      "ङ": 419,
      "च": 420,
      "छ": 421,
      "ज": 422,
      "झ": 423,
      "ञ": 424,
      "ट": 425,
      "ठ": 426,
      "ड": 427,
      "ढ": 428,
      "ण": 429,
      "त": 430,
      "थ": 431,
      "द": 432,
      "ध": 433,
      "न": 434,
      "प": 435,
      "फ": 436,
      "ब": 437,
      "भ": 438,
      "म": 439,
      "य": 440,
      "र": 441,
      "ल": 442,
      "ळ": 443,
      "व": 444,
      "श": 445,
      "ष": 446,
      "स": 447,
      "ह": 448,
      "ा": 449,
      "ि": 450,
      "ी": 451,
      "ॉ": 452,
      "ो": 453,
      "ौ": 454,
      "ॐ": 455,
      "।": 456,
      "॥": 457,
      "०": 458,
      "१": 459,
      "२": 460,
      "३": 461,
      "४": 462,
      "५": 463,
      "६": 464,
      "७": 465,
      "८": 466,
      "९": 467,
      "ং": 468,
      "অ": 469,
      "ঈ": 470,
      "উ": 471,
      "ঊ": 472,
      "ক": 473,
      "খ": 474,
      "গ": 475,
      "ঘ": 476,
      "ঙ": 477,
      "চ": 478,
      "জ": 479,
      "ঞ": 480,
      "ট": 481,
      "ড": 482,
      "ত": 483,
      "থ": 484,
      "দ": 485,
      "ন": 486,
      "প": 487,
      "ফ": 488,
      "ব": 489,
      "ম": 490,
      "য": 491,
      "র": 492,
      "ল": 493,
      "শ": 494,
      "স": 495,
      "হ": 496,
      "া": 497,
      "ি": 498,
      "ী": 499,
      "ে": 500,
      "ৈ": 501,
      "ৰ": 502,
      "৳": 503,
      "ਅ": 504,
      "ਆ": 505,
      "ਇ": 506,
      "ਕ": 507,
      "ਖ": 508,
      "ਗ": 509,
      "ਘ": 510,
      "ਚ": 511,
      "ਜ": 512,
      "ਡ": 513,
      "ਣ": 514,
      "ਤ": 515,
      "ਦ": 516,
      "ਧ": 517,
      "ਨ": 518,
      "ਪ": 519,
      "ਫ": 520,
      "ਬ": 521,
      "ਭ": 522,
      "ਮ": 523,
      "ਰ": 524,
      "ਲ": 525,
      "ਵ": 526,
      "ਸ": 527,
      "ਹ": 528,
      "ਾ": 529,
      "ਿ": 530,
      "ੀ": 531,
      "ੜ": 532,
      "ઃ": 533,
      "અ": 534,
      "આ": 535,
      "ઇ": 536,
      "ઈ": 537,
      "ઉ": 538,
      "ઊ": 539,
      "ઋ": 540,
      "ઍ": 541,
      "એ": 542,
      "ઐ": 543,
      "ઑ": 544,
      "ઓ": 545,
      "ઔ": 546,
      "ક": 547,
      "ગ": 548,
      "ચ": 549,
      "જ": 550,
      "ટ": 551,
      "ણ": 552,
      "ત": 553,
      "થ": 554,
      "દ": 555,
      "ધ": 556,
      "ન": 557,
      "પ": 558,
      "ફ": 559,
      "બ": 560,
      "ભ": 561,
      "મ": 562,
      "ય": 563,
      "ર": 564,
      "લ": 565,
      "વ": 566,
      "ષ": 567,
      "સ": 568,
      "હ": 569,
      "ા": 570,
      "િ": 571,
      "ી": 572,
      "ૉ": 573,
      "ો": 574,
      "ૌ": 575,
      "૧": 576,
      "૨": 577,
      "૩": 578,
      "૪": 579,
      "૫": 580,
      "૬": 581,
      "૭": 582,
      "૮": 583,
      "૯": 584,
      "ଂ": 585,
      "ଆ": 586,
      "ଦ": 587,
      "ଧ": 588,
      "ବ": 589,
      "ସ": 590,
      "அ": 591,
      "ஆ": 592,
      "இ": 593,
      "ஈ": 594,
      "உ": 595,
      "எ": 596,
      "ஏ": 597,
      "ஒ": 598,
      "க": 599,
      "ங": 600,
      "ச": 601,
      "ஜ": 602,
      "ஞ": 603,
      "ட": 604,
      "ண": 605,
      "த": 606,
      "ந": 607,
      "ன": 608,
      "ப": 609,
      "ம": 610,
      "ய": 611,
      "ர": 612,
      "ற": 613,
      "ல": 614,
      "ள": 615,
      "ழ": 616,
      "வ": 617,
      "ஸ": 618,
      "ா": 619,
      "ி": 620,
      "ு": 621,
      "ூ": 622,
      "ெ": 623,
      "ே": 624,
      "ை": 625,
      "ం": 626,
      "ఆ": 627,
      "ఉ": 628,
      "క": 629,
      "గ": 630,
      "చ": 631,
      "జ": 632,
      "ట": 633,
      "డ": 634,
      "ణ": 635,
      "త": 636,
      "ద": 637,
      "ధ": 638,
      "న": 639,
      "ప": 640,
      "బ": 641,
      "భ": 642,
      "మ": 643,
      "య": 644,
      "ర": 645,
      "ల": 646,
      "వ": 647,
      "శ": 648,
      "ష": 649,
      "స": 650,
      "హ": 651,
      "ు": 652,
      "ూ": 653,
      "ృ": 654,
      "ಂ": 655,
      "ಅ": 656,
      "ಕ": 657,
      "ಗ": 658,
      "ಚ": 659,
      "ಜ": 660,
      "ಟ": 661,
      "ಡ": 662,
      "ಣ": 663,
      "ತ": 664,
      "ಥ": 665,
      "ದ": 666,
      "ನ": 667,
      "ಪ": 668,
      "ಬ": 669,
      "ಮ": 670,
      "ಯ": 671,
      "ರ": 672,
      "ಲ": 673,
      "ಳ": 674,
      "ವ": 675,
      "ಶ": 676,
      "ಸ": 677,
      "ಹ": 678,
      "ಾ": 679,
      "ು": 680,
      "ೂ": 681,
      "ೕ": 682,
      "ೖ": 683,
      "೯": 684,
      "ം": 685,
      "ക": 686,
      "ഖ": 687,
      "ട": 688,
      "ത": 689,
      "ദ": 690,
      "ന": 691,
      "പ": 692,
      "ബ": 693,
      "മ": 694,
      "ര": 695,
      "റ": 696,
      "ല": 697,
      "ള": 698,
      "ഴ": 699,
      "വ": 700,
      "ശ": 701,
      "ഷ": 702,
      "ാ": 703,
      "ി": 704,
      "ീ": 705,
      "െ": 706,
      "േ": 707,
      "൦": 708,
      "൧": 709,
      "൨": 710,
      "൩": 711,
      "൪": 712,
      "൫": 713,
      "൬": 714,
      "൭": 715,
      "൮": 716,
      "൯": 717,
      "ർ": 718,
      "ං": 719,
      "අ": 720,
      "ආ": 721,
      "උ": 722,
      "එ": 723,
      "ඔ": 724,
      "ක": 725,
      "ග": 726,
      "ජ": 727,
      "ඥ": 728,
      "ට": 729,
      "ඩ": 730,
      "ණ": 731,
      "ත": 732,
      "ද": 733,
      "ධ": 734,
      "න": 735,
      "ඳ": 736,
      "ප": 737,
      "බ": 738,
      "භ": 739,
      "ම": 740,
      "ය": 741,
      "ර": 742,
      "ල": 743,
      "ව": 744,
      "ශ": 745,
      "ස": 746,
      "හ": 747,
      "ළ": 748,
      "ා": 749,
      "ැ": 750,
      "ෙ": 751,
      "ก": 752,
      "ข": 753,
      "ค": 754,
      "ง": 755,
      "จ": 756,
      "ฉ": 757,
      "ช": 758,
      "ซ": 759,
      "ฑ": 760,
      "ณ": 761,
      "ด": 762,
      "ต": 763,
      "ถ": 764,
      "ท": 765,
      "ธ": 766,
      "น": 767,
      "บ": 768,
      "ป": 769,
      "ผ": 770,
      "พ": 771,
      "ฟ": 772,
      "ภ": 773,
      "ม": 774,
      "ย": 775,
      "ร": 776,
      "ล": 777,
      "ว": 778,
      "ศ": 779,
      "ษ": 780,
      "ส": 781,
      "ห": 782,
      "อ": 783,
      "ฮ": 784,
      "ะ": 785,
      "า": 786,
      "ำ": 787,
      "เ": 788,
      "แ": 789,
      "โ": 790,
      "ใ": 791,
      "ไ": 792,
      "๐": 793,
      "๑": 794,
      "๒": 795,
      "๓": 796,
      "๔": 797,
      "๕": 798,
      "๖": 799,
      "๗": 800,
      "๘": 801,
      "๙": 802,
      "ກ": 803,
      "ຂ": 804,
      "ງ": 805,
      "ດ": 806,
      "ຕ": 807,
      "ທ": 808,
      "ນ": 809,
      "ບ": 810,
      "ມ": 811,
      "ລ": 812,
      "ວ": 813,
      "ສ": 814,
      "ຫ": 815,
      "ະ": 816,
      "າ": 817,
      "ເ": 818,
      "ໄ": 819,
      "་": 820,
      "།": 821,
      "ཀ": 822,
      "ག": 823,
      "ང": 824,
      "ཅ": 825,
      "ཆ": 826,
      "ཏ": 827,
      "ཐ": 828,
      "ད": 829,
      "ན": 830,
      "པ": 831,
      "ཕ": 832,
      "བ": 833,
      "མ": 834,
      "ཚ": 835,
      "འ": 836,
      "ར": 837,
      "ལ": 838,
      "ས": 839,
      "က": 840,
      "ခ": 841,
      "ဂ": 842,
      "င": 843,
      "ဆ": 844,
      "ည": 845,
      "တ": 846,
      "ဒ": 847,
      "န": 848,
      "ပ": 849,
      "မ": 850,
      "ယ": 851,
      "ရ": 852,
      "လ": 853,
      "သ": 854,
      "ဟ": 855,
      "အ": 856,
      "ာ": 857,
      "ေ": 858,
      "း": 859,
      "ျ": 860,
      "ြ": 861,
      "ა": 862,
      "ბ": 863,
      "გ": 864,
      "დ": 865,
      "ე": 866,
      "ვ": 867,
      "ზ": 868,
      "თ": 869,
      "ი": 870,
      "კ": 871,
      "ლ": 872,
      "მ": 873,
      "ნ": 874,
      "ო": 875,
      "პ": 876,
      "ჟ": 877,
      "რ": 878,
      "ს": 879,
      "ტ": 880,
      "უ": 881,
      "ფ": 882,
      "ქ": 883,
      "ღ": 884,
      "ყ": 885,
      "შ": 886,
      "ჩ": 887,
      "ც": 888,
      "ძ": 889,
      "წ": 890,
      "ჭ": 891,
      "ხ": 892,
      "ჯ": 893,
      "ჰ": 894,
      "ᄉ": 895,
      "ሃ": 896,
      "ለ": 897,
      "ሌ": 898,
      "ል": 899,
      "ሕ": 900,
      "መ": 901,
      "ማ": 902,
      "ም": 903,
      "ሞ": 904,
      "ሠ": 905,
      "ረ": 906,
      "ራ": 907,
      "ር": 908,
      "ሱ": 909,
      "ስ": 910,
      "ሶ": 911,
      "ቀ": 912,
      "ቅ": 913,
      "በ": 914,
      "ባ": 915,
      "ቤ": 916,
      "ቦ": 917,
      "ተ": 918,
      "ት": 919,
      "ነ": 920,
      "ና": 921,
      "ን": 922,
      "ኛ": 923,
      "አ": 924,
      "ኩ": 925,
      "ክ": 926,
      "ወ": 927,
      "ዋ": 928,
      "ዓ": 929,
      "ዕ": 930,
      "ዘ": 931,
      "ዝ": 932,
      "ዞ": 933,
      "የ": 934,
      "ዪ": 935,
      "ያ": 936,
      "ይ": 937,
      "ዮ": 938,
      "ደ": 939,
      "ዲ": 940,
      "ዳ": 941,
      "ዴ": 942,
      "ድ": 943,
      "ጃ": 944,
      "ጋ": 945,
      "ግ": 946,
      "ጎ": 947,
      "ጭ": 948,
      "ጼ": 949,
      "ጽ": 950,
      "ፈ": 951,
      "ፊ": 952,
      "ፋ": 953,
      "ፍ": 954,
      "ᐃ": 955,
      "ᐊ": 956,
      "ᐸ": 957,
      "ᑎ": 958,
      "ᑐ": 959,
      "ᑕ": 960,
      "ᑦ": 961,
      "ᑯ": 962,
      "ᒃ": 963,
      "ᓄ": 964,
      "ᖅ": 965,
      "ᗩ": 966,
      "ᚦ": 967,
      "ᛋ": 968,
      "ក": 969,
      "ខ": 970,
      "គ": 971,
      "ឃ": 972,
      "ង": 973,
      "ច": 974,
      "ជ": 975,
      "ញ": 976,
      "ដ": 977,
      "ឋ": 978,
      "ណ": 979,
      "ត": 980,
      "ថ": 981,
      "ទ": 982,
      "ធ": 983,
      "ន": 984,
      "ប": 985,
      "ផ": 986,
      "ព": 987,
      "ភ": 988,
      "ម": 989,
      "យ": 990,
      "រ": 991,
      "ល": 992,
      "វ": 993,
      "ស": 994,
      "ហ": 995,
      "អ": 996,
      "ឮ": 997,
      "ឱ": 998,
      "ា": 999,
      "ើ": 1000,
      "ឿ": 1001,
      "ៀ": 1002,
      "េ": 1003,
      "ែ": 1004,
      "ៃ": 1005,
      "ោ": 1006,
      "ៅ": 1007,
      "ះ": 1008,
      "។": 1009,
      "ᴀ": 1010,
      "ᴇ": 1011,
      "ᴓ": 1012,
      "ᴗ": 1013,
      "ᴘ": 1014,
      "ᴛ": 1015,
      "ᴠ": 1016,
      "ᴧ": 1017,
      "ᴨ": 1018,
      "ᵻ": 1019,
      "ᵽ": 1020,
      "ᶕ": 1021,
      "‐": 1022,
      "‑": 1023,
      "‒": 1024,
      "–": 1025,
      "—": 1026,
      "―": 1027,
      "‖": 1028,
      "‗": 1029,
      "†": 1030,
      "‡": 1031,
      "•": 1032,
      "‣": 1033,
      "…": 1034,
      "‰": 1035,
      "′": 1036,
      "″": 1037,
      "‹": 1038,
      "›": 1039,
      "※": 1040,
      "‼": 1041,
      "‿": 1042,
      "⁃": 1043,
      "⁄": 1044,
      "⁉": 1045,
      "⁴": 1046,
      "⁺": 1047,
      "⁻": 1048,
      "₁": 1049,
      "₂": 1050,
      "₃": 1051,
      "₆": 1052,
      "₣": 1053,
      "₺": 1054,
      "⃣": 1055,
      "℃": 1056,
      "℅": 1057,
      "№": 1058,
      "℗": 1059,
      "℞": 1060,
      "™": 1061,
      "℧": 1062,
      "℩": 1063,
      "⅓": 1064,
      "⅔": 1065,
      "⅕": 1066,
      "⅗": 1067,
      "⅟": 1068,
      "ⅱ": 1069,
      "ⅲ": 1070,
      "←": 1071,
      "↑": 1072,
      "→": 1073,
      "↓": 1074,
      "↔": 1075,
      "↕": 1076,
      "↗": 1077,
      "↘": 1078,
      "↙": 1079,
      "↠": 1080,
      "↦": 1081,
      "↯": 1082,
      "↵": 1083,
      "⇄": 1084,
      "⇌": 1085,
      "⇐": 1086,
      "⇒": 1087,
      "⇔": 1088,
      "∀": 1089,
      "∂": 1090,
      "∃": 1091,
      "∅": 1092,
      "∆": 1093,
      "∇": 1094,
      "∈": 1095,
      "∊": 1096,
      "∋": 1097,
      "∎": 1098,
      "∏": 1099,
      "∑": 1100,
      "−": 1101,
      "∓": 1102,
      "∕": 1103,
      "∖": 1104,
      "∗": 1105,
      "∘": 1106,
      "∙": 1107,
      "√": 1108,
      "∝": 1109,
      "∞": 1110,
      "∟": 1111,
      "∠": 1112,
      "∥": 1113,
      "∧": 1114,
      "∨": 1115,
      "∩": 1116,
      "∪": 1117,
      "∫": 1118,
      "∴": 1119,
      "∶": 1120,
      "≃": 1121,
      "≅": 1122,
      "≈": 1123,
      "≡": 1124,
      "≤": 1125,
      "≥": 1126,
      "≪": 1127,
      "≫": 1128,
      "⊂": 1129,
      "⊃": 1130,
      "⊆": 1131,
      "⊇": 1132,
      "⊕": 1133,
      "⊗": 1134,
      "⊢": 1135,
      "⊤": 1136,
      "⊥": 1137,
      "⊨": 1138,
      "⋅": 1139,
      "⋆": 1140,
      "⋯": 1141,
      "⌂": 1142,
      "⌈": 1143,
      "⌉": 1144,
      "⌊": 1145,
      "⌋": 1146,
      "⌐": 1147,
      "⌘": 1148,
      "⎯": 1149,
      "⏘": 1150,
      "⏮": 1151,
      "⏹": 1152,
      "⑥": 1153,
      "##و": 1154,
      "##م": 1155,
      "##ر": 1156,
      "##ا": 1157,
      "##ی": 1158,
      "##ن": 1159,
      "##د": 1160,
      "##گ": 1161,
      "##l": 1162,
      "##a": 1163,
      "##w": 1164,
      "##i": 1165,
      "##t": 1166,
      "##e": 1167,
      "##۶": 1168,
      "##۷": 1169,
      "##۵": 1170,
      "##۲": 1171,
      "##ع": 1172,
      "##ل": 1173,
      "##ت": 1174,
      "##ب": 1175,
      "##ش": 1176,
      "##ه": 1177,
      "##س": 1178,
      "##ز": 1179,
      "##۰": 1180,
      "##۳": 1181,
      "##۴": 1182,
      "##ص": 1183,
      "##ک": 1184,
      "##پ": 1185,
      "##ف": 1186,
      "##چ": 1187,
      "##n": 1188,
      "##k": 1189,
      "##ق": 1190,
      "##ذ": 1191,
      "##s": 1192,
      "##m": 1193,
      "##r": 1194,
      "##h": 1195,
      "##g": 1196,
      "##۱": 1197,
      "##خ": 1198,
      "##ح": 1199,
      "##o": 1200,
      "##c": 1201,
      "##x": 1202,
      "##ج": 1203,
      "##۸": 1204,
      "##۹": 1205,
      "##ى": 1206,
      "##b": 1207,
      "##ژ": 1208,
      "##p": 1209,
      "##u": 1210,
      "##d": 1211,
      "##f": 1212,
      "##q": 1213,
      "##ط": 1214,
      "##ض": 1215,
      "##ي": 1216,
      "##v": 1217,
      "##ء": 1218,
      "##غ": 1219,
      "##y": 1220,
      "##ث": 1221,
      "##ة": 1222,
      "##٤": 1223,
      "##ظ": 1224,
      "##j": 1225,
      "##z": 1226,
      "##٠": 1227,
      "##١": 1228,
      "##ˈ": 1229,
      "##ھ": 1230,
      "##٧": 1231,
      "##٢": 1232,
      "##ڌ": 1233,
      "##ۆ": 1234,
      "##ı": 1235,
      "##≈": 1236,
      "##٣": 1237,
      "##٦": 1238,
      "##र": 1239,
      "##ध": 1240,
      "##म": 1241,
      "##ा": 1242,
      "##न": 1243,
      "##ە": 1244,
      "##ə": 1245,
      "##٥": 1246,
      "##ව": 1247,
      "##න": 1248,
      "##ே": 1249,
      "##ல": 1250,
      "##⃣": 1251,
      "##ł": 1252,
      "##ч": 1253,
      "##а": 1254,
      "##с": 1255,
      "##т": 1256,
      "##о": 1257,
      "##к": 1258,
      "##ா": 1259,
      "##ய": 1260,
      "##٨": 1261,
      "##⋅": 1262,
      "##ɾ": 1263,
      "##٩": 1264,
      "##ہ": 1265,
      "##ค": 1266,
      "##ร": 1267,
      "##ศ": 1268,
      "##ธ": 1269,
      "##ม": 1270,
      "##า": 1271,
      "##ช": 1272,
      "##α": 1273,
      "##ो": 1274,
      "##ए": 1275,
      "##œ": 1276,
      "##ක": 1277,
      "##в": 1278,
      "##ʾ": 1279,
      "##ე": 1280,
      "##მ": 1281,
      "##ო": 1282,
      "##კ": 1283,
      "##რ": 1284,
      "##ა": 1285,
      "##ტ": 1286,
      "##ი": 1287,
      "##უ": 1288,
      "##ლ": 1289,
      "##क": 1290,
      "##प": 1291,
      "##−": 1292,
      "##ɪ": 1293,
      "##स": 1294,
      "##ल": 1295,
      "##व": 1296,
      "##ड": 1297,
      "##ी": 1298,
      "##˝": 1299,
      "##đ": 1300,
      "##ɑ": 1301,
      "##ʃ": 1302,
      "##ʿ": 1303,
      "##ɺ": 1304,
      "##ि": 1305,
      "##य": 1306,
      "##თ": 1307,
      "##ы": 1308,
      "##г": 1309,
      "##н": 1310,
      "##ස": 1311,
      "##ා": 1312,
      "##ග": 1313,
      "##ල": 1314,
      "##ம": 1315,
      "##ை": 1316,
      "##˓": 1317,
      "##ں": 1318,
      "##ɦ": 1319,
      "##ા": 1320,
      "##ર": 1321,
      "##ན": 1322,
      "##ڵ": 1323,
      "##ф": 1324,
      "##е": 1325,
      "##ង": 1326,
      "##ស": 1327,
      "##ក": 1328,
      "##ត": 1329,
      "##រ": 1330,
      "##ា": 1331,
      "##ដ": 1332,
      "##ែ": 1333,
      "##ល": 1334,
      "##ប": 1335,
      "##ទ": 1336,
      "##ថ": 1337,
      "##ម": 1338,
      "##۩": 1339,
      "##۞": 1340,
      "##ป": 1341,
      "##เ": 1342,
      "##อ": 1343,
      "##ไ": 1344,
      "##ฮ": 1345,
      "##ว": 1346,
      "##ย": 1347,
      "##→": 1348,
      "##б": 1349,
      "##р": 1350,
      "##ь": 1351,
      "##п": 1352,
      "##л": 1353,
      "##и": 1354,
      "##˔": 1355,
      "##ਗ": 1356,
      "##ਤ": 1357,
      "##™": 1358,
      "##ख": 1359,
      "##ब": 1360,
      "##द": 1361,
      "##ვ": 1362,
      "##ს": 1363,
      "##ห": 1364,
      "##ล": 1365,
      "##ง": 1366,
      "##ਫ": 1367,
      "##ਰ": 1368,
      "##ਨ": 1369,
      "##ਾ": 1370,
      "##ਮ": 1371,
      "##≥": 1372,
      "##ٹ": 1373,
      "##м": 1374,
      "##त": 1375,
      "##ʒ": 1376,
      "##ٺ": 1377,
      "##з": 1378,
      "##д": 1379,
      "##я": 1380,
      "##ท": 1381,
      "##พ": 1382,
      "##น": 1383,
      "##ፋ": 1384,
      "##ሌ": 1385,
      "##ण": 1386,
      "##ज": 1387,
      "##ێ": 1388,
      "##ħ": 1389,
      "##ხ": 1390,
      "##ա": 1391,
      "##ն": 1392,
      "##ք": 1393,
      "##√": 1394,
      "##у": 1395,
      "##∃": 1396,
      "##ʊ": 1397,
      "##ŋ": 1398,
      "##ʂ": 1399,
      "##ɨ": 1400,
      "##ٴ": 1401,
      "##ɛ": 1402,
      "##∨": 1403,
      "##←": 1404,
      "##ʁ": 1405,
      "##ர": 1406,
      "##ண": 1407,
      "##ி": 1408,
      "##ٱ": 1409,
      "##த": 1410,
      "##ጋ": 1411,
      "##∈": 1412,
      "##ნ": 1413,
      "##ष": 1414,
      "##ठ": 1415,
      "##↓": 1416,
      "##च": 1417,
      "##ह": 1418,
      "##ැ": 1419,
      "##ើ": 1420,
      "##ខ": 1421,
      "##ញ": 1422,
      "##ព": 1423,
      "##ះ": 1424,
      "##អ": 1425,
      "##គ": 1426,
      "##ზ": 1427,
      "##ב": 1428,
      "##י": 1429,
      "##ת": 1430,
      "##ٽ": 1431,
      "##∪": 1432,
      "##ང": 1433,
      "##ས": 1434,
      "##ก": 1435,
      "##ส": 1436,
      "##ณ": 1437,
      "##ภ": 1438,
      "##⁄": 1439,
      "##ʘ": 1440,
      "##ਹ": 1441,
      "##ਜ": 1442,
      "##โ": 1443,
      "##ฟ": 1444,
      "##ต": 1445,
      "##บ": 1446,
      "##გ": 1447,
      "##ც": 1448,
      "##ε": 1449,
      "##μ": 1450,
      "##σ": 1451,
      "##ι": 1452,
      "##ς": 1453,
      "##⇒": 1454,
      "##ڑ": 1455,
      "##↔": 1456,
      "##ბ": 1457,
      "##ɒ": 1458,
      "##ʻ": 1459,
      "##श": 1460,
      "##ग": 1461,
      "##ʌ": 1462,
      "##დ": 1463,
      "##შ": 1464,
      "##∗": 1465,
      "##ե": 1466,
      "##մ": 1467,
      "##ڗ": 1468,
      "##₁": 1469,
      "##₂": 1470,
      "##வ": 1471,
      "##ு": 1472,
      "##ற": 1473,
      "##ਿ": 1474,
      "##ਦ": 1475,
      "##∆": 1476,
      "##≤": 1477,
      "##ද": 1478,
      "##ර": 1479,
      "##ƒ": 1480,
      "##ɔ": 1481,
      "##ː": 1482,
      "##ǁ": 1483,
      "##∂": 1484,
      "##ʔ": 1485,
      "##ց": 1486,
      "##ನ": 1487,
      "##ಾ": 1488,
      "##೯": 1489,
      "##ಟ": 1490,
      "##ಕ": 1491,
      "##ფ": 1492,
      "##ʝ": 1493,
      "##ω": 1494,
      "##ɱ": 1495,
      "##ங": 1496,
      "##க": 1497,
      "##ත": 1498,
      "##थ": 1499,
      "##ள": 1500,
      "##ʎ": 1501,
      "##भ": 1502,
      "##ǀ": 1503,
      "##ำ": 1504,
      "##წ": 1505,
      "##ყ": 1506,
      "##ई": 1507,
      "##ೕ": 1508,
      "##ವ": 1509,
      "##ಸ": 1510,
      "##ಥ": 1511,
      "##බ": 1512,
      "##∫": 1513,
      "##ಲ": 1514,
      "##ದ": 1515,
      "##ಣ": 1516,
      "##ڤ": 1517,
      "##ɡ": 1518,
      "##ʹ": 1519,
      "##స": 1520,
      "##റ": 1521,
      "##മ": 1522,
      "##ഖ": 1523,
      "##ം": 1524,
      "##ქ": 1525,
      "##≡": 1526,
      "##छ": 1527,
      "##₆": 1528,
      "##ю": 1529,
      "##ᴧ": 1530,
      "##ោ": 1531,
      "##យ": 1532,
      "##ន": 1533,
      "##ឿ": 1534,
      "##វ": 1535,
      "##េ": 1536,
      "##ណ": 1537,
      "##ជ": 1538,
      "##ਸ": 1539,
      "##∩": 1540,
      "##ප": 1541,
      "##ෙ": 1542,
      "##վ": 1543,
      "##ღ": 1544,
      "##ட": 1545,
      "##ன": 1546,
      "##ः": 1547,
      "##˃": 1548,
      "##ቀ": 1549,
      "##ፍ": 1550,
      "##⊆": 1551,
      "##ៀ": 1552,
      "##ᓄ": 1553,
      "##ᒃ": 1554,
      "##ᑎ": 1555,
      "##ᑐ": 1556,
      "##ᑦ": 1557,
      "##ौ": 1558,
      "##∧": 1559,
      "##ʀ": 1560,
      "##ट": 1561,
      "##ʉ": 1562,
      "##ж": 1563,
      "##๐": 1564,
      "##ڱ": 1565,
      "##ڈ": 1566,
      "##ळ": 1567,
      "##ɐ": 1568,
      "##ി": 1569,
      "##ര": 1570,
      "##വ": 1571,
      "##ന": 1572,
      "##ത": 1573,
      "##പ": 1574,
      "##ਣ": 1575,
      "##ੀ": 1576,
      "##ր": 1577,
      "##ூ": 1578,
      "##ப": 1579,
      "##≫": 1580,
      "##લ": 1581,
      "##વ": 1582,
      "##સ": 1583,
      "##ඩ": 1584,
      "##ම": 1585,
      "##फ": 1586,
      "##η": 1587,
      "##υ": 1588,
      "##γ": 1589,
      "##ˆ": 1590,
      "##τ": 1591,
      "##ढ": 1592,
      "##ˇ": 1593,
      "##ಜ": 1594,
      "##ಡ": 1595,
      "##শ": 1596,
      "##চ": 1597,
      "##ি": 1598,
      "##ম": 1599,
      "##ব": 1600,
      "##ঙ": 1601,
      "##গ": 1602,
      "##ძ": 1603,
      "##ˌ": 1604,
      "##ґ": 1605,
      "##પ": 1606,
      "##ણ": 1607,
      "##ત": 1608,
      "##હ": 1609,
      "##ી": 1610,
      "##આ": 1611,
      "##ङ": 1612,
      "##β": 1613,
      "##आ": 1614,
      "##उ": 1615,
      "##∋": 1616,
      "##ʏ": 1617,
      "##ɭ": 1618,
      "##మ": 1619,
      "##త": 1620,
      "##ʟ": 1621,
      "##র": 1622,
      "##ⅲ": 1623,
      "##ƿ": 1624,
      "##ો": 1625,
      "##દ": 1626,
      "##ะ": 1627,
      "##ာ": 1628,
      "##ရ": 1629,
      "##က": 1630,
      "##န": 1631,
      "##ဟ": 1632,
      "##င": 1633,
      "##ဂ": 1634,
      "##ျ": 1635,
      "##ʙ": 1636,
      "##ฑ": 1637,
      "##ெ": 1638,
      "##∕": 1639,
      "##ګ": 1640,
      "##∘": 1641,
      "##ළ": 1642,
      "##ɵ": 1643,
      "##ය": 1644,
      "##ར": 1645,
      "##ο": 1646,
      "##ॉ": 1647,
      "##મ": 1648,
      "##ન": 1649,
      "##ગ": 1650,
      "##ಂ": 1651,
      "##ಬ": 1652,
      "##ʺ": 1653,
      "##ਆ": 1654,
      "##ۍ": 1655,
      "##ජ": 1656,
      "##ত": 1657,
      "##উ": 1658,
      "##๑": 1659,
      "##দ": 1660,
      "##ɕ": 1661,
      "##ใ": 1662,
      "##ו": 1663,
      "##ד": 1664,
      "##ה": 1665,
      "##∞": 1666,
      "##จ": 1667,
      "##ข": 1668,
      "##ೖ": 1669,
      "##ೂ": 1670,
      "##ರ": 1671,
      "##ು": 1672,
      "##ڃ": 1673,
      "##ᛋ": 1674,
      "##ঈ": 1675,
      "##щ": 1676,
      "##θ": 1677,
      "##জ": 1678,
      "##া": 1679,
      "##ী": 1680,
      "##ప": 1681,
      "##ు": 1682,
      "##ం": 1683,
      "##క": 1684,
      "##డ": 1685,
      "##ս": 1686,
      "##ಳ": 1687,
      "##ச": 1688,
      "##ృ": 1689,
      "##ష": 1690,
      "##ణ": 1691,
      "##ଦ": 1692,
      "##ଧ": 1693,
      "##ଆ": 1694,
      "##న": 1695,
      "##శ": 1696,
      "##ర": 1697,
      "##య": 1698,
      "##ۃ": 1699,
      "##జ": 1700,
      "##ܨ": 1701,
      "##ܓ": 1702,
      "##ץ": 1703,
      "##λ": 1704,
      "##х": 1705,
      "##⎯": 1706,
      "##ল": 1707,
      "##ে": 1708,
      "##হ": 1709,
      "##ጎ": 1710,
      "##ን": 1711,
      "##ደ": 1712,
      "##ር": 1713,
      "##ρ": 1714,
      "##ڟ": 1715,
      "##ո": 1716,
      "##հ": 1717,
      "##կ": 1718,
      "##լ": 1719,
      "##ւ": 1720,
      "##թ": 1721,
      "##յ": 1722,
      "##∅": 1723,
      "##⊥": 1724,
      "##ງ": 1725,
      "##ໄ": 1726,
      "##ຫ": 1727,
      "##ນ": 1728,
      "##ሠ": 1729,
      "##ञ": 1730,
      "##π": 1731,
      "##ந": 1732,
      "##∠": 1733,
      "##ш": 1734,
      "##ν": 1735,
      "##ĸ": 1736,
      "##བ": 1737,
      "##ц": 1738,
      "##ஜ": 1739,
      "##ៃ": 1740,
      "##ด": 1741,
      "##ڕ": 1742,
      "##ٮ": 1743,
      "##ਬ": 1744,
      "##ਇ": 1745,
      "##ผ": 1746,
      "##ಗ": 1747,
      "##і": 1748,
      "##ਵ": 1749,
      "##ƛ": 1750,
      "##ǝ": 1751,
      "##ɻ": 1752,
      "##⇌": 1753,
      "##ષ": 1754,
      "##ટ": 1755,
      "##ય": 1756,
      "##ʑ": 1757,
      "##േ": 1758,
      "##ാ": 1759,
      "##ശ": 1760,
      "##˧": 1761,
      "##⁺": 1762,
      "##ஞ": 1763,
      "##ɴ": 1764,
      "##ɬ": 1765,
      "##ড": 1766,
      "##३": 1767,
      "##ઉ": 1768,
      "##ಮ": 1769,
      "##ʰ": 1770,
      "##ɤ": 1771,
      "##ˉ": 1772,
      "##ᴠ": 1773,
      "##ག": 1774,
      "##ហ": 1775,
      "##ឋ": 1776,
      "##ษ": 1777,
      "##ʕ": 1778,
      "##ɲ": 1779,
      "##ɟ": 1780,
      "##ေ": 1781,
      "##သ": 1782,
      "##ਲ": 1783,
      "##ถ": 1784,
      "##જ": 1785,
      "##ಶ": 1786,
      "##း": 1787,
      "##ဒ": 1788,
      "##ြ": 1789,
      "##ᗩ": 1790,
      "##ל": 1791,
      "##ඳ": 1792,
      "##ਧ": 1793,
      "##δ": 1794,
      "##∇": 1795,
      "##ల": 1796,
      "##గ": 1797,
      "##ድ": 1798,
      "##ዋ": 1799,
      "##נ": 1800,
      "##כ": 1801,
      "##ᑯ": 1802,
      "##ᑕ": 1803,
      "##ᖅ": 1804,
      "##ழ": 1805,
      "##ള": 1806,
      "##χ": 1807,
      "##κ": 1808,
      "##ક": 1809,
      "##ט": 1810,
      "##˙": 1811,
      "##झ": 1812,
      "##इ": 1813,
      "##ચ": 1814,
      "##अ": 1815,
      "##ተ": 1816,
      "##≪": 1817,
      "##ჩ": 1818,
      "##ቦ": 1819,
      "##ት": 1820,
      "##ۥ": 1821,
      "##በ": 1822,
      "##ባ": 1823,
      "##አ": 1824,
      "##ክ": 1825,
      "##ሱ": 1826,
      "##ም": 1827,
      "##ɚ": 1828,
      "##↑": 1829,
      "##ਘ": 1830,
      "##ɹ": 1831,
      "##แ": 1832,
      "##ฉ": 1833,
      "##ٶ": 1834,
      "##ҳ": 1835,
      "##ກ": 1836,
      "##ບ": 1837,
      "##ລ": 1838,
      "##າ": 1839,
      "##ວ": 1840,
      "##ං": 1841,
      "##ል": 1842,
      "##ዴ": 1843,
      "##ې": 1844,
      "##ঞ": 1845,
      "##ʖ": 1846,
      "##զ": 1847,
      "##স": 1848,
      "##য": 1849,
      "##ם": 1850,
      "##ъ": 1851,
      "##⅓": 1852,
      "##∙": 1853,
      "##⅔": 1854,
      "##⅕": 1855,
      "##⅗": 1856,
      "##ሞ": 1857,
      "##ዲ": 1858,
      "##ስ": 1859,
      "##ക": 1860,
      "##ഷ": 1861,
      "##ദ": 1862,
      "##ീ": 1863,
      "##ৰ": 1864,
      "##প": 1865,
      "##դ": 1866,
      "##ᵻ": 1867,
      "##ሃ": 1868,
      "##ነ": 1869,
      "##ና": 1870,
      "##ጃ": 1871,
      "##ዝ": 1872,
      "##ማ": 1873,
      "##ጭ": 1874,
      "##ᴘ": 1875,
      "##ɣ": 1876,
      "##∶": 1877,
      "##ৈ": 1878,
      "##থ": 1879,
      "##හ": 1880,
      "##ផ": 1881,
      "##ឱ": 1882,
      "##פ": 1883,
      "##ট": 1884,
      "##ন": 1885,
      "##ի": 1886,
      "##ණ": 1887,
      "##˛": 1888,
      "##િ": 1889,
      "##ယ": 1890,
      "##ပ": 1891,
      "##အ": 1892,
      "##ခ": 1893,
      "##צ": 1894,
      "##ע": 1895,
      "##ɳ": 1896,
      "##ˑ": 1897,
      "##ቅ": 1898,
      "##˚": 1899,
      "##ግ": 1900,
      "##ኛ": 1901,
      "##ട": 1902,
      "##ല": 1903,
      "##ר": 1904,
      "##ɸ": 1905,
      "##ۻ": 1906,
      "##ٸ": 1907,
      "##የ": 1908,
      "##ᴇ": 1909,
      "##ᴛ": 1910,
      "##չ": 1911,
      "##պ": 1912,
      "##⁴": 1913,
      "##མ": 1914,
      "##မ": 1915,
      "##ઈ": 1916,
      "##െ": 1917,
      "##ٲ": 1918,
      "##ബ": 1919,
      "##ർ": 1920,
      "##ਡ": 1921,
      "##ੜ": 1922,
      "##ያ": 1923,
      "##ξ": 1924,
      "##ফ": 1925,
      "##ሕ": 1926,
      "##ལ": 1927,
      "##ూ": 1928,
      "##ಪ": 1929,
      "##↵": 1930,
      "##⊕": 1931,
      "##⊨": 1932,
      "##ক": 1933,
      "##ং": 1934,
      "##०": 1935,
      "##భ": 1936,
      "##ɜ": 1937,
      "##ɖ": 1938,
      "##ʐ": 1939,
      "##∊": 1940,
      "##ש": 1941,
      "##ჭ": 1942,
      "##ᴀ": 1943,
      "##ረ": 1944,
      "##ፊ": 1945,
      "##ഴ": 1946,
      "##ۇ": 1947,
      "##ਪ": 1948,
      "##ઃ": 1949,
      "##ధ": 1950,
      "##⇐": 1951,
      "##ద": 1952,
      "##ڔ": 1953,
      "##ະ": 1954,
      "##ມ": 1955,
      "##ສ": 1956,
      "##ດ": 1957,
      "##ຕ": 1958,
      "##ן": 1959,
      "##מ": 1960,
      "##პ": 1961,
      "##ჯ": 1962,
      "##տ": 1963,
      "##ራ": 1964,
      "##တ": 1965,
      "##ɓ": 1966,
      "##⇔": 1967,
      "##э": 1968,
      "##ይ": 1969,
      "##ᶕ": 1970,
      "##ለ": 1971,
      "##ਚ": 1972,
      "##ຂ": 1973,
      "##ʋ": 1974,
      "##ཚ": 1975,
      "##ঘ": 1976,
      "##થ": 1977,
      "##ዕ": 1978,
      "##ծ": 1979,
      "##ట": 1980,
      "##చ": 1981,
      "##ז": 1982,
      "##ጽ": 1983,
      "##ፈ": 1984,
      "##˄": 1985,
      "##ច": 1986,
      "##ៅ": 1987,
      "##ૉ": 1988,
      "##φ": 1989,
      "##ૌ": 1990,
      "##↯": 1991,
      "##ʢ": 1992,
      "##ऊ": 1993,
      "##ҫ": 1994,
      "##ɫ": 1995,
      "##∴": 1996,
      "##ད": 1997,
      "##ធ": 1998,
      "##ਕ": 1999,
      "##൦": 2000,
      "##ફ": 2001,
      "##ધ": 2002,
      "##₃": 2003,
      "##ತ": 2004,
      "##వ": 2005,
      "##ឃ": 2006,
      "##པ": 2007,
      "##⊢": 2008,
      "##ɞ": 2009,
      "##ည": 2010,
      "##æ": 2011,
      "##ዘ": 2012,
      "##ዞ": 2013,
      "##˒": 2014,
      "##ឮ": 2015,
      "##ଂ": 2016,
      "##⑥": 2017,
      "##ɮ": 2018,
      "##འ": 2019,
      "##ට": 2020,
      "##ઇ": 2021,
      "##અ": 2022,
      "##ઓ": 2023,
      "##ဆ": 2024,
      "##ان": 2025,
      "##ای": 2026,
      "##ار": 2027,
      "در": 2028,
      "##ین": 2029,
      "##ست": 2030,
      "به": 2031,
      "##ند": 2032,
      "##ود": 2033,
      "##ور": 2034,
      "##ام": 2035,
      "از": 2036,
      "با": 2037,
      "##اد": 2038,
      "##های": 2039,
      "##ال": 2040,
      "##یر": 2041,
      "این": 2042,
      "بر": 2043,
      "می": 2044,
      "است": 2045,
      "که": 2046,
      "##رد": 2047,
      "##ید": 2048,
      "را": 2049,
      "ان": 2050,
      "##ات": 2051,
      "##اه": 2052,
      "##یم": 2053,
      "##لی": 2054,
      "##فت": 2055,
      "##ها": 2056,
      "ام": 2057,
      "##شت": 2058,
      "##ری": 2059,
      "##اب": 2060,
      "##ون": 2061,
      "##ده": 2062,
      "هم": 2063,
      "##ول": 2064,
      "##از": 2065,
      "##اری": 2066,
      "##رو": 2067,
      "کرد": 2068,
      "##یت": 2069,
      "##اس": 2070,
      "رو": 2071,
      "##انی": 2072,
      "برای": 2073,
      "##زار": 2074,
      "##وان": 2075,
      "یک": 2076,
      "##ارد": 2077,
      "من": 2078,
      "##مان": 2079,
      "##لا": 2080,
      "خود": 2081,
      "##سی": 2082,
      "بود": 2083,
      "##را": 2084,
      "##گر": 2085,
      "##خت": 2086,
      "شد": 2087,
      "مو": 2088,
      "##وی": 2089,
      "##کن": 2090,
      "نی": 2091,
      "تو": 2092,
      "تا": 2093,
      "##رک": 2094,
      "##زی": 2095,
      "کش": 2096,
      "##تر": 2097,
      "##می": 2098,
      "##تی": 2099,
      "##ایی": 2100,
      "سال": 2101,
      "ال": 2102,
      "ایر": 2103,
      "##بر": 2104,
      "کن": 2105,
      "بی": 2106,
      "##اشت": 2107,
      "اف": 2108,
      "کار": 2109,
      "شده": 2110,
      "مح": 2111,
      "##گاه": 2112,
      "##هر": 2113,
      "مع": 2114,
      "##اده": 2115,
      "کشور": 2116,
      "گفت": 2117,
      "پی": 2118,
      "ایران": 2119,
      "اس": 2120,
      "##انه": 2121,
      "ار": 2122,
      "اق": 2123,
      "خو": 2124,
      "میش": 2125,
      "مس": 2126,
      "انت": 2127,
      "فر": 2128,
      "##گی": 2129,
      "##امه": 2130,
      "##مای": 2131,
      "##یل": 2132,
      "##که": 2133,
      "##اره": 2134,
      "مد": 2135,
      "دو": 2136,
      "##ادی": 2137,
      "##اید": 2138,
      "##شد": 2139,
      "سر": 2140,
      "##بت": 2141,
      "##عت": 2142,
      "##بی": 2143,
      "##لام": 2144,
      "۱۳": 2145,
      "##نی": 2146,
      "##الی": 2147,
      "##وز": 2148,
      "##جه": 2149,
      "##ورد": 2150,
      "##اند": 2151,
      "##به": 2152,
      "##وری": 2153,
      "دی": 2154,
      "وی": 2155,
      "ای": 2156,
      "قر": 2157,
      "داشت": 2158,
      "مت": 2159,
      "##رف": 2160,
      "##له": 2161,
      "##شن": 2162,
      "مش": 2163,
      "##عه": 2164,
      "خبر": 2165,
      "دست": 2166,
      "میشود": 2167,
      "##اف": 2168,
      "##اق": 2169,
      "##عی": 2170,
      "مج": 2171,
      "افز": 2172,
      "او": 2173,
      "نیز": 2174,
      "##نگ": 2175,
      "##ما": 2176,
      "یا": 2177,
      "نظ": 2178,
      "ما": 2179,
      "##دی": 2180,
      "##انک": 2181,
      "روز": 2182,
      "##شی": 2183,
      "مر": 2184,
      "##وم": 2185,
      "دار": 2186,
      "##قی": 2187,
      "گر": 2188,
      "##یس": 2189,
      "مق": 2190,
      "جم": 2191,
      "دارد": 2192,
      "##توان": 2193,
      "۱۳۹": 2194,
      "اما": 2195,
      "##اخت": 2196,
      "داد": 2197,
      "اج": 2198,
      "تح": 2199,
      "بانک": 2200,
      "##شان": 2201,
      "هر": 2202,
      "##اط": 2203,
      "سی": 2204,
      "##رکت": 2205,
      "رس": 2206,
      "##گیر": 2207,
      "دول": 2208,
      "هست": 2209,
      "##است": 2210,
      "##اهد": 2211,
      "باید": 2212,
      "اد": 2213,
      "##فته": 2214,
      "##نده": 2215,
      "عم": 2216,
      "گذ": 2217,
      "مرد": 2218,
      "اع": 2219,
      "میک": 2220,
      "ساز": 2221,
      "بخ": 2222,
      "##ایش": 2223,
      "کرده": 2224,
      "##هم": 2225,
      "پیش": 2226,
      "##ستان": 2227,
      "##تص": 2228,
      "شرکت": 2229,
      "کم": 2230,
      "##مین": 2231,
      "قرار": 2232,
      "##رای": 2233,
      "##ههای": 2234,
      "گزار": 2235,
      "##نامه": 2236,
      "دولت": 2237,
      "اقتص": 2238,
      "##شار": 2239,
      "اص": 2240,
      "جه": 2241,
      "##وع": 2242,
      "##اک": 2243,
      "میلی": 2244,
      "##دید": 2245,
      "انها": 2246,
      "تاری": 2247,
      "گزارش": 2248,
      "پای": 2249,
      "میتوان": 2250,
      "تاریخ": 2251,
      "##فر": 2252,
      "##عد": 2253,
      "نق": 2254,
      "##صد": 2255,
      "ری": 2256,
      "دان": 2257,
      "ات": 2258,
      "##جود": 2259,
      "##اتی": 2260,
      "##امل": 2261,
      "##کل": 2262,
      "دیگر": 2263,
      "انج": 2264,
      "اینکه": 2265,
      "باز": 2266,
      "بین": 2267,
      "شود": 2268,
      "##خص": 2269,
      "##شته": 2270,
      "تول": 2271,
      "##ورت": 2272,
      "##هار": 2273,
      "##۰۰": 2274,
      "تص": 2275,
      "##گان": 2276,
      "اب": 2277,
      "تولید": 2278,
      "##نین": 2279,
      "بازار": 2280,
      "مدیر": 2281,
      "##ریک": 2282,
      "##وت": 2283,
      "##لس": 2284,
      "میکن": 2285,
      "کد": 2286,
      "##اح": 2287,
      "اش": 2288,
      "عن": 2289,
      "حال": 2290,
      "توس": 2291,
      "انتشار": 2292,
      "اخ": 2293,
      "مط": 2294,
      "##ازی": 2295,
      "ند": 2296,
      "پس": 2297,
      "افزایش": 2298,
      "کند": 2299,
      "##اسی": 2300,
      "نو": 2301,
      "باشد": 2302,
      "هزار": 2303,
      "برخ": 2304,
      "##رح": 2305,
      "ماه": 2306,
      "اح": 2307,
      "همچ": 2308,
      "##در": 2309,
      "##قه": 2310,
      "##کی": 2311,
      "تن": 2312,
      "میکند": 2313,
      "قیم": 2314,
      "##ترین": 2315,
      "##من": 2316,
      "شهر": 2317,
      "پر": 2318,
      "نمای": 2319,
      "بد": 2320,
      "بسی": 2321,
      "##ادر": 2322,
      "شه": 2323,
      "هی": 2324,
      "تر": 2325,
      "ده": 2326,
      "صن": 2327,
      "##وه": 2328,
      "اگر": 2329,
      "مص": 2330,
      "خودرو": 2331,
      "خواهد": 2332,
      "تم": 2333,
      "مورد": 2334,
      "##دم": 2335,
      "راه": 2336,
      "امریک": 2337,
      "دانش": 2338,
      "عنوان": 2339,
      "بازی": 2340,
      "قیمت": 2341,
      "مردم": 2342,
      "نم": 2343,
      "##ونی": 2344,
      "بخش": 2345,
      "وجود": 2346,
      "سه": 2347,
      "##نا": 2348,
      "##امی": 2349,
      "نس": 2350,
      "##فی": 2351,
      "##وند": 2352,
      "صورت": 2353,
      "##اص": 2354,
      "بیم": 2355,
      "##ره": 2356,
      "انجام": 2357,
      "سازمان": 2358,
      "##اور": 2359,
      "##هایی": 2360,
      "درصد": 2361,
      "کنند": 2362,
      "نظر": 2363,
      "##خو": 2364,
      "##گذ": 2365,
      "##زش": 2366,
      "##فاده": 2367,
      "##بار": 2368,
      "##کر": 2369,
      "نفت": 2370,
      "##گو": 2371,
      "ري": 2372,
      "هستند": 2373,
      "##نج": 2374,
      "یکی": 2375,
      "##هران": 2376,
      "بیشت": 2377,
      "زی": 2378,
      "باش": 2379,
      "نیست": 2380,
      "کل": 2381,
      "فع": 2382,
      "استفاده": 2383,
      "ادامه": 2384,
      "برنامه": 2385,
      "##یه": 2386,
      "نش": 2387,
      "وز": 2388,
      "اول": 2389,
      "دا": 2390,
      "##ایت": 2391,
      "##یده": 2392,
      "اسلام": 2393,
      "دور": 2394,
      "عل": 2395,
      "##خاب": 2396,
      "##قل": 2397,
      "داشته": 2398,
      "ريیس": 2399,
      "##بال": 2400,
      "##وا": 2401,
      "تهران": 2402,
      "بز": 2403,
      "حد": 2404,
      "اعلام": 2405,
      "##وب": 2406,
      "حض": 2407,
      "##مل": 2408,
      "۲۰": 2409,
      "نام": 2410,
      "تج": 2411,
      "اط": 2412,
      "عر": 2413,
      "##اض": 2414,
      "گذشته": 2415,
      "تع": 2416,
      "جدید": 2417,
      "کاه": 2418,
      "##اران": 2419,
      "دل": 2420,
      "روی": 2421,
      "میده": 2422,
      "##دا": 2423,
      "سو": 2424,
      "##وش": 2425,
      "توجه": 2426,
      "سا": 2427,
      "##سه": 2428,
      "چند": 2429,
      "میر": 2430,
      "انتخاب": 2431,
      "کاهش": 2432,
      "##مند": 2433,
      "امریکا": 2434,
      "همچنین": 2435,
      "خار": 2436,
      "##وص": 2437,
      "حس": 2438,
      "##رین": 2439,
      "همه": 2440,
      "افزود": 2441,
      "##فا": 2442,
      "ارت": 2443,
      "##وق": 2444,
      "##عیت": 2445,
      "زمین": 2446,
      "##باره": 2447,
      "شن": 2448,
      "##لف": 2449,
      "##مانی": 2450,
      "فعال": 2451,
      "اقتصادی": 2452,
      "مرک": 2453,
      "##بری": 2454,
      "##ابل": 2455,
      "##لیل": 2456,
      "میلیون": 2457,
      "شب": 2458,
      "پرو": 2459,
      "اشاره": 2460,
      "بوده": 2461,
      "شما": 2462,
      "##ارت": 2463,
      "ساخت": 2464,
      "##کان": 2465,
      "موض": 2466,
      "برگ": 2467,
      "خر": 2468,
      "##جی": 2469,
      "##گیری": 2470,
      "اسلامی": 2471,
      "بزر": 2472,
      "بن": 2473,
      "##روز": 2474,
      "برخی": 2475,
      "##زین": 2476,
      "اعت": 2477,
      "##کت": 2478,
      "پرد": 2479,
      "وارد": 2480,
      "نر": 2481,
      "##دام": 2482,
      "ملی": 2483,
      "میکنند": 2484,
      "وزیر": 2485,
      "شور": 2486,
      "قب": 2487,
      "داده": 2488,
      "جمه": 2489,
      "##یا": 2490,
      "##روش": 2491,
      "حضور": 2492,
      "##هن": 2493,
      "سرمای": 2494,
      "اند": 2495,
      "##مد": 2496,
      "اطلا": 2497,
      "۱۰": 2498,
      "گرو": 2499,
      "بیان": 2500,
      "طرح": 2501,
      "بار": 2502,
      "استان": 2503,
      "چه": 2504,
      "نه": 2505,
      "اخت": 2506,
      "وزار": 2507,
      "غیر": 2508,
      "##رسی": 2509,
      "نمی": 2510,
      "وزارت": 2511,
      "##ینی": 2512,
      "تیم": 2513,
      "بعد": 2514,
      "##نان": 2515,
      "زیر": 2516,
      "##ولی": 2517,
      "##لب": 2518,
      "ور": 2519,
      "نب": 2520,
      "##عات": 2521,
      "دارند": 2522,
      "##کرد": 2523,
      "مشکل": 2524,
      "##ضا": 2525,
      "جن": 2526,
      "گرفت": 2527,
      "##وس": 2528,
      "اقتصاد": 2529,
      "سرمایه": 2530,
      "همین": 2531,
      "میز": 2532,
      "جام": 2533,
      "موضوع": 2534,
      "ساعت": 2535,
      "##رات": 2536,
      "قان": 2537,
      "منت": 2538,
      "امروز": 2539,
      "تب": 2540,
      "##صوص": 2541,
      "##ندگی": 2542,
      "مجلس": 2543,
      "منط": 2544,
      "افر": 2545,
      "##گری": 2546,
      "علی": 2547,
      "واق": 2548,
      "##جاد": 2549,
      "درباره": 2550,
      "فیل": 2551,
      "خصوص": 2552,
      "تق": 2553,
      "مالی": 2554,
      "نشان": 2555,
      "نا": 2556,
      "##چه": 2557,
      "بیشتر": 2558,
      "ایجاد": 2559,
      "خان": 2560,
      "مسي": 2561,
      "##سال": 2562,
      "گرفته": 2563,
      "دید": 2564,
      "تاک": 2565,
      "۱۳۹۶": 2566,
      "تش": 2567,
      "اظ": 2568,
      "توسعه": 2569,
      "تومان": 2570,
      "زمان": 2571,
      "صنعت": 2572,
      "قط": 2573,
      "##غی": 2574,
      "##سته": 2575,
      "##تما": 2576,
      "حق": 2577,
      "هن": 2578,
      "بزرگ": 2579,
      "اقدام": 2580,
      "پرداخت": 2581,
      "##وط": 2582,
      "##لاح": 2583,
      "شدن": 2584,
      "جای": 2585,
      "شم": 2586,
      "بل": 2587,
      "##رایط": 2588,
      "##هی": 2589,
      "گو": 2590,
      "مان": 2591,
      "شرایط": 2592,
      "وق": 2593,
      "اظهار": 2594,
      "##راي": 2595,
      "##ژه": 2596,
      "##ومی": 2597,
      "نسبت": 2598,
      "##کار": 2599,
      "بسیار": 2600,
      "##اي": 2601,
      "کنید": 2602,
      "نفر": 2603,
      "##ستی": 2604,
      "مث": 2605,
      "##ضای": 2606,
      "میدهد": 2607,
      "هیچ": 2608,
      "شورای": 2609,
      "##راه": 2610,
      "دلیل": 2611,
      "##زاری": 2612,
      "میلیارد": 2613,
      "##با": 2614,
      "صادر": 2615,
      "##ران": 2616,
      "تاکید": 2617,
      "مید": 2618,
      "مهم": 2619,
      "##اون": 2620,
      "رسید": 2621,
      "##ندگان": 2622,
      "##مت": 2623,
      "خط": 2624,
      "##کس": 2625,
      "مخت": 2626,
      "فیلم": 2627,
      "دریا": 2628,
      "سوی": 2629,
      "میان": 2630,
      "##شنبه": 2631,
      "بال": 2632,
      "سپ": 2633,
      "چهار": 2634,
      "نیر": 2635,
      "##ثر": 2636,
      "خرید": 2637,
      "بیش": 2638,
      "##امین": 2639,
      "کس": 2640,
      "##ونه": 2641,
      "##بان": 2642,
      "میتواند": 2643,
      "داخ": 2644,
      "کردند": 2645,
      "۱۲": 2646,
      "##یمی": 2647,
      "مب": 2648,
      "اغ": 2649,
      "فروش": 2650,
      "##صول": 2651,
      "نیاز": 2652,
      "همراه": 2653,
      "حوز": 2654,
      "خدم": 2655,
      "##امد": 2656,
      "۱۳۹۵": 2657,
      "##اش": 2658,
      "رفت": 2659,
      "##باط": 2660,
      "##جم": 2661,
      "##سازی": 2662,
      "##رب": 2663,
      "رشد": 2664,
      "دانشگاه": 2665,
      "فعالیت": 2666,
      "اموز": 2667,
      "توسط": 2668,
      "##غییر": 2669,
      "مشت": 2670,
      "تغییر": 2671,
      "اجتما": 2672,
      "##داشت": 2673,
      "##کاری": 2674,
      "##اپ": 2675,
      "خی": 2676,
      "اساس": 2677,
      "تنها": 2678,
      "##ژی": 2679,
      "##شم": 2680,
      "مخ": 2681,
      "##حی": 2682,
      "خواه": 2683,
      "عمل": 2684,
      "جهان": 2685,
      "کردن": 2686,
      "مه": 2687,
      "نرخ": 2688,
      "##کنون": 2689,
      "گروه": 2690,
      "جمهوری": 2691,
      "منطقه": 2692,
      "معاون": 2693,
      "افت": 2694,
      "حدود": 2695,
      "رق": 2696,
      "##ابی": 2697,
      "افراد": 2698,
      "تمام": 2699,
      "مرا": 2700,
      "محصول": 2701,
      "مل": 2702,
      "اجتماعی": 2703,
      "##ازه": 2704,
      "کنیم": 2705,
      "مصرف": 2706,
      "دلار": 2707,
      "##سد": 2708,
      "گرد": 2709,
      "##وار": 2710,
      "هد": 2711,
      "بررسی": 2712,
      "قانون": 2713,
      "بح": 2714,
      "##یری": 2715,
      "##بته": 2716,
      "##برد": 2717,
      "##ریق": 2718,
      "پایان": 2719,
      "۱۹": 2720,
      "مرکزی": 2721,
      "وا": 2722,
      "ارتباط": 2723,
      "پاس": 2724,
      "البته": 2725,
      "سیاست": 2726,
      "توان": 2727,
      "مست": 2728,
      "##ویت": 2729,
      "ترک": 2730,
      "##سان": 2731,
      "ایرانی": 2732,
      "سای": 2733,
      "طی": 2734,
      "۱۱": 2735,
      "##قیق": 2736,
      "##ودی": 2737,
      "##زه": 2738,
      "۲۰۱": 2739,
      "گفته": 2740,
      "حتی": 2741,
      "۱۵": 2742,
      "حوزه": 2743,
      "##گرد": 2744,
      "همان": 2745,
      "##ریان": 2746,
      "نخ": 2747,
      "##ریم": 2748,
      "##شه": 2749,
      "دریافت": 2750,
      "##شر": 2751,
      "ولی": 2752,
      "جهانی": 2753,
      "زمینه": 2754,
      "##کتر": 2755,
      "چرا": 2756,
      "کی": 2757,
      "##نه": 2758,
      "هفته": 2759,
      "اه": 2760,
      "انقل": 2761,
      "خاط": 2762,
      "زندگی": 2763,
      "وض": 2764,
      "مختلف": 2765,
      "شبکه": 2766,
      "میگو": 2767,
      "اراي": 2768,
      "##یز": 2769,
      "##ضی": 2770,
      "کال": 2771,
      "کشاور": 2772,
      "قابل": 2773,
      "ندارد": 2774,
      "##ارس": 2775,
      "تعد": 2776,
      "میزان": 2777,
      "حمای": 2778,
      "تلا": 2779,
      "تامین": 2780,
      "مجم": 2781,
      "##ازم": 2782,
      "ارايه": 2783,
      "فرد": 2784,
      "بیمه": 2785,
      "یاد": 2786,
      "سب": 2787,
      "##ندی": 2788,
      "شک": 2789,
      "##ابر": 2790,
      "رای": 2791,
      "مذ": 2792,
      "##ایل": 2793,
      "مسکن": 2794,
      "پنج": 2795,
      "ره": 2796,
      "علا": 2797,
      "اغاز": 2798,
      "##بط": 2799,
      "قبل": 2800,
      "نمایش": 2801,
      "##ویی": 2802,
      "##یدا": 2803,
      "اطلاعات": 2804,
      "##دن": 2805,
      "اینده": 2806,
      "##لو": 2807,
      "جامعه": 2808,
      "سیاسی": 2809,
      "اجرای": 2810,
      "##مال": 2811,
      "ارز": 2812,
      "تک": 2813,
      "خبری": 2814,
      "##فه": 2815,
      "هزین": 2816,
      "کمک": 2817,
      "عض": 2818,
      "دستگاه": 2819,
      "بودند": 2820,
      "خارجی": 2821,
      "واح": 2822,
      "حمایت": 2823,
      "لی": 2824,
      "##تاب": 2825,
      "امن": 2826,
      "تلاش": 2827,
      "نز": 2828,
      "انتخابات": 2829,
      "سط": 2830,
      "سخ": 2831,
      "اصلی": 2832,
      "واقع": 2833,
      "نظام": 2834,
      "کشورهای": 2835,
      "نقل": 2836,
      "##گذاری": 2837,
      "##عث": 2838,
      "بدون": 2839,
      "##ریح": 2840,
      "حاض": 2841,
      "تل": 2842,
      "##گیرد": 2843,
      "اقای": 2844,
      "روح": 2845,
      "حالی": 2846,
      "فق": 2847,
      "بسیاری": 2848,
      "گل": 2849,
      "##افق": 2850,
      "پاسخ": 2851,
      "صح": 2852,
      "##فق": 2853,
      "اخیر": 2854,
      "خاطر": 2855,
      "مدیریت": 2856,
      "باعث": 2857,
      "انقلاب": 2858,
      "##ابت": 2859,
      "اور": 2860,
      "زیادی": 2861,
      "دنی": 2862,
      "حاضر": 2863,
      "شی": 2864,
      "هدف": 2865,
      "##بین": 2866,
      "##ابع": 2867,
      "ابت": 2868,
      "سن": 2869,
      "امور": 2870,
      "##دار": 2871,
      "امکان": 2872,
      "کو": 2873,
      "جمله": 2874,
      "انتق": 2875,
      "مرب": 2876,
      "برگزار": 2877,
      "امید": 2878,
      "##فاق": 2879,
      "پیدا": 2880,
      "کشاورزی": 2881,
      "مقام": 2882,
      "نیرو": 2883,
      "##ذیر": 2884,
      "اشت": 2885,
      "همکاری": 2886,
      "خدمات": 2887,
      "جز": 2888,
      "امنیت": 2889,
      "عرض": 2890,
      "سود": 2891,
      "##گران": 2892,
      "مدت": 2893,
      "نخست": 2894,
      "بانکی": 2895,
      "##رس": 2896,
      "##داری": 2897,
      "واحد": 2898,
      "عمومی": 2899,
      "مسيول": 2900,
      "طرف": 2901,
      "ارزش": 2902,
      "طریق": 2903,
      "##اسب": 2904,
      "##میم": 2905,
      "میکرد": 2906,
      "##یلات": 2907,
      "خانو": 2908,
      "کمی": 2909,
      "##الب": 2910,
      "کود": 2911,
      "مانند": 2912,
      "میشوند": 2913,
      "صد": 2914,
      "شا": 2915,
      "##مللی": 2916,
      "##اهم": 2917,
      "باشند": 2918,
      "مشکلات": 2919,
      "وضعیت": 2920,
      "هوا": 2921,
      "##ستم": 2922,
      "رییس": 2923,
      "##صر": 2924,
      "میدان": 2925,
      "۱۴": 2926,
      "لازم": 2927,
      "##ابط": 2928,
      "اسی": 2929,
      "جلس": 2930,
      "اتفاق": 2931,
      "قدر": 2932,
      "ارو": 2933,
      "جوان": 2934,
      "##جا": 2935,
      "موس": 2936,
      "اپ": 2937,
      "مهر": 2938,
      "##رت": 2939,
      "داخلی": 2940,
      "جنگ": 2941,
      "اصلاح": 2942,
      "##خانه": 2943,
      "##هنگی": 2944,
      "نقش": 2945,
      "##پا": 2946,
      "۱۶": 2947,
      "##لیس": 2948,
      "##اهی": 2949,
      "##وده": 2950,
      "##ورس": 2951,
      "سطح": 2952,
      "دیگری": 2953,
      "ته": 2954,
      "دن": 2955,
      "##ثیر": 2956,
      "طور": 2957,
      "سین": 2958,
      "غذ": 2959,
      "هایی": 2960,
      "بده": 2961,
      "طول": 2962,
      "##واره": 2963,
      "امار": 2964,
      "##انس": 2965,
      "ست": 2966,
      "دوره": 2967,
      "فرهنگی": 2968,
      "دوم": 2969,
      "فرا": 2970,
      "فوت": 2971,
      "شرکتهای": 2972,
      "منابع": 2973,
      "دنبال": 2974,
      "امام": 2975,
      "اموزش": 2976,
      "##این": 2977,
      "چنین": 2978,
      "منتشر": 2979,
      "بالا": 2980,
      "##ابق": 2981,
      "۳۰": 2982,
      "شخص": 2983,
      "##یار": 2984,
      "##شناس": 2985,
      "نداشت": 2986,
      "مربوط": 2987,
      "سام": 2988,
      "##هاست": 2989,
      "##گزاری": 2990,
      "##لاف": 2991,
      "مشخص": 2992,
      "##ندان": 2993,
      "طب": 2994,
      "شدند": 2995,
      "یع": 2996,
      "بع": 2997,
      "۱۸": 2998,
      "اک": 2999,
      "بهره": 3000,
      "اولین": 3001,
      "صادرات": 3002,
      "موفق": 3003,
      "برخورد": 3004,
      "انتظ": 3005,
      "مطرح": 3006,
      "قرارد": 3007,
      "شع": 3008,
      "ازاد": 3009,
      "تسه": 3010,
      "فی": 3011,
      "تعداد": 3012,
      "تصمیم": 3013,
      "تاثیر": 3014,
      "زمانی": 3015,
      "پول": 3016,
      "محمد": 3017,
      "کتاب": 3018,
      "عرضه": 3019,
      "تخ": 3020,
      "پرس": 3021,
      "##مکن": 3022,
      "نتی": 3023,
      "ثبت": 3024,
      "عملی": 3025,
      "##صل": 3026,
      "برابر": 3027,
      "ارد": 3028,
      "حم": 3029,
      "##رفی": 3030,
      "خانه": 3031,
      "عب": 3032,
      "احت": 3033,
      "یعنی": 3034,
      "انگ": 3035,
      "روابط": 3036,
      "##ایع": 3037,
      "تحریم": 3038,
      "پیر": 3039,
      "مرکز": 3040,
      "کر": 3041,
      "ویژه": 3042,
      "وقتی": 3043,
      "محصولات": 3044,
      "خانواده": 3045,
      "شهری": 3046,
      "##امپ": 3047,
      "۲۵": 3048,
      "نزدی": 3049,
      "میخو": 3050,
      "##ادهای": 3051,
      "چون": 3052,
      "##رده": 3053,
      "##ربی": 3054,
      "عرا": 3055,
      "مواد": 3056,
      "پایگاه": 3057,
      "جو": 3058,
      "جان": 3059,
      "جهت": 3060,
      "کنار": 3061,
      "خیلی": 3062,
      "قدرت": 3063,
      "##الت": 3064,
      "شنبه": 3065,
      "حک": 3066,
      "بتوان": 3067,
      "حل": 3068,
      "چی": 3069,
      "خبرگزاری": 3070,
      "روحانی": 3071,
      "گست": 3072,
      "مشترک": 3073,
      "##گونه": 3074,
      "##جب": 3075,
      "سری": 3076,
      "سفر": 3077,
      "اض": 3078,
      "##جام": 3079,
      "رسانه": 3080,
      "نتیجه": 3081,
      "نمیت": 3082,
      "پزش": 3083,
      "روسی": 3084,
      "ممکن": 3085,
      "هو": 3086,
      "۱۷": 3087,
      "##بیر": 3088,
      "معت": 3089,
      "خوبی": 3090,
      "اذ": 3091,
      "##تری": 3092,
      "شر": 3093,
      "##طور": 3094,
      "تف": 3095,
      "گاز": 3096,
      "هنوز": 3097,
      "##ادل": 3098,
      "عضو": 3099,
      "کلی": 3100,
      "نمیتوان": 3101,
      "##قد": 3102,
      "##کیل": 3103,
      "##سیون": 3104,
      "ندار": 3105,
      "##زد": 3106,
      "رف": 3107,
      "فره": 3108,
      "عرب": 3109,
      "تصریح": 3110,
      "##گذار": 3111,
      "بورس": 3112,
      "اکنون": 3113,
      "سیستم": 3114,
      "کردهاند": 3115,
      "##ساز": 3116,
      "##یدی": 3117,
      "##شنه": 3118,
      "خبرنگ": 3119,
      "سوری": 3120,
      "علیه": 3121,
      "فضای": 3122,
      "شکل": 3123,
      "ضر": 3124,
      "هیات": 3125,
      "##صی": 3126,
      "دهد": 3127,
      "میگوید": 3128,
      "##بود": 3129,
      "تحت": 3130,
      "معرفی": 3131,
      "سلام": 3132,
      "۲۰۰": 3133,
      "لح": 3134,
      "سایت": 3135,
      "تس": 3136,
      "##راین": 3137,
      "فنا": 3138,
      "##کو": 3139,
      "##تان": 3140,
      "پیام": 3141,
      "حا": 3142,
      "دارای": 3143,
      "یافت": 3144,
      "هزینه": 3145,
      "ایت": 3146,
      "حقوق": 3147,
      "##حه": 3148,
      "##ظر": 3149,
      "سایر": 3150,
      "##شتی": 3151,
      "ظرف": 3152,
      "نگاه": 3153,
      "خاص": 3154,
      "بودن": 3155,
      "##گه": 3156,
      "پیشنه": 3157,
      "بیماری": 3158,
      "امسال": 3159,
      "محل": 3160,
      "کسب": 3161,
      "##شهای": 3162,
      "حرف": 3163,
      "سف": 3164,
      "##رایی": 3165,
      "فناوری": 3166,
      "جریان": 3167,
      "محد": 3168,
      "مذاک": 3169,
      "##مول": 3170,
      "فقط": 3171,
      "##یط": 3172,
      "##اسم": 3173,
      "ایا": 3174,
      "عراق": 3175,
      "درامد": 3176,
      "اخرین": 3177,
      "موجود": 3178,
      "میرسد": 3179,
      "پار": 3180,
      "خواست": 3181,
      "##ریف": 3182,
      "اث": 3183,
      "۲۴": 3184,
      "ریال": 3185,
      "سل": 3186,
      "##خه": 3187,
      "سازی": 3188,
      "نشست": 3189,
      "##جر": 3190,
      "روسیه": 3191,
      "فوتبال": 3192,
      "نشده": 3193,
      "داریم": 3194,
      "##ورم": 3195,
      "##رژی": 3196,
      "میل": 3197,
      "دنیا": 3198,
      "روند": 3199,
      "گذاری": 3200,
      "بحث": 3201,
      "عد": 3202,
      "خصوصی": 3203,
      "##لم": 3204,
      "سالهای": 3205,
      "روست": 3206,
      "حج": 3207,
      "##اتر": 3208,
      "کالا": 3209,
      "بناب": 3210,
      "تشکیل": 3211,
      "تای": 3212,
      "ورود": 3213,
      "امد": 3214,
      "جاری": 3215,
      "دکتر": 3216,
      "جلسه": 3217,
      "تسهیلات": 3218,
      "متن": 3219,
      "##اوم": 3220,
      "محیط": 3221,
      "##تهای": 3222,
      "کیل": 3223,
      "دیدار": 3224,
      "نخو": 3225,
      "برق": 3226,
      "توافق": 3227,
      "اطلاع": 3228,
      "نیم": 3229,
      "پژ": 3230,
      "##عا": 3231,
      "##عیین": 3232,
      "##اله": 3233,
      "خارج": 3234,
      "عدم": 3235,
      "صف": 3236,
      "تعیین": 3237,
      "بنابراین": 3238,
      "دستور": 3239,
      "راست": 3240,
      "مقابل": 3241,
      "##دای": 3242,
      "صند": 3243,
      "اضاف": 3244,
      "##بران": 3245,
      "اختیار": 3246,
      "میتوانند": 3247,
      "سوریه": 3248,
      "مبار": 3249,
      "شوند": 3250,
      "فرهنگ": 3251,
      "کان": 3252,
      "##وزی": 3253,
      "##پیم": 3254,
      "##اورد": 3255,
      "کسی": 3256,
      "انرژی": 3257,
      "نوع": 3258,
      "تیر": 3259,
      "تحقیق": 3260,
      "بانکها": 3261,
      "ریاست": 3262,
      "تد": 3263,
      "امده": 3264,
      "##نت": 3265,
      "گوشی": 3266,
      "۰۵": 3267,
      "##ايل": 3268,
      "هستیم": 3269,
      "مسیر": 3270,
      "قد": 3271,
      "شو": 3272,
      "نف": 3273,
      "فکر": 3274,
      "اثر": 3275,
      "##ویر": 3276,
      "جمهور": 3277,
      "موارد": 3278,
      "##راحی": 3279,
      "بازیکن": 3280,
      "شاهد": 3281,
      "سمت": 3282,
      "۱۳۹۴": 3283,
      "دفا": 3284,
      "##هایم": 3285,
      "طبی": 3286,
      "تجارت": 3287,
      "##پی": 3288,
      "عربستان": 3289,
      "##یند": 3290,
      "نبود": 3291,
      "منظ": 3292,
      "دانشج": 3293,
      "حساب": 3294,
      "مرت": 3295,
      "بلکه": 3296,
      "تروری": 3297,
      "جشن": 3298,
      "##اطق": 3299,
      "خرد": 3300,
      "##خش": 3301,
      "##ادث": 3302,
      "##مه": 3303,
      "۲۲": 3304,
      "ضمن": 3305,
      "کارشناس": 3306,
      "##گاههای": 3307,
      "سوال": 3308,
      "هنر": 3309,
      "سوم": 3310,
      "##دهم": 3311,
      "نزدیک": 3312,
      "نکرد": 3313,
      "عامل": 3314,
      "مرح": 3315,
      "علمی": 3316,
      "##مایی": 3317,
      "##انهای": 3318,
      "بودجه": 3319,
      "##اساس": 3320,
      "خوش": 3321,
      "##دیل": 3322,
      "الله": 3323,
      "دولتی": 3324,
      "زنان": 3325,
      "خوب": 3326,
      "احتمال": 3327,
      "##وبی": 3328,
      "اینتر": 3329,
      "لب": 3330,
      "کوچ": 3331,
      "##عامل": 3332,
      "##رافی": 3333,
      "قرارداد": 3334,
      "رابط": 3335,
      "کاری": 3336,
      "سخت": 3337,
      "جذ": 3338,
      "یافته": 3339,
      "صنایع": 3340,
      "شهرد": 3341,
      "اجرایی": 3342,
      "##رم": 3343,
      "تبدیل": 3344,
      "##قق": 3345,
      "کمتر": 3346,
      "مقاوم": 3347,
      "شدهاند": 3348,
      "انتظار": 3349,
      "پذیر": 3350,
      "براساس": 3351,
      "شیر": 3352,
      "مناسب": 3353,
      "میبا": 3354,
      "شاخص": 3355,
      "##رش": 3356,
      "چشم": 3357,
      "گذاشت": 3358,
      "میگیرد": 3359,
      "درص": 3360,
      "عملکرد": 3361,
      "بهترین": 3362,
      "##یان": 3363,
      "رسیده": 3364,
      "کیف": 3365,
      "محس": 3366,
      "ایشان": 3367,
      "مناطق": 3368,
      "سنگ": 3369,
      "ورزش": 3370,
      "حمل": 3371,
      "اضافه": 3372,
      "سع": 3373,
      "##ورش": 3374,
      "موجب": 3375,
      "##بانی": 3376,
      "علاوه": 3377,
      "مغ": 3378,
      "##شین": 3379,
      "پرونده": 3380,
      "##ابد": 3381,
      "برگزاری": 3382,
      "حف": 3383,
      "##فاوت": 3384,
      "کننده": 3385,
      "مراسم": 3386,
      "نیروهای": 3387,
      "استاند": 3388,
      "##جمه": 3389,
      "##اجه": 3390,
      "##وعه": 3391,
      "۲۱": 3392,
      "کمیسیون": 3393,
      "میشد": 3394,
      "ظرفیت": 3395,
      "رقابت": 3396,
      "شاید": 3397,
      "کنتر": 3398,
      "بخشی": 3399,
      "عصر": 3400,
      "اعضای": 3401,
      "مک": 3402,
      "##غال": 3403,
      "##ضایی": 3404,
      "جمعیت": 3405,
      "##روع": 3406,
      "عو": 3407,
      "نماینده": 3408,
      "صب": 3409,
      "##ایج": 3410,
      "واردات": 3411,
      "نامه": 3412,
      "۲۳": 3413,
      "میکنیم": 3414,
      "##ایند": 3415,
      "صندوق": 3416,
      "طبق": 3417,
      "##صاص": 3418,
      "گیر": 3419,
      "مدیرعامل": 3420,
      "اعتبار": 3421,
      "کامل": 3422,
      "##وست": 3423,
      "فرمان": 3424,
      "جلو": 3425,
      "پلیس": 3426,
      "مهمترین": 3427,
      "ترکیه": 3428,
      "اقدامات": 3429,
      "نفتی": 3430,
      "بیشتری": 3431,
      "فارس": 3432,
      "همس": 3433,
      "کنترل": 3434,
      "زن": 3435,
      "بهداشت": 3436,
      "نور": 3437,
      "شامل": 3438,
      "سهم": 3439,
      "مواجه": 3440,
      "شناس": 3441,
      "هواپیم": 3442,
      "چین": 3443,
      "ملت": 3444,
      "سلامت": 3445,
      "بهتر": 3446,
      "##ربه": 3447,
      "خواهند": 3448,
      "اجرا": 3449,
      "فراهم": 3450,
      "مسايل": 3451,
      "مثل": 3452,
      "تلف": 3453,
      "مرداد": 3454,
      "نمایندگان": 3455,
      "##الله": 3456,
      "##عتی": 3457,
      "##گوی": 3458,
      "فرص": 3459,
      "برنامههای": 3460,
      "درصدی": 3461,
      "##دین": 3462,
      "درمان": 3463,
      "##شود": 3464,
      "۵۰": 3465,
      "بینال": 3466,
      "میدهند": 3467,
      "استقل": 3468,
      "اتح": 3469,
      "عالی": 3470,
      "##لاین": 3471,
      "پوش": 3472,
      "اختصاص": 3473,
      "رسمی": 3474,
      "داخل": 3475,
      "روزنامه": 3476,
      "مطال": 3477,
      "##بات": 3478,
      "##ماه": 3479,
      "رابطه": 3480,
      "حرکت": 3481,
      "تجربه": 3482,
      "##نو": 3483,
      "شروع": 3484,
      "انتقال": 3485,
      "گردش": 3486,
      "موق": 3487,
      "ایم": 3488,
      "محدود": 3489,
      "##مز": 3490,
      "##ینه": 3491,
      "##طه": 3492,
      "##سل": 3493,
      "معامل": 3494,
      "امر": 3495,
      "رون": 3496,
      "هفت": 3497,
      "##یره": 3498,
      "انسان": 3499,
      "شهرستان": 3500,
      "##ایه": 3501,
      "##اخ": 3502,
      "ساله": 3503,
      "کام": 3504,
      "محم": 3505,
      "##صه": 3506,
      "##شک": 3507,
      "فصل": 3508,
      "اروپا": 3509,
      "##پرد": 3510,
      "امریکایی": 3511,
      "صبح": 3512,
      "##اظ": 3513,
      "ارزی": 3514,
      "مسل": 3515,
      "میباشد": 3516,
      "منظور": 3517,
      "مدیران": 3518,
      "سیم": 3519,
      "میرود": 3520,
      "##ابه": 3521,
      "المللی": 3522,
      "یار": 3523,
      "مخال": 3524,
      "استقلال": 3525,
      "۱۰۰": 3526,
      "ارتباطات": 3527,
      "دش": 3528,
      "دفاع": 3529,
      "حفظ": 3530,
      "مجموعه": 3531,
      "بدن": 3532,
      "ابر": 3533,
      "##یشه": 3534,
      "##خواست": 3535,
      "احس": 3536,
      "##کننده": 3537,
      "طراحی": 3538,
      "##لاق": 3539,
      "##حس": 3540,
      "صرف": 3541,
      "هستهای": 3542,
      "ایس": 3543,
      "برجام": 3544,
      "باشیم": 3545,
      "##لال": 3546,
      "##لیه": 3547,
      "تایید": 3548,
      "##خی": 3549,
      "مادر": 3550,
      "بیمار": 3551,
      "چاپ": 3552,
      "##نگی": 3553,
      "سهام": 3554,
      "صحبت": 3555,
      "لو": 3556,
      "##چار": 3557,
      "مسيولان": 3558,
      "خوان": 3559,
      "زبان": 3560,
      "زیرا": 3561,
      "هنگ": 3562,
      "عملیات": 3563,
      "کیفیت": 3564,
      "##افی": 3565,
      "۲۷": 3566,
      "ترامپ": 3567,
      "نسخه": 3568,
      "##گاهی": 3569,
      "نگه": 3570,
      "جمع": 3571,
      "اهم": 3572,
      "تاکنون": 3573,
      "پیشر": 3574,
      "##سم": 3575,
      "رک": 3576,
      "نباید": 3577,
      "##ظه": 3578,
      "پایین": 3579,
      "متح": 3580,
      "مراج": 3581,
      "##راف": 3582,
      "پل": 3583,
      "دوست": 3584,
      "خودروهای": 3585,
      "شهید": 3586,
      "نخواهد": 3587,
      "الم": 3588,
      "فرز": 3589,
      "۴۰": 3590,
      "رهبری": 3591,
      "خدا": 3592,
      "جدی": 3593,
      "##تا": 3594,
      "دوران": 3595,
      "مرحله": 3596,
      "پزشکی": 3597,
      "سخن": 3598,
      "##ژاد": 3599,
      "پروژه": 3600,
      "قانونی": 3601,
      "##اسف": 3602,
      "متر": 3603,
      "خرداد": 3604,
      "##لق": 3605,
      "پژوه": 3606,
      "##کنندگان": 3607,
      "ارسال": 3608,
      "انان": 3609,
      "۱۳۹۳": 3610,
      "۰۴": 3611,
      "داشتند": 3612,
      "بگیر": 3613,
      "ویژ": 3614,
      "##قیم": 3615,
      "تهیه": 3616,
      "جشنواره": 3617,
      "##باری": 3618,
      "دهند": 3619,
      "نظارت": 3620,
      "##گانی": 3621,
      "##پر": 3622,
      "بست": 3623,
      "نظامی": 3624,
      "روزهای": 3625,
      "کارت": 3626,
      "وقت": 3627,
      "باشگاه": 3628,
      "تمامی": 3629,
      "##واج": 3630,
      "اهمیت": 3631,
      "##رار": 3632,
      "نخستین": 3633,
      "##اها": 3634,
      "همچنان": 3635,
      "##ازدهم": 3636,
      "هوش": 3637,
      "##شناسی": 3638,
      "اسیب": 3639,
      "##يی": 3640,
      "نگر": 3641,
      "دبیر": 3642,
      "##ویب": 3643,
      "قا": 3644,
      "کوت": 3645,
      "تصویب": 3646,
      "فرو": 3647,
      "انچه": 3648,
      "۲۶": 3649,
      "مطلب": 3650,
      "##عش": 3651,
      "نیروی": 3652,
      "##یتر": 3653,
      "رقم": 3654,
      "اصول": 3655,
      "سید": 3656,
      "فشار": 3657,
      "وظ": 3658,
      "تورم": 3659,
      "پیشنهاد": 3660,
      "##ریب": 3661,
      "ازد": 3662,
      "مدل": 3663,
      "حمله": 3664,
      "سرد": 3665,
      "اسف": 3666,
      "اتحادی": 3667,
      "دخت": 3668,
      "درست": 3669,
      "##ابقه": 3670,
      "ماده": 3671,
      "ران": 3672,
      "طبیعی": 3673,
      "##رانی": 3674,
      "سرو": 3675,
      "تلوی": 3676,
      "##الم": 3677,
      "چیزی": 3678,
      "عکس": 3679,
      "روش": 3680,
      "احساس": 3681,
      "##کند": 3682,
      "رفتار": 3683,
      "##پولی": 3684,
      "##er": 3685,
      "سرعت": 3686,
      "##دهی": 3687,
      "اورد": 3688,
      "##ظیم": 3689,
      "پدر": 3690,
      "دانست": 3691,
      "پشت": 3692,
      "برداشت": 3693,
      "۲۸": 3694,
      "نوشت": 3695,
      "شهرداری": 3696,
      "نهای": 3697,
      "خطر": 3698,
      "خبرنگار": 3699,
      "مز": 3700,
      "بسته": 3701,
      "هاش": 3702,
      "اتاق": 3703,
      "ایست": 3704,
      "علت": 3705,
      "##یب": 3706,
      "##مندان": 3707,
      "##ونهای": 3708,
      "دقی": 3709,
      "تلویزی": 3710,
      "تخص": 3711,
      "حاک": 3712,
      "##نشان": 3713,
      "زیاد": 3714,
      "ایسنا": 3715,
      "رخ": 3716,
      "فعالیتهای": 3717,
      "کوچک": 3718,
      "##کته": 3719,
      "اتحادیه": 3720,
      "تجاری": 3721,
      "حجم": 3722,
      "اداره": 3723,
      "دچار": 3724,
      "جنوبی": 3725,
      "##اقل": 3726,
      "بینالمللی": 3727,
      "جا": 3728,
      "خارجه": 3729,
      "دادن": 3730,
      "جمعه": 3731,
      "حز": 3732,
      "بنی": 3733,
      "نمیشود": 3734,
      "مقر": 3735,
      "برد": 3736,
      "مبارزه": 3737,
      "پت": 3738,
      "فنی": 3739,
      "نمایشگاه": 3740,
      "سیاستهای": 3741,
      "##ولو": 3742,
      "داعش": 3743,
      "غذایی": 3744,
      "بش": 3745,
      "محور": 3746,
      "کسانی": 3747,
      "##ویان": 3748,
      "معاملات": 3749,
      "ازدواج": 3750,
      "##لیت": 3751,
      "##اصله": 3752,
      "مشاور": 3753,
      "حذ": 3754,
      "۹۵": 3755,
      "##ارکت": 3756,
      "علوم": 3757,
      "حادث": 3758,
      "کمیت": 3759,
      "معتقد": 3760,
      "میکنم": 3761,
      "صنعتی": 3762,
      "امیدوار": 3763,
      "سق": 3764,
      "قهر": 3765,
      "یارانه": 3766,
      "نت": 3767,
      "تبلی": 3768,
      "الع": 3769,
      "خاطرنشان": 3770,
      "##اهیم": 3771,
      "##افت": 3772,
      "متاسف": 3773,
      "شناخت": 3774,
      "بند": 3775,
      "هشت": 3776,
      "##تور": 3777,
      "پاک": 3778,
      "بینی": 3779,
      "اثار": 3780,
      "بیر": 3781,
      "شکست": 3782,
      "##نای": 3783,
      "انلاین": 3784,
      "##یدن": 3785,
      "بهمن": 3786,
      "جد": 3787,
      "پرسپولی": 3788,
      "اساسی": 3789,
      "##گار": 3790,
      "مف": 3791,
      "##ایر": 3792,
      "##وین": 3793,
      "خون": 3794,
      "##ادگی": 3795,
      "کره": 3796,
      "##ظم": 3797,
      "۰۳": 3798,
      "درخواست": 3799,
      "##اج": 3800,
      "اماده": 3801,
      "عق": 3802,
      "گی": 3803,
      "اشتغال": 3804,
      "وام": 3805,
      "##يت": 3806,
      "خام": 3807,
      "##تیب": 3808,
      "##فتر": 3809,
      "##واع": 3810,
      "حسن": 3811,
      "تبلیغ": 3812,
      "بهبود": 3813,
      "نح": 3814,
      "باشید": 3815,
      "دیده": 3816,
      "متاسفانه": 3817,
      "سرمایهگذاری": 3818,
      "جوانان": 3819,
      "لیگ": 3820,
      "##داف": 3821,
      "جذب": 3822,
      "##اهده": 3823,
      "مسيله": 3824,
      "انس": 3825,
      "حالا": 3826,
      "انواع": 3827,
      "نهایی": 3828,
      "##مر": 3829,
      "دری": 3830,
      "هوشمند": 3831,
      "افرادی": 3832,
      "حسین": 3833,
      "فار": 3834,
      "##قدر": 3835,
      "##ماد": 3836,
      "واکن": 3837,
      "نوشته": 3838,
      "ندارند": 3839,
      "##تو": 3840,
      "دادند": 3841,
      "توضی": 3842,
      "تقاض": 3843,
      "الکتر": 3844,
      "چهارشنبه": 3845,
      "استق": 3846,
      "##تل": 3847,
      "همیشه": 3848,
      "ساخته": 3849,
      "موسی": 3850,
      "حادثه": 3851,
      "رنگ": 3852,
      "نداشته": 3853,
      "۲۹": 3854,
      "هاشمی": 3855,
      "رفع": 3856,
      "مشارکت": 3857,
      "مجوز": 3858,
      "دقیقه": 3859,
      "##شا": 3860,
      "خودش": 3861,
      "کردیم": 3862,
      "##روی": 3863,
      "مام": 3864,
      "گسترش": 3865,
      "بحران": 3866,
      "استاندارد": 3867,
      "زیست": 3868,
      "کیلوم": 3869,
      "##وال": 3870,
      "حداقل": 3871,
      "گرفتن": 3872,
      "##یتی": 3873,
      "##اصل": 3874,
      "##غل": 3875,
      "ترتیب": 3876,
      "##ویه": 3877,
      "شماره": 3878,
      "نرم": 3879,
      "پرسپولیس": 3880,
      "تازه": 3881,
      "مال": 3882,
      "اجازه": 3883,
      "توضیح": 3884,
      "بو": 3885,
      "ارام": 3886,
      "مذاکرات": 3887,
      "مین": 3888,
      "جلوگیری": 3889,
      "حی": 3890,
      "ول": 3891,
      "مشاهده": 3892,
      "حذف": 3893,
      "تلفن": 3894,
      "سوخت": 3895,
      "احمد": 3896,
      "مشه": 3897,
      "فرصت": 3898,
      "رژ": 3899,
      "کارشناسان": 3900,
      "میلادی": 3901,
      "دوشنبه": 3902,
      "اخبار": 3903,
      "##زمان": 3904,
      "##نش": 3905,
      "معمول": 3906,
      "اردی": 3907,
      "کودکان": 3908,
      "##حت": 3909,
      "##بهشت": 3910,
      "ساختمان": 3911,
      "فران": 3912,
      "الکترونی": 3913,
      "موسسه": 3914,
      "شهرو": 3915,
      "کاربران": 3916,
      "میاید": 3917,
      "##افع": 3918,
      "اردیبهشت": 3919,
      "##غان": 3920,
      "##پرداز": 3921,
      "حضرت": 3922,
      "مجازی": 3923,
      "کاملا": 3924,
      "مرگ": 3925,
      "نکته": 3926,
      "انجمن": 3927,
      "##ادت": 3928,
      "بلند": 3929,
      "شدهاست": 3930,
      "میتوانید": 3931,
      "##کز": 3932,
      "جایگاه": 3933,
      "بازگ": 3934,
      "مجموع": 3935,
      "نهایت": 3936,
      "سرویس": 3937,
      "طلا": 3938,
      "##ویس": 3939,
      "دفتر": 3940,
      "۰۹": 3941,
      "اعتماد": 3942,
      "مبل": 3943,
      "دشمن": 3944,
      "##خصوص": 3945,
      "تحقیقات": 3946,
      "##بینی": 3947,
      "معدن": 3948,
      "گفتو": 3949,
      "دقیق": 3950,
      "کودک": 3951,
      "##پانی": 3952,
      "##خوان": 3953,
      "قصد": 3954,
      "دارو": 3955,
      "##پذیر": 3956,
      "پدید": 3957,
      "رژیم": 3958,
      "۰۲": 3959,
      "##الات": 3960,
      "انتقاد": 3961,
      "گیری": 3962,
      "شاه": 3963,
      "منجر": 3964,
      "##عف": 3965,
      "سامانه": 3966,
      "##دان": 3967,
      "##بع": 3968,
      "ماند": 3969,
      "انکه": 3970,
      "شناسایی": 3971,
      "##قت": 3972,
      "ستاد": 3973,
      "اهداف": 3974,
      "اینترنت": 3975,
      "متو": 3976,
      "دام": 3977,
      "مبنی": 3978,
      "۳۵": 3979,
      "نج": 3980,
      "مرز": 3981,
      "کمیته": 3982,
      "##اسیون": 3983,
      "بالای": 3984,
      "دهه": 3985,
      "قوان": 3986,
      "بزرگترین": 3987,
      "تقویت": 3988,
      "وس": 3989,
      "یکشنبه": 3990,
      "پیگیری": 3991,
      "سراس": 3992,
      "غرب": 3993,
      "اوراق": 3994,
      "اتش": 3995,
      "حاشی": 3996,
      "اسفند": 3997,
      "##انت": 3998,
      "خدمت": 3999,
      "اصفه": 4000,
      "متق": 4001,
      "##ستانی": 4002,
      "کشورها": 4003,
      "لذ": 4004,
      "##مینی": 4005,
      "پخش": 4006,
      "حزب": 4007,
      "سپاه": 4008,
      "##روشیمی": 4009,
      "##عهد": 4010,
      "قطع": 4011,
      "چیز": 4012,
      "مساله": 4013,
      "تحلیل": 4014,
      "رض": 4015,
      "المان": 4016,
      "فرانسه": 4017,
      "ناشی": 4018,
      "##ینگ": 4019,
      "پتروشیمی": 4020,
      "کوتاه": 4021,
      "خیاب": 4022,
      "واقعی": 4023,
      "خرو": 4024,
      "بگیرد": 4025,
      "##چاق": 4026,
      "##ولوژی": 4027,
      "برخوردار": 4028,
      "##اهای": 4029,
      "نشد": 4030,
      "متوس": 4031,
      "##کور": 4032,
      "مناس": 4033,
      "قاچاق": 4034,
      "فل": 4035,
      "##تبه": 4036,
      "مراجعه": 4037,
      "##ویل": 4038,
      "رع": 4039,
      "وح": 4040,
      "همچون": 4041,
      "هند": 4042,
      "پرورش": 4043,
      "خودروی": 4044,
      "مامور": 4045,
      "قوانین": 4046,
      "محسوب": 4047,
      "##مرک": 4048,
      "اصل": 4049,
      "انجا": 4050,
      "خورد": 4051,
      "نص": 4052,
      "عوامل": 4053,
      "##وتی": 4054,
      "تاب": 4055,
      "اولیه": 4056,
      "بازر": 4057,
      "سپرده": 4058,
      "پیشرفت": 4059,
      "##ستگی": 4060,
      "قل": 4061,
      "روشن": 4062,
      "جهاد": 4063,
      "بروز": 4064,
      "##ریه": 4065,
      "##تن": 4066,
      "##زاده": 4067,
      "وب": 4068,
      "##سیم": 4069,
      "تهدید": 4070,
      "##ماند": 4071,
      "کافی": 4072,
      "موفقیت": 4073,
      "##طان": 4074,
      "##نظر": 4075,
      "##میل": 4076,
      "ارتق": 4077,
      "##بور": 4078,
      "##ولیت": 4079,
      "دع": 4080,
      "##مندی": 4081,
      "جل": 4082,
      "نیمه": 4083,
      "نهاد": 4084,
      "فرود": 4085,
      "مدر": 4086,
      "تکن": 4087,
      "فدر": 4088,
      "رفته": 4089,
      "گیرد": 4090,
      "اشن": 4091,
      "دیر": 4092,
      "پن": 4093,
      "میگویند": 4094,
      "۰۰": 4095,
      "داست": 4096,
      "شش": 4097,
      "رتبه": 4098,
      "نتایج": 4099,
      "همزمان": 4100,
      "ابتدای": 4101,
      "مثبت": 4102,
      "رعایت": 4103,
      "واکنش": 4104,
      "امنیتی": 4105,
      "مشتریان": 4106,
      "##هاش": 4107,
      "مرغ": 4108,
      "##لیلی": 4109,
      "معظم": 4110,
      "لای": 4111,
      "موسیقی": 4112,
      "فوق": 4113,
      "موثر": 4114,
      "متع": 4115,
      "##on": 4116,
      "بدهی": 4117,
      "مخالف": 4118,
      "چال": 4119,
      "ظاه": 4120,
      "محقق": 4121,
      "##خته": 4122,
      "##خیص": 4123,
      "حو": 4124,
      "مراکز": 4125,
      "۱۳۸": 4126,
      "مخاط": 4127,
      "پیروزی": 4128,
      "فول": 4129,
      "لغ": 4130,
      "راستای": 4131,
      "اصفهان": 4132,
      "بیشترین": 4133,
      "شمار": 4134,
      "شدید": 4135,
      "ابتدا": 4136,
      "قاب": 4137,
      "##اضی": 4138,
      "روان": 4139,
      "##عده": 4140,
      "۳۱": 4141,
      "زد": 4142,
      "قس": 4143,
      "میکردند": 4144,
      "مهند": 4145,
      "۵۰۰": 4146,
      "غربی": 4147,
      "سینما": 4148,
      "جدیدی": 4149,
      "کردم": 4150,
      "##ایان": 4151,
      "عرصه": 4152,
      "رهبر": 4153,
      "سابق": 4154,
      "عه": 4155,
      "##شده": 4156,
      "##مون": 4157,
      "##نوان": 4158,
      "##in": 4159,
      "زنج": 4160,
      "ویژگی": 4161,
      "قضایی": 4162,
      "روزانه": 4163,
      "۶۰": 4164,
      "اموزشی": 4165,
      "##لت": 4166,
      "اعمال": 4167,
      "خواهیم": 4168,
      "عین": 4169,
      "موسس": 4170,
      "سعی": 4171,
      "باقی": 4172,
      "مستقیم": 4173,
      "هماه": 4174,
      "تصویر": 4175,
      "موتور": 4176,
      "کنم": 4177,
      "خاک": 4178,
      "رسیدن": 4179,
      "سپس": 4180,
      "شمال": 4181,
      "داشتن": 4182,
      "##لبان": 4183,
      "##کش": 4184,
      "۹۰": 4185,
      "مقای": 4186,
      "شان": 4187,
      "تحول": 4188,
      "رشته": 4189,
      "##کلی": 4190,
      "##طی": 4191,
      "##نام": 4192,
      "درح": 4193,
      "خور": 4194,
      "##نتی": 4195,
      "ازمای": 4196,
      "لحاظ": 4197,
      "جایی": 4198,
      "مطالب": 4199,
      "مساف": 4200,
      "اختلاف": 4201,
      "کشورمان": 4202,
      "صفحه": 4203,
      "وال": 4204,
      "مبت": 4205,
      "اعتباری": 4206,
      "ارتش": 4207,
      "ذخ": 4208,
      "بعضی": 4209,
      "##دیگر": 4210,
      "صدا": 4211,
      "۰۸": 4212,
      "بازارهای": 4213,
      "تاس": 4214,
      "متفاوت": 4215,
      "تنظیم": 4216,
      "دوباره": 4217,
      "نیوز": 4218,
      "واحدهای": 4219,
      "۱۳۹۲": 4220,
      "##ورتی": 4221,
      "تحریمها": 4222,
      "یازدهم": 4223,
      "اندازه": 4224,
      "درو": 4225,
      "پوشش": 4226,
      "گردشگری": 4227,
      "توانست": 4228,
      "##اهند": 4229,
      "ابی": 4230,
      "خس": 4231,
      "مقاومتی": 4232,
      "گروههای": 4233,
      "انسانی": 4234,
      "مقایسه": 4235,
      "موافق": 4236,
      "هنگام": 4237,
      "##وردین": 4238,
      "##وقی": 4239,
      "صاح": 4240,
      "فروردین": 4241,
      "چگونه": 4242,
      "تجه": 4243,
      "کارگرد": 4244,
      "دستگاههای": 4245,
      "##وي": 4246,
      "منفی": 4247,
      "ترد": 4248,
      "قالب": 4249,
      "فاصله": 4250,
      "هزینههای": 4251,
      "تجهیز": 4252,
      "۰۱": 4253,
      "۹۶": 4254,
      "##ناد": 4255,
      "امتی": 4256,
      "توزی": 4257,
      "شرایطی": 4258,
      "حکم": 4259,
      "مرتبط": 4260,
      "فلس": 4261,
      "##اوری": 4262,
      "شمالی": 4263,
      "اولویت": 4264,
      "ازادی": 4265,
      "گونه": 4266,
      "کیلومتر": 4267,
      "نکرده": 4268,
      "بعدی": 4269,
      "بخشهای": 4270,
      "##گفت": 4271,
      "##پایی": 4272,
      "##جد": 4273,
      "##کهای": 4274,
      "بنزین": 4275,
      "نکن": 4276,
      "رکود": 4277,
      "ضد": 4278,
      "کشت": 4279,
      "امیر": 4280,
      "مثال": 4281,
      "##گون": 4282,
      "مبلغ": 4283,
      "##راک": 4284,
      "متوسط": 4285,
      "##وف": 4286,
      "مسابق": 4287,
      "بخو": 4288,
      "همواره": 4289,
      "سخنگ": 4290,
      "تاسیس": 4291,
      "تروریستی": 4292,
      "فعلی": 4293,
      "##کاران": 4294,
      "##ar": 4295,
      "##an": 4296,
      "میهن": 4297,
      "گفتوگو": 4298,
      "برتر": 4299,
      "پایه": 4300,
      "شهریور": 4301,
      "اینها": 4302,
      "##گرام": 4303,
      "صدور": 4304,
      "توزیع": 4305,
      "شدت": 4306,
      "عبار": 4307,
      "کدام": 4308,
      "##برداری": 4309,
      "##روف": 4310,
      "گرم": 4311,
      "مشابه": 4312,
      "بنا": 4313,
      "تشخیص": 4314,
      "##حل": 4315,
      "دم": 4316,
      "جنوب": 4317,
      "بیمارستان": 4318,
      "##یتهای": 4319,
      "حاشیه": 4320,
      "سعودی": 4321,
      "##قهای": 4322,
      "##وانی": 4323,
      "##چی": 4324,
      "مالیات": 4325,
      "بسیج": 4326,
      "##ونت": 4327,
      "۴۵": 4328,
      "تحص": 4329,
      "بدان": 4330,
      "بانکهای": 4331,
      "##جان": 4332,
      "##بندی": 4333,
      "##وله": 4334,
      "ارزیابی": 4335,
      "مقامات": 4336,
      "حرفهای": 4337,
      "##راض": 4338,
      "نسل": 4339,
      "بهع": 4340,
      "باور": 4341,
      "پست": 4342,
      "شخصی": 4343,
      "تاریخی": 4344,
      "##زا": 4345,
      "اندرو": 4346,
      "حالت": 4347,
      "خواب": 4348,
      "##تم": 4349,
      "فردی": 4350,
      "خودروساز": 4351,
      "معمولا": 4352,
      "تصا": 4353,
      "دارایی": 4354,
      "##باز": 4355,
      "برسد": 4356,
      "ماج": 4357,
      "الان": 4358,
      "نمود": 4359,
      "قسمت": 4360,
      "تض": 4361,
      "##سون": 4362,
      "پیشبینی": 4363,
      "میگیر": 4364,
      "ممن": 4365,
      "##ابله": 4366,
      "فرایند": 4367,
      "سخنگوی": 4368,
      "حاکم": 4369,
      "حجت": 4370,
      "##جمهور": 4371,
      "##دس": 4372,
      "مقابله": 4373,
      "حاصل": 4374,
      "##گردد": 4375,
      "فس": 4376,
      "ابان": 4377,
      "نتوان": 4378,
      "دستی": 4379,
      "مهدی": 4380,
      "دانشجویان": 4381,
      "گران": 4382,
      "ابزار": 4383,
      "رح": 4384,
      "وظی": 4385,
      "قطر": 4386,
      "##سب": 4387,
      "رسیدگی": 4388,
      "بازگشت": 4389,
      "اسیا": 4390,
      "اشتب": 4391,
      "قوه": 4392,
      "وسی": 4393,
      "اینجا": 4394,
      "##الیا": 4395,
      "گزین": 4396,
      "مسابقات": 4397,
      "عهده": 4398,
      "مها": 4399,
      "##افظ": 4400,
      "بازدید": 4401,
      "گوش": 4402,
      "تغییرات": 4403,
      "دهم": 4404,
      "دسترسی": 4405,
      "خیر": 4406,
      "سریع": 4407,
      "تقری": 4408,
      "##کنان": 4409,
      "رضا": 4410,
      "##فاف": 4411,
      "##ریزی": 4412,
      "ژاپ": 4413,
      "کلان": 4414,
      "هوایی": 4415,
      "طل": 4416,
      "بازیکنان": 4417,
      "معادل": 4418,
      "حقوقی": 4419,
      "تحویل": 4420,
      "##گل": 4421,
      "محک": 4422,
      "چهر": 4423,
      "سبب": 4424,
      "دیگران": 4425,
      "تولیدی": 4426,
      "ابلا": 4427,
      "هیيت": 4428,
      "واقعیت": 4429,
      "مانده": 4430,
      "بالاتر": 4431,
      "سبک": 4432,
      "منص": 4433,
      "رسانی": 4434,
      "همایش": 4435,
      "بس": 4436,
      "۹۴": 4437,
      "##غذ": 4438,
      "امتیاز": 4439,
      "##وک": 4440,
      "خبرنگاران": 4441,
      "رد": 4442,
      "##زام": 4443,
      "بازرگانی": 4444,
      "گاهی": 4445,
      "##وبه": 4446,
      "ماهه": 4447,
      "۷۰": 4448,
      "برند": 4449,
      "##الع": 4450,
      "عص": 4451,
      "استقبال": 4452,
      "مجاز": 4453,
      "پال": 4454,
      "##انیه": 4455,
      "##مدی": 4456,
      "میگذ": 4457,
      "یابد": 4458,
      "عبد": 4459,
      "ریزی": 4460,
      "مذاکره": 4461,
      "ببین": 4462,
      "شای": 4463,
      "ثابت": 4464,
      "##قاد": 4465,
      "بگو": 4466,
      "##داران": 4467,
      "یکدیگر": 4468,
      "مجمع": 4469,
      "کارهای": 4470,
      "متهم": 4471,
      "##وسی": 4472,
      "مسو": 4473,
      "۰۷": 4474,
      "تحقق": 4475,
      "واب": 4476,
      "گذاشته": 4477,
      "جامع": 4478,
      "تعریف": 4479,
      "تخصصی": 4480,
      "مطل": 4481,
      "شبکههای": 4482,
      "##تاح": 4483,
      "ایف": 4484,
      "فاز": 4485,
      "میبین": 4486,
      "دارم": 4487,
      "##وید": 4488,
      "کا": 4489,
      "پولی": 4490,
      "##ونا": 4491,
      "۸۰": 4492,
      "بشکه": 4493,
      "##روم": 4494,
      "##وج": 4495,
      "استاد": 4496,
      "گوشت": 4497,
      "مجد": 4498,
      "امکانات": 4499,
      "برج": 4500,
      "##زل": 4501,
      "خاصی": 4502,
      "##خصص": 4503,
      "۲۰۱۶": 4504,
      "میکنید": 4505,
      "سفید": 4506,
      "نمیکن": 4507,
      "بازیهای": 4508,
      "##ورو": 4509,
      "خیابان": 4510,
      "تی": 4511,
      "۰۶": 4512,
      "پژوهش": 4513,
      "فرمانده": 4514,
      "نحوه": 4515,
      "دهیم": 4516,
      "الس": 4517,
      "رونق": 4518,
      "نگرانی": 4519,
      "باره": 4520,
      "دنیای": 4521,
      "##تح": 4522,
      "شرکتها": 4523,
      "لغو": 4524,
      "فدراسیون": 4525,
      "بهعنوان": 4526,
      "چهارم": 4527,
      "دوربین": 4528,
      "رود": 4529,
      "اذر": 4530,
      "پوست": 4531,
      "متوجه": 4532,
      "نار": 4533,
      "سند": 4534,
      "موسسات": 4535,
      "خروج": 4536,
      "بزرگی": 4537,
      "رم": 4538,
      "کشوری": 4539,
      "متخصص": 4540,
      "##le": 4541,
      "نیستند": 4542,
      "##or": 4543,
      "نمید": 4544,
      "گفتگو": 4545,
      "ذکر": 4546,
      "##هام": 4547,
      "گذشت": 4548,
      "وظیفه": 4549,
      "نویس": 4550,
      "##بیت": 4551,
      "##گین": 4552,
      "##گز": 4553,
      "دومین": 4554,
      "##کونی": 4555,
      "داستان": 4556,
      "تقریبا": 4557,
      "ممنوع": 4558,
      "بیرون": 4559,
      "بتواند": 4560,
      "سراسر": 4561,
      "فعالان": 4562,
      "##لاک": 4563,
      "نژاد": 4564,
      "##اسلام": 4565,
      "الی": 4566,
      "##ارهای": 4567,
      "دلایل": 4568,
      "پا": 4569,
      "اسراي": 4570,
      "دسته": 4571,
      "های": 4572,
      "##رافیک": 4573,
      "قضا": 4574,
      "امضا": 4575,
      "فرزند": 4576,
      "۲۰۱۷": 4577,
      "رویکرد": 4578,
      "سکه": 4579,
      "اعتراض": 4580,
      "##زان": 4581,
      "جدا": 4582,
      "نشود": 4583,
      "وزن": 4584,
      "افتتاح": 4585,
      "میی": 4586,
      "ماشین": 4587,
      "اخر": 4588,
      "دختر": 4589,
      "بودیم": 4590,
      "##بخت": 4591,
      "توص": 4592,
      "دادگاه": 4593,
      "اشتباه": 4594,
      "توصیه": 4595,
      "مسيولیت": 4596,
      "سخنان": 4597,
      "نوعی": 4598,
      "مصوبه": 4599,
      "متحده": 4600,
      "غذا": 4601,
      "ارشد": 4602,
      "دوستان": 4603,
      "##عود": 4604,
      "سرپر": 4605,
      "معل": 4606,
      "##راتور": 4607,
      "زاده": 4608,
      "گسترده": 4609,
      "##غد": 4610,
      "کاب": 4611,
      "##اسان": 4612,
      "مهار": 4613,
      "گام": 4614,
      "تلویزیون": 4615,
      "##قیه": 4616,
      "پور": 4617,
      "سرم": 4618,
      "دیپ": 4619,
      "##ارچ": 4620,
      "##ارک": 4621,
      "##رفه": 4622,
      "باب": 4623,
      "طوری": 4624,
      "یاداور": 4625,
      "رسانهها": 4626,
      "پنجشنبه": 4627,
      "کشف": 4628,
      "##مانان": 4629,
      "##زم": 4630,
      "انگلیس": 4631,
      "حکوم": 4632,
      "تکمیل": 4633,
      "پاید": 4634,
      "مصوب": 4635,
      "خودشان": 4636,
      "نامزد": 4637,
      "##ژانس": 4638,
      "قبلی": 4639,
      "دارید": 4640,
      "کنندگان": 4641,
      "مثلا": 4642,
      "بندی": 4643,
      "##گزین": 4644,
      "مشغ": 4645,
      "اورده": 4646,
      "طرحهای": 4647,
      "شرق": 4648,
      "نیازمند": 4649,
      "زده": 4650,
      "##طر": 4651,
      "عدالت": 4652,
      "هشد": 4653,
      "سالانه": 4654,
      "تماس": 4655,
      "مهمی": 4656,
      "خش": 4657,
      "ابلاغ": 4658,
      "افغان": 4659,
      "نقطه": 4660,
      "کالاهای": 4661,
      "متعد": 4662,
      "##ویم": 4663,
      "##لیسی": 4664,
      "کرمان": 4665,
      "##۲۰": 4666,
      "حتما": 4667,
      "تعهد": 4668,
      "##ملل": 4669,
      "لحظه": 4670,
      "پروژ": 4671,
      "ورز": 4672,
      "دیپلم": 4673,
      "دین": 4674,
      "خلی": 4675,
      "##اندازی": 4676,
      "قیمتها": 4677,
      "پشتی": 4678,
      "موب": 4679,
      "سریال": 4680,
      "مقاومت": 4681,
      "مقررات": 4682,
      "کشته": 4683,
      "قبول": 4684,
      "بیت": 4685,
      "سرطان": 4686,
      "##امت": 4687,
      "چندین": 4688,
      "هماهنگی": 4689,
      "گمرک": 4690,
      "۳۰۰": 4691,
      "نوج": 4692,
      "روزها": 4693,
      "##علی": 4694,
      "قطعا": 4695,
      "تصاویر": 4696,
      "ناب": 4697,
      "شهروندان": 4698,
      "ایالات": 4699,
      "علیر": 4700,
      "##عب": 4701,
      "قم": 4702,
      "بودم": 4703,
      "شهرهای": 4704,
      "اروپایی": 4705,
      "##نیم": 4706,
      "ملل": 4707,
      "کشتی": 4708,
      "دهید": 4709,
      "درون": 4710,
      "ابراز": 4711,
      "ماز": 4712,
      "سامان": 4713,
      "فارسی": 4714,
      "سنگین": 4715,
      "##بیه": 4716,
      "مای": 4717,
      "تومانی": 4718,
      "نمونه": 4719,
      "شفاف": 4720,
      "صورتی": 4721,
      "سران": 4722,
      "رفتن": 4723,
      "دعوت": 4724,
      "شناخته": 4725,
      "عبارت": 4726,
      "##شاد": 4727,
      "مطالعه": 4728,
      "ازمون": 4729,
      "منافع": 4730,
      "الح": 4731,
      "نمیتواند": 4732,
      "##امله": 4733,
      "رسانههای": 4734,
      "##کری": 4735,
      "مدیره": 4736,
      "##ودگی": 4737,
      "کارخانه": 4738,
      "اهل": 4739,
      "تکنولوژی": 4740,
      "فرم": 4741,
      "##نز": 4742,
      "مسجد": 4743,
      "عمده": 4744,
      "##ارف": 4745,
      "۹۲": 4746,
      "لیست": 4747,
      "تحریمهای": 4748,
      "انگی": 4749,
      "ماهی": 4750,
      "##ادار": 4751,
      "نقاط": 4752,
      "هنری": 4753,
      "تفاوت": 4754,
      "##ادن": 4755,
      "تعامل": 4756,
      "لذا": 4757,
      "نمیکند": 4758,
      "مشغول": 4759,
      "ترا": 4760,
      "اپل": 4761,
      "##غم": 4762,
      "##اصر": 4763,
      "ازمایش": 4764,
      "##۵۰": 4765,
      "##ساخت": 4766,
      "##وذ": 4767,
      "خانم": 4768,
      "##فاظ": 4769,
      "##سنج": 4770,
      "میوه": 4771,
      "تکر": 4772,
      "پرواز": 4773,
      "فرودگاه": 4774,
      "وعده": 4775,
      "منبع": 4776,
      "##الد": 4777,
      "مذکور": 4778,
      "پیشنهادی": 4779,
      "تقد": 4780,
      "ساده": 4781,
      "مول": 4782,
      "قران": 4783,
      "مقدس": 4784,
      "نظیر": 4785,
      "دادهاند": 4786,
      "استرات": 4787,
      "##ربایج": 4788,
      "پیم": 4789,
      "معامله": 4790,
      "اوپ": 4791,
      "جزيی": 4792,
      "عضویت": 4793,
      "مردمی": 4794,
      "تجهیزات": 4795,
      "ایل": 4796,
      "زنده": 4797,
      "اپراتور": 4798,
      "سابقه": 4799,
      "کانال": 4800,
      "اگاهی": 4801,
      "بان": 4802,
      "صحنه": 4803,
      "زود": 4804,
      "روغ": 4805,
      "اذربایج": 4806,
      "مختل": 4807,
      "صهی": 4808,
      "اهن": 4809,
      "درد": 4810,
      "##اء": 4811,
      "تعدادی": 4812,
      "استراتژی": 4813,
      "##انده": 4814,
      "علاقه": 4815,
      "دخ": 4816,
      "درجه": 4817,
      "پایت": 4818,
      "اظهارات": 4819,
      "لایحه": 4820,
      "کف": 4821,
      "توجهی": 4822,
      "حداک": 4823,
      "##نهای": 4824,
      "ویت": 4825,
      "##ناک": 4826,
      "سک": 4827,
      "پارس": 4828,
      "کارگران": 4829,
      "##واری": 4830,
      "میخ": 4831,
      "کیلو": 4832,
      "اصلا": 4833,
      "فولاد": 4834,
      "پالایش": 4835,
      "علم": 4836,
      "تخلف": 4837,
      "تند": 4838,
      "جبه": 4839,
      "پایتخت": 4840,
      "اید": 4841,
      "فساد": 4842,
      "وزارتخانه": 4843,
      "##امبر": 4844,
      "روب": 4845,
      "نصب": 4846,
      "چیست": 4847,
      "انتظامی": 4848,
      "مییابد": 4849,
      "موقعیت": 4850,
      "عزی": 4851,
      "سایپا": 4852,
      "جایگزین": 4853,
      "کمبود": 4854,
      "لباس": 4855,
      "اسم": 4856,
      "توانایی": 4857,
      "زیب": 4858,
      "##at": 4859,
      "سبز": 4860,
      "میداد": 4861,
      "جایزه": 4862,
      "##شهر": 4863,
      "##st": 4864,
      "اذربایجان": 4865,
      "پاد": 4866,
      "صلاح": 4867,
      "یورو": 4868,
      "مصاح": 4869,
      "۳۲": 4870,
      "تبلیغات": 4871,
      "مالیاتی": 4872,
      "صدای": 4873,
      "ورزشی": 4874,
      "مشهد": 4875,
      "میگیرند": 4876,
      "ویر": 4877,
      "صهیونی": 4878,
      "قابلیت": 4879,
      "##رض": 4880,
      "کنونی": 4881,
      "درمانی": 4882,
      "میبرد": 4883,
      "##شاه": 4884,
      "عبور": 4885,
      "اعتقاد": 4886,
      "##لات": 4887,
      "##وقف": 4888,
      "فهر": 4889,
      "اندازی": 4890,
      "معروف": 4891,
      "کاند": 4892,
      "غیرم": 4893,
      "##او": 4894,
      "استخ": 4895,
      "هشدار": 4896,
      "##en": 4897,
      "سالها": 4898,
      "صاحب": 4899,
      "بازیگر": 4900,
      "توق": 4901,
      "##میلی": 4902,
      "مقدم": 4903,
      "##ri": 4904,
      "##احت": 4905,
      "ساختار": 4906,
      "نبوده": 4907,
      "تدوین": 4908,
      "روستایی": 4909,
      "سیاه": 4910,
      "هرچ": 4911,
      "##لیف": 4912,
      "کمپانی": 4913,
      "##طرف": 4914,
      "افس": 4915,
      "حفاظ": 4916,
      "برداری": 4917,
      "تور": 4918,
      "تمای": 4919,
      "کنس": 4920,
      "برنامهریزی": 4921,
      "تاز": 4922,
      "انص": 4923,
      "مدیرکل": 4924,
      "تعط": 4925,
      "چر": 4926,
      "اندروید": 4927,
      "##هها": 4928,
      "متوقف": 4929,
      "حساس": 4930,
      "عش": 4931,
      "ذهن": 4932,
      "بازنش": 4933,
      "اختلال": 4934,
      "معم": 4935,
      "##گرم": 4936,
      "##خار": 4937,
      "امادگی": 4938,
      "انگلیسی": 4939,
      "##صورت": 4940,
      "ژاپن": 4941,
      "تقاضا": 4942,
      "انح": 4943,
      "۳۶": 4944,
      "تحلیلی": 4945,
      "سالم": 4946,
      "تي": 4947,
      "اغلب": 4948,
      "باغ": 4949,
      "ترکیب": 4950,
      "##ورده": 4951,
      "فلسط": 4952,
      "راهکار": 4953,
      "کارکنان": 4954,
      "ضرورت": 4955,
      "عقب": 4956,
      "جالب": 4957,
      "رساند": 4958,
      "نان": 4959,
      "معاونت": 4960,
      "کارشناسی": 4961,
      "ريیسجمهور": 4962,
      "سینمایی": 4963,
      "اسرايیل": 4964,
      "۳۳": 4965,
      "##راج": 4966,
      "ستاره": 4967,
      "شخصیت": 4968,
      "ششم": 4969,
      "رفاه": 4970,
      "ارایه": 4971,
      "شعار": 4972,
      "فرام": 4973,
      "برنج": 4974,
      "شهرسازی": 4975,
      "ادم": 4976,
      "مقدار": 4977,
      "برادر": 4978,
      "میخواهد": 4979,
      "تما": 4980,
      "افغانستان": 4981,
      "##بردی": 4982,
      "##بوب": 4983,
      "انف": 4984,
      "خراسان": 4985,
      "سقف": 4986,
      "پروژههای": 4987,
      "نوجوان": 4988,
      "مربی": 4989,
      "##اما": 4990,
      "منتقل": 4991,
      "مردان": 4992,
      "خلیج": 4993,
      "##ایف": 4994,
      "زیرساخت": 4995,
      "عمر": 4996,
      "فضا": 4997,
      "صاد": 4998,
      "##کات": 4999,
      "مدرسه": 5000,
      "پذیرش": 5001,
      "##انههای": 5002,
      "راهن": 5003,
      "##هاید": 5004,
      "نقد": 5005,
      "##لهای": 5006,
      "##حال": 5007,
      "اوپک": 5008,
      "ارا": 5009,
      "چنان": 5010,
      "مناسبی": 5011,
      "منطقهای": 5012,
      "قاي": 5013,
      "انتخاباتی": 5014,
      "واس": 5015,
      "۴۲": 5016,
      "##al": 5017,
      "تمرین": 5018,
      "بگذار": 5019,
      "##ندم": 5020,
      "نفوذ": 5021,
      "خودروسازان": 5022,
      "مخاب": 5023,
      "۹۳": 5024,
      "بتوانند": 5025,
      "عربی": 5026,
      "دستاورد": 5027,
      "احتمالا": 5028,
      "مدعی": 5029,
      "اصولگر": 5030,
      "نهادهای": 5031,
      "شغل": 5032,
      "##گانه": 5033,
      "##وهای": 5034,
      "موبایل": 5035,
      "قرمز": 5036,
      "۳۷": 5037,
      "۴۴": 5038,
      "اطلاعاتی": 5039,
      "دف": 5040,
      "مسکونی": 5041,
      "##روس": 5042,
      "قتل": 5043,
      "احمدی": 5044,
      "تفاهم": 5045,
      "روس": 5046,
      "سنتی": 5047,
      "##زستان": 5048,
      "بچه": 5049,
      "رز": 5050,
      "دیدگاه": 5051,
      "سامسون": 5052,
      "حقیق": 5053,
      "افزار": 5054,
      "اسناد": 5055,
      "بم": 5056,
      "##میه": 5057,
      "جاده": 5058,
      "##کا": 5059,
      "قادر": 5060,
      "خریداری": 5061,
      "نداریم": 5062,
      "طولانی": 5063,
      "محمود": 5064,
      "شرح": 5065,
      "راهی": 5066,
      "افزوده": 5067,
      "سامسونگ": 5068,
      "تصور": 5069,
      "ریس": 5070,
      "پسر": 5071,
      "شبستان": 5072,
      "##گویی": 5073,
      "##ضان": 5074,
      "اگرچه": 5075,
      "جی": 5076,
      "اینترنتی": 5077,
      "خواستار": 5078,
      "##بیل": 5079,
      "مختلفی": 5080,
      "##حیح": 5081,
      "هرچند": 5082,
      "فهرست": 5083,
      "##جو": 5084,
      "معد": 5085,
      "پیچ": 5086,
      "پارک": 5087,
      "مسلح": 5088,
      "تلگرام": 5089,
      "بنیاد": 5090,
      "##قان": 5091,
      "ایین": 5092,
      "لز": 5093,
      "۳۸": 5094,
      "زند": 5095,
      "دیروز": 5096,
      "حسینی": 5097,
      "پیشگیری": 5098,
      "گونهای": 5099,
      "هدایت": 5100,
      "##ثری": 5101,
      "بیماریهای": 5102,
      "خانوار": 5103,
      "هستم": 5104,
      "گوگل": 5105,
      "رادی": 5106,
      "هستید": 5107,
      "##مي": 5108,
      "پشتیبانی": 5109,
      "نقدین": 5110,
      "حوادث": 5111,
      "الودگی": 5112,
      "##حتی": 5113,
      "تولیدکنندگان": 5114,
      "رونمایی": 5115,
      "شیوه": 5116,
      "جبهه": 5117,
      "نقدینگی": 5118,
      "خاور": 5119,
      "حفاظت": 5120,
      "چینی": 5121,
      "مسوول": 5122,
      "الحس": 5123,
      "بیست": 5124,
      "درحالی": 5125,
      "صفر": 5126,
      "نقدی": 5127,
      "سرمربی": 5128,
      "داشتیم": 5129,
      "میدانند": 5130,
      "اتی": 5131,
      "مطالبات": 5132,
      "یون": 5133,
      "واقعا": 5134,
      "اینگونه": 5135,
      "##اتیک": 5136,
      "##پور": 5137,
      "الف": 5138,
      "##رهای": 5139,
      "باد": 5140,
      "##es": 5141,
      "سرپرست": 5142,
      "سنت": 5143,
      "کارگ": 5144,
      "زندان": 5145,
      "روزی": 5146,
      "##بد": 5147,
      "نماز": 5148,
      "نماد": 5149,
      "##اکی": 5150,
      "ضروری": 5151,
      "زدن": 5152,
      "حاوی": 5153,
      "پرت": 5154,
      "قطعه": 5155,
      "بگیرند": 5156,
      "عجی": 5157,
      "نبا": 5158,
      "کالای": 5159,
      "حکومت": 5160,
      "##عم": 5161,
      "دریایی": 5162,
      "۵۵": 5163,
      "امیدواریم": 5164,
      "عملیاتی": 5165,
      "کلیه": 5166,
      "##خیر": 5167,
      "عادی": 5168,
      "چندان": 5169,
      "ذخیره": 5170,
      "موافقت": 5171,
      "##برند": 5172,
      "مسابقه": 5173,
      "مهندسی": 5174,
      "بالایی": 5175,
      "##عیف": 5176,
      "۴۱": 5177,
      "افتاد": 5178,
      "قهرمانی": 5179,
      "الکترونیکی": 5180,
      "مغز": 5181,
      "##اث": 5182,
      "مانع": 5183,
      "سرا": 5184,
      "حداکثر": 5185,
      "راستا": 5186,
      "مجبور": 5187,
      "مصر": 5188,
      "##سید": 5189,
      "ثبات": 5190,
      "نباشد": 5191,
      "محکوم": 5192,
      "ادبی": 5193,
      "۴۸": 5194,
      "۴۰۰": 5195,
      "##بل": 5196,
      "گندم": 5197,
      "ناح": 5198,
      "ایمنی": 5199,
      "رده": 5200,
      "تردد": 5201,
      "المپی": 5202,
      "معنای": 5203,
      "ارامش": 5204,
      "اکثر": 5205,
      "مطمي": 5206,
      "رضایت": 5207,
      "اباد": 5208,
      "بهطور": 5209,
      "روانی": 5210,
      "محروم": 5211,
      "الکترونیک": 5212,
      "وجه": 5213,
      "ارشاد": 5214,
      "مراحل": 5215,
      "##لح": 5216,
      "##چسب": 5217,
      "روغن": 5218,
      "##مانه": 5219,
      "مکانی": 5220,
      "ایتالله": 5221,
      "اصلاحط": 5222,
      "##جانی": 5223,
      "وقوع": 5224,
      "واگذاری": 5225,
      "مکان": 5226,
      "بارها": 5227,
      "محلی": 5228,
      "##درضا": 5229,
      "سوء": 5230,
      "بیکاری": 5231,
      "خوزستان": 5232,
      "##کسی": 5233,
      "##ینژاد": 5234,
      "چارچ": 5235,
      "نوسان": 5236,
      "۴۳": 5237,
      "میگردد": 5238,
      "اسپ": 5239,
      "درگیری": 5240,
      "##يین": 5241,
      "محدودیت": 5242,
      "چقدر": 5243,
      "چراکه": 5244,
      "تحصیل": 5245,
      "یمن": 5246,
      "گوشیهای": 5247,
      "تشریح": 5248,
      "سخنرانی": 5249,
      "اصلاحات": 5250,
      "گروهی": 5251,
      "مصاحبه": 5252,
      "کابینه": 5253,
      "مدارس": 5254,
      "شرقی": 5255,
      "قلب": 5256,
      "منتظر": 5257,
      "##ویش": 5258,
      "ترافیک": 5259,
      "مخالفت": 5260,
      "اخذ": 5261,
      "خلا": 5262,
      "صرفا": 5263,
      "##سر": 5264,
      "جست": 5265,
      "##زنی": 5266,
      "##ونومی": 5267,
      "اژانس": 5268,
      "تمرک": 5269,
      "جزو": 5270,
      "ایام": 5271,
      "موضوعات": 5272,
      "میتوانیم": 5273,
      "شکایت": 5274,
      "جذاب": 5275,
      "چای": 5276,
      "درک": 5277,
      "اکونومی": 5278,
      "##یش": 5279,
      "##تون": 5280,
      "گزارشی": 5281,
      "##میر": 5282,
      "مدتی": 5283,
      "۳۴": 5284,
      "مصد": 5285,
      "بازاری": 5286,
      "مشتری": 5287,
      "پنجم": 5288,
      "حقیقت": 5289,
      "عدد": 5290,
      "صبحانه": 5291,
      "سرز": 5292,
      "دقت": 5293,
      "دینی": 5294,
      "##جع": 5295,
      "##گرفت": 5296,
      "اختصاصی": 5297,
      "فیزی": 5298,
      "پزشک": 5299,
      "نهم": 5300,
      "##سند": 5301,
      "میراث": 5302,
      "وابسته": 5303,
      "تال": 5304,
      "چارچوب": 5305,
      "نمایندگی": 5306,
      "تدری": 5307,
      "روستا": 5308,
      "شیمی": 5309,
      "خز": 5310,
      "بپرداز": 5311,
      "فرار": 5312,
      "وضع": 5313,
      "خداوند": 5314,
      "تروریست": 5315,
      "پو": 5316,
      "اشک": 5317,
      "حملات": 5318,
      "سلاح": 5319,
      "قدیمی": 5320,
      "##داث": 5321,
      "۱۹۹": 5322,
      "##اذ": 5323,
      "محتر": 5324,
      "##لاقی": 5325,
      "خانگی": 5326,
      "مور": 5327,
      "کوه": 5328,
      "نگران": 5329,
      "عباس": 5330,
      "جزيیات": 5331,
      "داوط": 5332,
      "اجاره": 5333,
      "خاورمی": 5334,
      "سردار": 5335,
      "بتوانیم": 5336,
      "خودم": 5337,
      "ایرنا": 5338,
      "پایانی": 5339,
      "هواپیما": 5340,
      "##افرین": 5341,
      "ایتالیا": 5342,
      "خمینی": 5343,
      "اکونومیست": 5344,
      "۴۶": 5345,
      "اتهام": 5346,
      "ویژگیهای": 5347,
      "رسانهای": 5348,
      "##مالی": 5349,
      "۲۰۱۵": 5350,
      "احداث": 5351,
      "تلویزیونی": 5352,
      "قیمتی": 5353,
      "صدر": 5354,
      "چالش": 5355,
      "##جمهوری": 5356,
      "تمرکز": 5357,
      "سنج": 5358,
      "روزه": 5359,
      "دانشجو": 5360,
      "##گن": 5361,
      "تقسیم": 5362,
      "##گاری": 5363,
      "عدهای": 5364,
      "فرزندان": 5365,
      "نظرات": 5366,
      "خالی": 5367,
      "مطالعات": 5368,
      "سیما": 5369,
      "##گذاران": 5370,
      "صحیح": 5371,
      "##ههایی": 5372,
      "محبوب": 5373,
      "استانهای": 5374,
      "ناحیه": 5375,
      "شعب": 5376,
      "ایفون": 5377,
      "مشکلی": 5378,
      "##اوی": 5379,
      "خلاف": 5380,
      "۱۳۹۱": 5381,
      "##انیا": 5382,
      "الا": 5383,
      "مستند": 5384,
      "رشت": 5385,
      "##وح": 5386,
      "خاورمیانه": 5387,
      "##ساند": 5388,
      "تبری": 5389,
      "میداند": 5390,
      "بیماران": 5391,
      "مشمول": 5392,
      "##ستر": 5393,
      "اوب": 5394,
      "تخریب": 5395,
      "گذاران": 5396,
      "کرب": 5397,
      "خات": 5398,
      "روشهای": 5399,
      "##رسانی": 5400,
      "مواردی": 5401,
      "حمید": 5402,
      "محسن": 5403,
      "درس": 5404,
      "خسارت": 5405,
      "راحتی": 5406,
      "برود": 5407,
      "همسر": 5408,
      "روبرو": 5409,
      "بازداشت": 5410,
      "اشنا": 5411,
      "محمدرضا": 5412,
      "##ثی": 5413,
      "سقوط": 5414,
      "برچسب": 5415,
      "بهار": 5416,
      "##بوع": 5417,
      "بلو": 5418,
      "۳۹": 5419,
      "افتاده": 5420,
      "۴۷": 5421,
      "شهادت": 5422,
      "فیلمهای": 5423,
      "نامهای": 5424,
      "نجات": 5425,
      "مظ": 5426,
      "تقاضای": 5427,
      "جلسات": 5428,
      "تکلیف": 5429,
      "ارتقای": 5430,
      "روبه": 5431,
      "میب": 5432,
      "تیمهای": 5433,
      "اتوب": 5434,
      "جمعی": 5435,
      "خودروها": 5436,
      "بنده": 5437,
      "گرفتند": 5438,
      "تکرار": 5439,
      "نمیده": 5440,
      "غل": 5441,
      "میگفت": 5442,
      "##قیب": 5443,
      "نمیدان": 5444,
      "##مزد": 5445,
      "فراورده": 5446,
      "جواب": 5447,
      "احتر": 5448,
      "##دت": 5449,
      "اداری": 5450,
      "هوای": 5451,
      "##اضیان": 5452,
      "معن": 5453,
      "انقلابی": 5454,
      "قدم": 5455,
      "خورش": 5456,
      "##روت": 5457,
      "##پرس": 5458,
      "انداز": 5459,
      "ادعا": 5460,
      "##نند": 5461,
      "باند": 5462,
      "اطمین": 5463,
      "ضعف": 5464,
      "جلب": 5465,
      "وظایف": 5466,
      "بالات": 5467,
      "##ارش": 5468,
      "گفتند": 5469,
      "پرچ": 5470,
      "جدول": 5471,
      "شعبه": 5472,
      "بهای": 5473,
      "##لاس": 5474,
      "بدهد": 5475,
      "لط": 5476,
      "##شید": 5477,
      "مخدر": 5478,
      "##الح": 5479,
      "طبقه": 5480,
      "##دامی": 5481,
      "اخیرا": 5482,
      "پرداز": 5483,
      "عز": 5484,
      "متقاضیان": 5485,
      "سد": 5486,
      "##اخر": 5487,
      "##قر": 5488,
      "ارزان": 5489,
      "قز": 5490,
      "صهیونیستی": 5491,
      "##عان": 5492,
      "عاش": 5493,
      "##ویری": 5494,
      "کردهایم": 5495,
      "همانطور": 5496,
      "تسنیم": 5497,
      "زنگ": 5498,
      "هرگونه": 5499,
      "پیاده": 5500,
      "تعاون": 5501,
      "بوی": 5502,
      "سهامد": 5503,
      "عمد": 5504,
      "تسهیل": 5505,
      "فت": 5506,
      "##گاهها": 5507,
      "بانکداری": 5508,
      "سم": 5509,
      "رانندگی": 5510,
      "##دایی": 5511,
      "اطراف": 5512,
      "##ذیری": 5513,
      "لبنان": 5514,
      "سینمای": 5515,
      "قراردادهای": 5516,
      "پایدار": 5517,
      "##کران": 5518,
      "صلاحیت": 5519,
      "مخصوص": 5520,
      "خوشبخت": 5521,
      "پرسش": 5522,
      "اوباما": 5523,
      "مذه": 5524,
      "محترم": 5525,
      "ها": 5526,
      "احمدینژاد": 5527,
      "فردا": 5528,
      "حوزههای": 5529,
      "اطمینان": 5530,
      "وسیله": 5531,
      "حر": 5532,
      "##ستند": 5533,
      "مى": 5534,
      "دهنده": 5535,
      "مگ": 5536,
      "مالک": 5537,
      "مند": 5538,
      "بندر": 5539,
      "اعط": 5540,
      "داي": 5541,
      "منع": 5542,
      "الاسلام": 5543,
      "ظاهر": 5544,
      "توی": 5545,
      "الب": 5546,
      "##افظه": 5547,
      "##۳۰": 5548,
      "ساماندهی": 5549,
      "محققان": 5550,
      "ایرانیان": 5551,
      "توصی": 5552,
      "سالن": 5553,
      "مجدد": 5554,
      "##صیلی": 5555,
      "ارتباطی": 5556,
      "##ویق": 5557,
      "مفید": 5558,
      "قطعات": 5559,
      "تعرفه": 5560,
      "توانسته": 5561,
      "راهاندازی": 5562,
      "افریق": 5563,
      "شدم": 5564,
      "شوید": 5565,
      "گیاه": 5566,
      "ویتامین": 5567,
      "صادراتی": 5568,
      "##یسی": 5569,
      "##لیم": 5570,
      "تدا": 5571,
      "الق": 5572,
      "الت": 5573,
      "لزوم": 5574,
      "میانگین": 5575,
      "کانون": 5576,
      "ظریف": 5577,
      "زم": 5578,
      "شورا": 5579,
      "زاي": 5580,
      "دون": 5581,
      "پلاس": 5582,
      "##وکر": 5583,
      "کت": 5584,
      "علاق": 5585,
      "تحولات": 5586,
      "سعید": 5587,
      "کلاس": 5588,
      "استانه": 5589,
      "نگهداری": 5590,
      "معتقدند": 5591,
      "تغذ": 5592,
      "نادر": 5593,
      "پاکستان": 5594,
      "خوردن": 5595,
      "##خواه": 5596,
      "عوار": 5597,
      "پدیده": 5598,
      "انب": 5599,
      "جلوی": 5600,
      "متعلق": 5601,
      "##۸۰": 5602,
      "دوازدهم": 5603,
      "درامدهای": 5604,
      "##زایی": 5605,
      "معرض": 5606,
      "جبران": 5607,
      "ادع": 5608,
      "محاس": 5609,
      "برده": 5610,
      "##غدغ": 5611,
      "هرچه": 5612,
      "مستقل": 5613,
      "دلاری": 5614,
      "ریسک": 5615,
      "درگیر": 5616,
      "شبیه": 5617,
      "مراق": 5618,
      "کارگردانی": 5619,
      "توقف": 5620,
      "بهر": 5621,
      "سالی": 5622,
      "سان": 5623,
      "کامپ": 5624,
      "میخواهند": 5625,
      "##کم": 5626,
      "مطابق": 5627,
      "سختی": 5628,
      "قطعی": 5629,
      "اکت": 5630,
      "نمایند": 5631,
      "طبیعت": 5632,
      "دغدغ": 5633,
      "داشتهاند": 5634,
      "##زای": 5635,
      "##وعی": 5636,
      "هویت": 5637,
      "تولیدات": 5638,
      "##لیکی": 5639,
      "دستورالع": 5640,
      "تمایل": 5641,
      "گفتم": 5642,
      "کلم": 5643,
      "عجیب": 5644,
      "مرور": 5645,
      "ایده": 5646,
      "کارگردان": 5647,
      "میپرداز": 5648,
      "##شنگ": 5649,
      "اسپانی": 5650,
      "##ولهای": 5651,
      "نفع": 5652,
      "تخم": 5653,
      "##جار": 5654,
      "قربانی": 5655,
      "کنگر": 5656,
      "##يو": 5657,
      "##رز": 5658,
      "صلح": 5659,
      "موقع": 5660,
      "المپیک": 5661,
      "نع": 5662,
      "کاربر": 5663,
      "همکاریهای": 5664,
      "خطوط": 5665,
      "طلب": 5666,
      "اسب": 5667,
      "روید": 5668,
      "کنفر": 5669,
      "دستگیر": 5670,
      "بابت": 5671,
      "##عاد": 5672,
      "بشر": 5673,
      "جرم": 5674,
      "مهاج": 5675,
      "حامی": 5676,
      "احترام": 5677,
      "استی": 5678,
      "سیب": 5679,
      "##حات": 5680,
      "تياتر": 5681,
      "۴۹": 5682,
      "##۷۰": 5683,
      "منح": 5684,
      "نفس": 5685,
      "قلبی": 5686,
      "بودهاند": 5687,
      "امضای": 5688,
      "پیوست": 5689,
      "##باف": 5690,
      "سرقت": 5691,
      "تروریسم": 5692,
      "افتخار": 5693,
      "تقدیر": 5694,
      "مربوطه": 5695,
      "چک": 5696,
      "سیر": 5697,
      "سومین": 5698,
      "##۶۰": 5699,
      "علیرضا": 5700,
      "هل": 5701,
      "##انا": 5702,
      "##ادف": 5703,
      "تدبیر": 5704,
      "تربیت": 5705,
      "نوین": 5706,
      "##ارتی": 5707,
      "محاسبه": 5708,
      "اعزام": 5709,
      "نگهبان": 5710,
      "پژو": 5711,
      "ثروت": 5712,
      "درخصوص": 5713,
      "رایگان": 5714,
      "اتم": 5715,
      "اتفاقی": 5716,
      "ماههای": 5717,
      "زودی": 5718,
      "یه": 5719,
      "ترس": 5720,
      "چهره": 5721,
      "##ستری": 5722,
      "بدین": 5723,
      "##اغ": 5724,
      "مطلوب": 5725,
      "اون": 5726,
      "ترکی": 5727,
      "رکورد": 5728,
      "مقط": 5729,
      "اتوم": 5730,
      "۹۱": 5731,
      "کاخ": 5732,
      "##پین": 5733,
      "سازمانهای": 5734,
      "۸۸": 5735,
      "احتمالی": 5736,
      "نویسنده": 5737,
      "##ویا": 5738,
      "افکار": 5739,
      "##راری": 5740,
      "##اهید": 5741,
      "په": 5742,
      "مشکلاتی": 5743,
      "جنس": 5744,
      "جنسی": 5745,
      "ضربه": 5746,
      "##کام": 5747,
      "انداخت": 5748,
      "معنی": 5749,
      "تاخیر": 5750,
      "فرانس": 5751,
      "دشمنان": 5752,
      "نیازهای": 5753,
      "اواخر": 5754,
      "هنرمندان": 5755,
      "امدن": 5756,
      "سیل": 5757,
      "تابستان": 5758,
      "کنگره": 5759,
      "##اونی": 5760,
      "##ژن": 5761,
      "اگاه": 5762,
      "شهردار": 5763,
      "وحدت": 5764,
      "کجا": 5765,
      "میافت": 5766,
      "خشک": 5767,
      "برطرف": 5768,
      "##اباد": 5769,
      "منتقد": 5770,
      "مبتلا": 5771,
      "کلید": 5772,
      "امارات": 5773,
      "دستورالعمل": 5774,
      "##گوییم": 5775,
      "هرگز": 5776,
      "موان": 5777,
      "امروزه": 5778,
      "مطبوع": 5779,
      "تعاونی": 5780,
      "هواپیمایی": 5781,
      "کری": 5782,
      "اصولگرایان": 5783,
      "موشک": 5784,
      "همراهی": 5785,
      "شیمیایی": 5786,
      "حافظ": 5787,
      "ابعاد": 5788,
      "اتخ": 5789,
      "گزینه": 5790,
      "رمضان": 5791,
      "خودروسازی": 5792,
      "##اموز": 5793,
      "۲۰۱۴": 5794,
      "##مدت": 5795,
      "هتل": 5796,
      "ماموران": 5797,
      "##as": 5798,
      "قرن": 5799,
      "##امون": 5800,
      "##ay": 5801,
      "دیدن": 5802,
      "قرض": 5803,
      "کنفرانس": 5804,
      "خلق": 5805,
      "##املی": 5806,
      "نماید": 5807,
      "درخت": 5808,
      "داری": 5809,
      "مزای": 5810,
      "##ic": 5811,
      "عوارض": 5812,
      "وارداتی": 5813,
      "لوازم": 5814,
      "کاندید": 5815,
      "اتخاذ": 5816,
      "##اندن": 5817,
      "##گردان": 5818,
      "نشانی": 5819,
      "الهی": 5820,
      "تز": 5821,
      "فراموش": 5822,
      "الملل": 5823,
      "لاری": 5824,
      "##ارات": 5825,
      "اوایل": 5826,
      "واسطه": 5827,
      "شکر": 5828,
      "##ورک": 5829,
      "یارانهها": 5830,
      "بگذ": 5831,
      "مخاطبان": 5832,
      "##وتر": 5833,
      "شهرک": 5834,
      "بریت": 5835,
      "##اداران": 5836,
      "وسایل": 5837,
      "##کتور": 5838,
      "کیلوگرم": 5839,
      "##میق": 5840,
      "واگذار": 5841,
      "بافت": 5842,
      "حدی": 5843,
      "محدوده": 5844,
      "##بتی": 5845,
      "تماشا": 5846,
      "اکس": 5847,
      "زخ": 5848,
      "اپلیکی": 5849,
      "مگر": 5850,
      "گاه": 5851,
      "برقرار": 5852,
      "قايم": 5853,
      "مبنای": 5854,
      "ظرفیتهای": 5855,
      "##اع": 5856,
      "۵۱": 5857,
      "پیشین": 5858,
      "چطور": 5859,
      "قول": 5860,
      "##وران": 5861,
      "##ردگی": 5862,
      "##ضل": 5863,
      "تغذیه": 5864,
      "لحظ": 5865,
      "##نامهای": 5866,
      "##رضا": 5867,
      "سرباز": 5868,
      "خواند": 5869,
      "محت": 5870,
      "موضع": 5871,
      "همانند": 5872,
      "خوشبختانه": 5873,
      "خواسته": 5874,
      "##خود": 5875,
      "حاکی": 5876,
      "صادق": 5877,
      "گرفتهاند": 5878,
      "قلم": 5879,
      "دیوان": 5880,
      "##اشی": 5881,
      "خواهید": 5882,
      "##داد": 5883,
      "اخلاقی": 5884,
      "قالی": 5885,
      "همت": 5886,
      "##شتر": 5887,
      "بازرسی": 5888,
      "ناک": 5889,
      "##ro": 5890,
      "##چر": 5891,
      "رضوی": 5892,
      "##بند": 5893,
      "##ابری": 5894,
      "##ایست": 5895,
      "سرک": 5896,
      "مازند": 5897,
      "پارل": 5898,
      "چش": 5899,
      "اتوبوس": 5900,
      "##ستا": 5901,
      "تبریز": 5902,
      "قوی": 5903,
      "اعتی": 5904,
      "ایمیل": 5905,
      "بید": 5906,
      "پرداخته": 5907,
      "زیبا": 5908,
      "ویژهای": 5909,
      "دندان": 5910,
      "دموکر": 5911,
      "نمیر": 5912,
      "اشنایی": 5913,
      "##یترین": 5914,
      "شار": 5915,
      "##یلان": 5916,
      "نگاهی": 5917,
      "معدنی": 5918,
      "برداشته": 5919,
      "تفکر": 5920,
      "اوری": 5921,
      "##الص": 5922,
      "کشاورزان": 5923,
      "مناسبت": 5924,
      "مجه": 5925,
      "کاپ": 5926,
      "اعتیاد": 5927,
      "##ct": 5928,
      "##قات": 5929,
      "مخابرات": 5930,
      "##شهری": 5931,
      "کامپی": 5932,
      "اپلیکیشن": 5933,
      "میاورد": 5934,
      "۶۰۰": 5935,
      "گذر": 5936,
      "دانشگاهها": 5937,
      "راحت": 5938,
      "تشکر": 5939,
      "ماجرا": 5940,
      "##ایب": 5941,
      "لند": 5942,
      "گذار": 5943,
      "گازی": 5944,
      "قاضی": 5945,
      "قیمتهای": 5946,
      "شیخ": 5947,
      "##ادا": 5948,
      "##ریمه": 5949,
      "سراغ": 5950,
      "رقابتهای": 5951,
      "بیانیه": 5952,
      "##صره": 5953,
      "جزیره": 5954,
      "۷۰۰": 5955,
      "اردو": 5956,
      "نمیکنند": 5957,
      "خودمان": 5958,
      "لاریجانی": 5959,
      "ارتفا": 5960,
      "##ایق": 5961,
      "هواداران": 5962,
      "داشتم": 5963,
      "روایت": 5964,
      "نوز": 5965,
      "مدافع": 5966,
      "##عفر": 5967,
      "##ضاع": 5968,
      "سرزمین": 5969,
      "میخوان": 5970,
      "##فرو": 5971,
      "مسی": 5972,
      "استر": 5973,
      "کشیده": 5974,
      "ریشه": 5975,
      "اخلاق": 5976,
      "شرط": 5977,
      "۵۷": 5978,
      "##ag": 5979,
      "##انداز": 5980,
      "##دهمین": 5981,
      "متناسب": 5982,
      "۱۵۰": 5983,
      "ناو": 5984,
      "برنده": 5985,
      "سرانجام": 5986,
      "فضایی": 5987,
      "##صاب": 5988,
      "ادبیات": 5989,
      "اتفاقات": 5990,
      "بالغ": 5991,
      "##فاوتی": 5992,
      "مشترکین": 5993,
      "ابتلا": 5994,
      "مار": 5995,
      "جنب": 5996,
      "درستی": 5997,
      "براورد": 5998,
      "همکاران": 5999,
      "قهرمان": 6000,
      "##قیقی": 6001,
      "تحصیلی": 6002,
      "سبزی": 6003,
      "##it": 6004,
      "رست": 6005,
      "فرس": 6006,
      "سرخ": 6007,
      "##عل": 6008,
      "##۴۰": 6009,
      "همد": 6010,
      "داور": 6011,
      "##am": 6012,
      "عید": 6013,
      "موش": 6014,
      "میزند": 6015,
      "##ابتی": 6016,
      "مقرر": 6017,
      "مسافر": 6018,
      "دستیابی": 6019,
      "##الهای": 6020,
      "موانع": 6021,
      "##لود": 6022,
      "درام": 6023,
      "ولایت": 6024,
      "صنفی": 6025,
      "فری": 6026,
      "##خاص": 6027,
      "مساحت": 6028,
      "خطرناک": 6029,
      "دادستان": 6030,
      "بردن": 6031,
      "فراوردههای": 6032,
      "تعهدات": 6033,
      "##ed": 6034,
      "وید": 6035,
      "گردید": 6036,
      "میخواست": 6037,
      "مازندران": 6038,
      "##اطع": 6039,
      "هکت": 6040,
      "##کتری": 6041,
      "بازاریابی": 6042,
      "تمدید": 6043,
      "برقراری": 6044,
      "البر": 6045,
      "پروت": 6046,
      "برزی": 6047,
      "##ایتی": 6048,
      "یزد": 6049,
      "فکری": 6050,
      "##کشی": 6051,
      "چربی": 6052,
      "نوروز": 6053,
      "نسیم": 6054,
      "اشتراک": 6055,
      "فجر": 6056,
      "##ایشی": 6057,
      "فلسطین": 6058,
      "زوج": 6059,
      "۷۵": 6060,
      "قدرتمند": 6061,
      "##نشین": 6062,
      "مفه": 6063,
      "میزبان": 6064,
      "##بخش": 6065,
      "سفیر": 6066,
      "هج": 6067,
      "##افز": 6068,
      "دونالد": 6069,
      "گفتنی": 6070,
      "نیوی": 6071,
      "مذهبی": 6072,
      "ايت": 6073,
      "گونا": 6074,
      "نات": 6075,
      "دانلود": 6076,
      "شهرها": 6077,
      "قبیل": 6078,
      "منطقی": 6079,
      "هنگامی": 6080,
      "##افزار": 6081,
      "مبادل": 6082,
      "مترو": 6083,
      "موزه": 6084,
      "ژان": 6085,
      "خطاب": 6086,
      "غر": 6087,
      "متحد": 6088,
      "مجهز": 6089,
      "عشق": 6090,
      "تداوم": 6091,
      "بقیه": 6092,
      "معتبر": 6093,
      "سالگی": 6094,
      "##خان": 6095,
      "عزیز": 6096,
      "مطمين": 6097,
      "##خره": 6098,
      "کامی": 6099,
      "یادداشت": 6100,
      "اجلاس": 6101,
      "واری": 6102,
      "پیرامون": 6103,
      "نکنید": 6104,
      "مخاطب": 6105,
      "##وای": 6106,
      "وزرای": 6107,
      "زیبایی": 6108,
      "برمی": 6109,
      "##مع": 6110,
      "شبه": 6111,
      "انع": 6112,
      "۸۰۰": 6113,
      "میروند": 6114,
      "سوي": 6115,
      "اوج": 6116,
      "خودتان": 6117,
      "راههای": 6118,
      "هما": 6119,
      "اقدامی": 6120,
      "تروی": 6121,
      "##ظف": 6122,
      "جدیدترین": 6123,
      "##ذکر": 6124,
      "۵۲": 6125,
      "والدین": 6126,
      "##احی": 6127,
      "نزد": 6128,
      "کلاه": 6129,
      "منزل": 6130,
      "##شند": 6131,
      "افرا": 6132,
      "زنجانی": 6133,
      "فراوانی": 6134,
      "تصادف": 6135,
      "فرانسوی": 6136,
      "مض": 6137,
      "شعر": 6138,
      "بازیگران": 6139,
      "بوش": 6140,
      "شهدا": 6141,
      "مسوولان": 6142,
      "سهامداران": 6143,
      "بهصورت": 6144,
      "شرک": 6145,
      "مباح": 6146,
      "دروغ": 6147,
      "خبرد": 6148,
      "بدهند": 6149,
      "شهدای": 6150,
      "بیاید": 6151,
      "##گرا": 6152,
      "استانها": 6153,
      "##شدید": 6154,
      "نشانه": 6155,
      "##راحت": 6156,
      "زمینی": 6157,
      "اوضاع": 6158,
      "محتو": 6159,
      "گلکسی": 6160,
      "چاق": 6161,
      "عک": 6162,
      "متعدد": 6163,
      "موظف": 6164,
      "##فرمای": 6165,
      "تاثیرگذار": 6166,
      "کلیدی": 6167,
      "نزدیکی": 6168,
      "۰۰۰": 6169,
      "کمترین": 6170,
      "دانشگاهی": 6171,
      "##روه": 6172,
      "واشنگ": 6173,
      "اطلاعی": 6174,
      "دفاعی": 6175,
      "نده": 6176,
      "پیشرفته": 6177,
      "جس": 6178,
      "روستای": 6179,
      "نموده": 6180,
      "فوری": 6181,
      "دروازه": 6182,
      "حافظه": 6183,
      "مبتنی": 6184,
      "اموال": 6185,
      "گن": 6186,
      "تشویق": 6187,
      "متعددی": 6188,
      "کنون": 6189,
      "مجری": 6190,
      "##انش": 6191,
      "استرس": 6192,
      "اتمام": 6193,
      "واشنگتن": 6194,
      "امداد": 6195,
      "قی": 6196,
      "تشدید": 6197,
      "ببر": 6198,
      "##یک": 6199,
      "پزشکان": 6200,
      "##نوشت": 6201,
      "دستمزد": 6202,
      "دخالت": 6203,
      "بالاترین": 6204,
      "##شای": 6205,
      "##راح": 6206,
      "مشهور": 6207,
      "ضعیف": 6208,
      "امیدوارم": 6209,
      "##ولد": 6210,
      "قض": 6211,
      "##شنامه": 6212,
      "تلاشهای": 6213,
      "##pt": 6214,
      "بگویم": 6215,
      "تجدید": 6216,
      "تنگ": 6217,
      "۵۹": 6218,
      "خشونت": 6219,
      "گیگ": 6220,
      "بومی": 6221,
      "مراجع": 6222,
      "جراحی": 6223,
      "کارافرین": 6224,
      "لین": 6225,
      "قند": 6226,
      "انقدر": 6227,
      "##جات": 6228,
      "موضوعی": 6229,
      "شیراز": 6230,
      "بهداشتی": 6231,
      "##حسین": 6232,
      "قالیباف": 6233,
      "توپ": 6234,
      "ترجی": 6235,
      "لندن": 6236,
      "مشرو": 6237,
      "تیرماه": 6238,
      "فارغ": 6239,
      "##ing": 6240,
      "علنی": 6241,
      "خد": 6242,
      "##امع": 6243,
      "تقل": 6244,
      "ردی": 6245,
      "هکتار": 6246,
      "پدیدار": 6247,
      "##re": 6248,
      "##کده": 6249,
      "##اضع": 6250,
      "سازنده": 6251,
      "نکند": 6252,
      "لر": 6253,
      "میدهیم": 6254,
      "افتاب": 6255,
      "##اقع": 6256,
      "علاي": 6257,
      "مسعود": 6258,
      "میخواهیم": 6259,
      "توج": 6260,
      "فرست": 6261,
      "میرفت": 6262,
      "قدس": 6263,
      "۵۳": 6264,
      "مدرن": 6265,
      "طلاق": 6266,
      "بهرهبرداری": 6267,
      "بنیان": 6268,
      "پیوند": 6269,
      "##کسیون": 6270,
      "کردستان": 6271,
      "ادعای": 6272,
      "فراوان": 6273,
      "امریکاییها": 6274,
      "ذخایر": 6275,
      "##بههای": 6276,
      "فن": 6277,
      "##جز": 6278,
      "۷۲": 6279,
      "بهد": 6280,
      "مایک": 6281,
      "##جن": 6282,
      "مسلمانان": 6283,
      "له": 6284,
      "##شب": 6285,
      "نیازی": 6286,
      "##دود": 6287,
      "۵۸": 6288,
      "ساکن": 6289,
      "نیویورک": 6290,
      "مخالفان": 6291,
      "##تمع": 6292,
      "زیان": 6293,
      "تحمل": 6294,
      "##عهده": 6295,
      "ضرب": 6296,
      "نعمت": 6297,
      "ثانیه": 6298,
      "اشخاص": 6299,
      "شویم": 6300,
      "##اورند": 6301,
      "پلی": 6302,
      "برخلاف": 6303,
      "تازگی": 6304,
      "ژوي": 6305,
      "همشهری": 6306,
      "حرم": 6307,
      "کلیک": 6308,
      "اتمی": 6309,
      "۵۴": 6310,
      "##زن": 6311,
      "##اهن": 6312,
      "مصل": 6313,
      "ایالت": 6314,
      "دستاوردهای": 6315,
      "رها": 6316,
      "ابه": 6317,
      "قدیم": 6318,
      "پاری": 6319,
      "۵۶": 6320,
      "ايتلاف": 6321,
      "شغ": 6322,
      "##جایی": 6323,
      "تان": 6324,
      "##انیهای": 6325,
      "صحن": 6326,
      "تبی": 6327,
      "##گذشت": 6328,
      "##بازی": 6329,
      "##بهای": 6330,
      "##اقد": 6331,
      "بهادار": 6332,
      "غلام": 6333,
      "قبلا": 6334,
      "بنگاههای": 6335,
      "دختران": 6336,
      "ناد": 6337,
      "راهبردی": 6338,
      "بدی": 6339,
      "ورزشگاه": 6340,
      "منتهی": 6341,
      "فتنه": 6342,
      "##ذر": 6343,
      "دانشجویی": 6344,
      "ورودی": 6345,
      "##احل": 6346,
      "کاست": 6347,
      "شدیم": 6348,
      "معادن": 6349,
      "##انگی": 6350,
      "مسلمان": 6351,
      "بستر": 6352,
      "منتخ": 6353,
      "ازای": 6354,
      "برگرد": 6355,
      "املاک": 6356,
      "میشن": 6357,
      "گردد": 6358,
      "پنه": 6359,
      "افق": 6360,
      "##وههای": 6361,
      "صعود": 6362,
      "مجتمع": 6363,
      "حیات": 6364,
      "رنج": 6365,
      "##فس": 6366,
      "امارهای": 6367,
      "اکران": 6368,
      "##کنی": 6369,
      "بهانه": 6370,
      "ماست": 6371,
      "ویند": 6372,
      "ناخ": 6373,
      "ایلنا": 6374,
      "مسيولین": 6375,
      "والی": 6376,
      "سبد": 6377,
      "مرات": 6378,
      "ترویج": 6379,
      "قبال": 6380,
      "##سیر": 6381,
      "فاقد": 6382,
      "جریمه": 6383,
      "توجیه": 6384,
      "##اکس": 6385,
      "۸۵": 6386,
      "محله": 6387,
      "ملک": 6388,
      "بله": 6389,
      "مربع": 6390,
      "بریتانیا": 6391,
      "انگیزه": 6392,
      "##فیق": 6393,
      "۶۵": 6394,
      "السلام": 6395,
      "نود": 6396,
      "سرنوشت": 6397,
      "الن": 6398,
      "##یص": 6399,
      "خل": 6400,
      "st": 6401,
      "بازسازی": 6402,
      "نوبت": 6403,
      "زمینههای": 6404,
      "نقشه": 6405,
      "لذت": 6406,
      "تری": 6407,
      "##هایش": 6408,
      "فراکسیون": 6409,
      "فیزیکی": 6410,
      "مهندس": 6411,
      "نظری": 6412,
      "برگشت": 6413,
      "شیرین": 6414,
      "میافتد": 6415,
      "راس": 6416,
      "##وکار": 6417,
      "##مرد": 6418,
      "کور": 6419,
      "##ایم": 6420,
      "اصط": 6421,
      "تصویری": 6422,
      "گش": 6423,
      "ارشی": 6424,
      "عبدال": 6425,
      "##۱۰": 6426,
      "تعطیل": 6427,
      "ندارم": 6428,
      "میگذارد": 6429,
      "دریاچه": 6430,
      "اسیبهای": 6431,
      "##لز": 6432,
      "نظارتی": 6433,
      "سلط": 6434,
      "لوله": 6435,
      "اعتبارات": 6436,
      "نقض": 6437,
      "استانداردهای": 6438,
      "فرمود": 6439,
      "اضطر": 6440,
      "بهتری": 6441,
      "شری": 6442,
      "عظیم": 6443,
      "محیطی": 6444,
      "سپرد": 6445,
      "بخوان": 6446,
      "برگز": 6447,
      "فراب": 6448,
      "بانوان": 6449,
      "رقیب": 6450,
      "اسپانیا": 6451,
      "مبارک": 6452,
      "هواپیمای": 6453,
      "نسخ": 6454,
      "##قام": 6455,
      "حقیقی": 6456,
      "خورده": 6457,
      "مواضع": 6458,
      "همدان": 6459,
      "میبرند": 6460,
      "طرفی": 6461,
      "شغلی": 6462,
      "برچسبها": 6463,
      "اصلاحطلبان": 6464,
      "راننده": 6465,
      "برجسته": 6466,
      "بحرین": 6467,
      "ماجرای": 6468,
      "مسافران": 6469,
      "محمدی": 6470,
      "احتی": 6471,
      "بگیریم": 6472,
      "عملا": 6473,
      "بک": 6474,
      "##el": 6475,
      "##یما": 6476,
      "دانشگاههای": 6477,
      "تبلیغاتی": 6478,
      "کارها": 6479,
      "وج": 6480,
      "دیوار": 6481,
      "الگوی": 6482,
      "کیش": 6483,
      "##۷۹": 6484,
      "واریز": 6485,
      "##امید": 6486,
      "هرک": 6487,
      "بدنه": 6488,
      "اقت": 6489,
      "دورههای": 6490,
      "##همند": 6491,
      "##کارت": 6492,
      "##افل": 6493,
      "##منستان": 6494,
      "##سنجانی": 6495,
      "برعهده": 6496,
      "موج": 6497,
      "کشید": 6498,
      "توه": 6499,
      "نوری": 6500,
      "قضاییه": 6501,
      "میساز": 6502,
      "مدال": 6503,
      "سایه": 6504,
      "سار": 6505,
      "اسمان": 6506,
      "##ندهای": 6507,
      "استانی": 6508,
      "##٠٠": 6509,
      "تخلفات": 6510,
      "##فیف": 6511,
      "عوض": 6512,
      "وزیران": 6513,
      "##زدی": 6514,
      "استاندار": 6515,
      "پروانه": 6516,
      "##ماع": 6517,
      "خودداری": 6518,
      "##انیان": 6519,
      "##انز": 6520,
      "موقت": 6521,
      "##۷۵": 6522,
      "استع": 6523,
      "ملاح": 6524,
      "دستگیری": 6525,
      "خبرهای": 6526,
      "جنایت": 6527,
      "کشورهایی": 6528,
      "عمیق": 6529,
      "چندی": 6530,
      "گری": 6531,
      "اشکار": 6532,
      "پذیرفته": 6533,
      "سنجش": 6534,
      "سنی": 6535,
      "الزام": 6536,
      "حاج": 6537,
      "نوسازی": 6538,
      "مسایل": 6539,
      "##جاری": 6540,
      "##غام": 6541,
      "##بک": 6542,
      "##لیک": 6543,
      "انفجار": 6544,
      "نمیتوانند": 6545,
      "##وانه": 6546,
      "نوجوانان": 6547,
      "عقل": 6548,
      "دریای": 6549,
      "عف": 6550,
      "گشت": 6551,
      "مجازات": 6552,
      "کارگر": 6553,
      "نوروزی": 6554,
      "تست": 6555,
      "کارتهای": 6556,
      "خویش": 6557,
      "تخت": 6558,
      "ابزارهای": 6559,
      "##۸۲": 6560,
      "عمرانی": 6561,
      "##ion": 6562,
      "پناه": 6563,
      "##om": 6564,
      "اسید": 6565,
      "باتری": 6566,
      "مقطع": 6567,
      "نبرد": 6568,
      "##يیه": 6569,
      "گیگاب": 6570,
      "مشاوره": 6571,
      "هدفمندی": 6572,
      "ناگه": 6573,
      "##ad": 6574,
      "کاربرد": 6575,
      "بگیرید": 6576,
      "بارش": 6577,
      "##نیا": 6578,
      "بت": 6579,
      "##ایلی": 6580,
      "چگون": 6581,
      "##یاری": 6582,
      "##ol": 6583,
      "##هاب": 6584,
      "انگل": 6585,
      "المانی": 6586,
      "اقا": 6587,
      "فرض": 6588,
      "سیگار": 6589,
      "لبنی": 6590,
      "بق": 6591,
      "ارمان": 6592,
      "##منی": 6593,
      "نیا": 6594,
      "##شدن": 6595,
      "##جیت": 6596,
      "##طل": 6597,
      "پیچیده": 6598,
      "دوستی": 6599,
      "اعم": 6600,
      "چگونگی": 6601,
      "تحصیلات": 6602,
      "##مدار": 6603,
      "تنش": 6604,
      "تضمین": 6605,
      "برنامهها": 6606,
      "##کیه": 6607,
      "سفارت": 6608,
      "##زاب": 6609,
      "تبریک": 6610,
      "گزارشهای": 6611,
      "زرد": 6612,
      "##سنجی": 6613,
      "##جاز": 6614,
      "##جاست": 6615,
      "لیتر": 6616,
      "پیامبر": 6617,
      "فایل": 6618,
      "رویداد": 6619,
      "تولیدکننده": 6620,
      "اسان": 6621,
      "رشتههای": 6622,
      "متری": 6623,
      "دادیم": 6624,
      "چنانچه": 6625,
      "افسردگی": 6626,
      "البرز": 6627,
      "شاد": 6628,
      "##امن": 6629,
      "امتح": 6630,
      "بابک": 6631,
      "##رنگ": 6632,
      "علايم": 6633,
      "یافتن": 6634,
      "اموزان": 6635,
      "فقر": 6636,
      "ابتدایی": 6637,
      "مباحث": 6638,
      "زح": 6639,
      "ترجیح": 6640,
      "##ثار": 6641,
      "##یمان": 6642,
      "روبهرو": 6643,
      "##ومه": 6644,
      "معنا": 6645,
      "مصرفی": 6646,
      "ویندوز": 6647,
      "غنی": 6648,
      "##پو": 6649,
      "##ایات": 6650,
      "ایفا": 6651,
      "##گرایی": 6652,
      "دسترس": 6653,
      "بارد": 6654,
      "فهم": 6655,
      "بررسیهای": 6656,
      "توصیف": 6657,
      "مرجع": 6658,
      "اعدام": 6659,
      "صرفه": 6660,
      "##واز": 6661,
      "تون": 6662,
      "زا": 6663,
      "توهین": 6664,
      "شریف": 6665,
      "دیجیت": 6666,
      "اینستا": 6667,
      "##راتی": 6668,
      "اتص": 6669,
      "داروهای": 6670,
      "انگیز": 6671,
      "##ویسی": 6672,
      "اوقات": 6673,
      "برزیل": 6674,
      "تعطیلات": 6675,
      "اعطای": 6676,
      "##ورهای": 6677,
      "۱۳۹۰": 6678,
      "تبادل": 6679,
      "اصطلاح": 6680,
      "##فتی": 6681,
      "##خوانی": 6682,
      "حرک": 6683,
      "خدای": 6684,
      "مستقر": 6685,
      "بماند": 6686,
      "کاربری": 6687,
      "سراسری": 6688,
      "هماکنون": 6689,
      "##۱۵": 6690,
      "تحریک": 6691,
      "مترم": 6692,
      "محتوای": 6693,
      "سکوت": 6694,
      "ایستگاه": 6695,
      "معماری": 6696,
      "جنگل": 6697,
      "##۷۶": 6698,
      "پرده": 6699,
      "برنامهای": 6700,
      "بزرگتر": 6701,
      "عراقی": 6702,
      "سور": 6703,
      "نباش": 6704,
      "##همان": 6705,
      "اکبر": 6706,
      "معلم": 6707,
      "##اوز": 6708,
      "ماموریت": 6709,
      "##مح": 6710,
      "تصمیمات": 6711,
      "معلوم": 6712,
      "جهانگیری": 6713,
      "##پار": 6714,
      "زنی": 6715,
      "ظاهرا": 6716,
      "کرمانشاه": 6717,
      "موشکی": 6718,
      "پاریس": 6719,
      "ملاق": 6720,
      "ابراهیم": 6721,
      "تعادل": 6722,
      "مصلحت": 6723,
      "بور": 6724,
      "اله": 6725,
      "وار": 6726,
      "مدار": 6727,
      "جنبش": 6728,
      "قلعه": 6729,
      "احزاب": 6730,
      "کریمی": 6731,
      "دستگاهها": 6732,
      "تلقی": 6733,
      "بالاخره": 6734,
      "##وریان": 6735,
      "کامپیوتر": 6736,
      "بای": 6737,
      "تخصیص": 6738,
      "خانوادههای": 6739,
      "دانشکده": 6740,
      "بینالملل": 6741,
      "۱۲۰": 6742,
      "شناسی": 6743,
      "۸۴": 6744,
      "نکنند": 6745,
      "##ch": 6746,
      "میخورد": 6747,
      "##۱۲": 6748,
      "مینمای": 6749,
      "زايران": 6750,
      "##ot": 6751,
      "کمتری": 6752,
      "عط": 6753,
      "قزوین": 6754,
      "##پرداخت": 6755,
      "دراین": 6756,
      "##سلمین": 6757,
      "پهن": 6758,
      "کرج": 6759,
      "۱۳۵": 6760,
      "سیستمهای": 6761,
      "بلاف": 6762,
      "زودتر": 6763,
      "اراضی": 6764,
      "سفارش": 6765,
      "##۷۳": 6766,
      "##پذیری": 6767,
      "##قانونی": 6768,
      "دارویی": 6769,
      "استراتژیک": 6770,
      "خلاق": 6771,
      "تشکل": 6772,
      "مدیریتی": 6773,
      "اقس": 6774,
      "مسکو": 6775,
      "تالار": 6776,
      "##۷۲": 6777,
      "##جای": 6778,
      "گوناگون": 6779,
      "قضايیه": 6780,
      "۶۲": 6781,
      "کیفی": 6782,
      "صحت": 6783,
      "تراکتور": 6784,
      "چپ": 6785,
      "##زشکی": 6786,
      "##دهنده": 6787,
      "##۹۰": 6788,
      "کالاها": 6789,
      "##اژ": 6790,
      "توانمندی": 6791,
      "فاط": 6792,
      "اندیشه": 6793,
      "اولی": 6794,
      "شبانه": 6795,
      "غیرمجاز": 6796,
      "وف": 6797,
      "پالایشگاه": 6798,
      "۲۰۱۳": 6799,
      "##۷۴": 6800,
      "باران": 6801,
      "ایرانسل": 6802,
      "مرزی": 6803,
      "شاخصهای": 6804,
      "منف": 6805,
      "##os": 6806,
      "بلافاصله": 6807,
      "##جویی": 6808,
      "مشخصات": 6809,
      "تهم": 6810,
      "مورخ": 6811,
      "طلای": 6812,
      "دیپلماسی": 6813,
      "##زیستی": 6814,
      "میگرفت": 6815,
      "برسان": 6816,
      "ارک": 6817,
      "پژوهشی": 6818,
      "خریداران": 6819,
      "روسای": 6820,
      "##اسمی": 6821,
      "##ادین": 6822,
      "بمب": 6823,
      "ارتفاع": 6824,
      "یخ": 6825,
      "ظهر": 6826,
      "سریعتر": 6827,
      "فرش": 6828,
      "ضرر": 6829,
      "اوردن": 6830,
      "مدارک": 6831,
      "سوز": 6832,
      "درگذشت": 6833,
      "میایند": 6834,
      "قطار": 6835,
      "حیوان": 6836,
      "##یترز": 6837,
      "خواندن": 6838,
      "##چههای": 6839,
      "پرست": 6840,
      "مفهوم": 6841,
      "شنیده": 6842,
      "حب": 6843,
      "مایکروس": 6844,
      "دولتهای": 6845,
      "مرحوم": 6846,
      "عناصر": 6847,
      "چندانی": 6848,
      "پیشتر": 6849,
      "خانوادهها": 6850,
      "چرخ": 6851,
      "نداده": 6852,
      "نمایید": 6853,
      "کنسرت": 6854,
      "بچهها": 6855,
      "اهالی": 6856,
      "خزانه": 6857,
      "##۱۶": 6858,
      "ارزشمند": 6859,
      "نکات": 6860,
      "اسد": 6861,
      "گیلان": 6862,
      "رفتارهای": 6863,
      "متولد": 6864,
      "عرو": 6865,
      "والیبال": 6866,
      "صندوقهای": 6867,
      "##۷۸": 6868,
      "ناوگان": 6869,
      "چالشهای": 6870,
      "##جاع": 6871,
      "##اهر": 6872,
      "سیمکارت": 6873,
      "رویترز": 6874,
      "انگلستان": 6875,
      "##باس": 6876,
      "رمز": 6877,
      "##ومیت": 6878,
      "دیدگاههای": 6879,
      "واحدی": 6880,
      "میگذرد": 6881,
      "تبصره": 6882,
      "العالم": 6883,
      "۲۰۱۲": 6884,
      "مون": 6885,
      "بهینه": 6886,
      "##فع": 6887,
      "ابهام": 6888,
      "دانشاموز": 6889,
      "لا": 6890,
      "غذاهای": 6891,
      "اقداماتی": 6892,
      "تردید": 6893,
      "تزریق": 6894,
      "صحبتهای": 6895,
      "توت": 6896,
      "هفتم": 6897,
      "فیس": 6898,
      "مقاله": 6899,
      "ریز": 6900,
      "##بول": 6901,
      "هنرمند": 6902,
      "کوتاهی": 6903,
      "جواد": 6904,
      "اقایان": 6905,
      "محض": 6906,
      "ایثار": 6907,
      "##وسف": 6908,
      "##نم": 6909,
      "##ارض": 6910,
      "خن": 6911,
      "رودخانه": 6912,
      "گرایش": 6913,
      "##۱۴": 6914,
      "وان": 6915,
      "شارژ": 6916,
      "دقیقا": 6917,
      "رادیو": 6918,
      "عج": 6919,
      "حالیکه": 6920,
      "امیدواری": 6921,
      "دبیرکل": 6922,
      "درم": 6923,
      "اینستاگرام": 6924,
      "شنا": 6925,
      "معی": 6926,
      "منتخب": 6927,
      "##نظ": 6928,
      "##ورا": 6929,
      "##۱۳": 6930,
      "im": 6931,
      "درج": 6932,
      "خبرنامه": 6933,
      "کارگروه": 6934,
      "##غیر": 6935,
      "مایکروسافت": 6936,
      "دشوار": 6937,
      "اعتراف": 6938,
      "تکمیلی": 6939,
      "محاسب": 6940,
      "##تهران": 6941,
      "نداد": 6942,
      "##ردهای": 6943,
      "مجددا": 6944,
      "رفسنجانی": 6945,
      "##مرکز": 6946,
      "یو": 6947,
      "##طوری": 6948,
      "دریافتی": 6949,
      "th": 6950,
      "مقت": 6951,
      "تنوع": 6952,
      "##فروش": 6953,
      "بخواهد": 6954,
      "هیجان": 6955,
      "ساعات": 6956,
      "نمایشگر": 6957,
      "حماس": 6958,
      "وگو": 6959,
      "اندکی": 6960,
      "براین": 6961,
      "کانادا": 6962,
      "مقصد": 6963,
      "اهنگ": 6964,
      "رقابتی": 6965,
      "پردازنده": 6966,
      "رغم": 6967,
      "چهارمین": 6968,
      "استرالیا": 6969,
      "متخصصان": 6970,
      "ملاقات": 6971,
      "##قدم": 6972,
      "فقیه": 6973,
      "##رافیکی": 6974,
      "حامل": 6975,
      "نوزاد": 6976,
      "کارکرد": 6977,
      "فرابورس": 6978,
      "فعلا": 6979,
      "##un": 6980,
      "همسایه": 6981,
      "انسانها": 6982,
      "اشغال": 6983,
      "دانشمندان": 6984,
      "نمیخو": 6985,
      "فراتر": 6986,
      "امیز": 6987,
      "تجربی": 6988,
      "صاحبان": 6989,
      "جر": 6990,
      "تولد": 6991,
      "میتوانست": 6992,
      "رضایی": 6993,
      "کاس": 6994,
      "گرچه": 6995,
      "۳۵۰": 6996,
      "فلز": 6997,
      "##شویی": 6998,
      "غیرقانونی": 6999,
      "موسوی": 7000,
      "فروشی": 7001,
      "سیف": 7002,
      "جاس": 7003,
      "##غر": 7004,
      "کمال": 7005,
      "عمدتا": 7006,
      "باری": 7007,
      "##هری": 7008,
      "##خر": 7009,
      "افرین": 7010,
      "متقاضی": 7011,
      "##انیت": 7012,
      "ریالی": 7013,
      "میلیونی": 7014,
      "میزنند": 7015,
      "ارشیو": 7016,
      "یکس": 7017,
      "۱۳۶": 7018,
      "##کها": 7019,
      "انبوه": 7020,
      "پیروز": 7021,
      "کاغذ": 7022,
      "##وندی": 7023,
      "میلاد": 7024,
      "شفافیت": 7025,
      "الگو": 7026,
      "راهنمایی": 7027,
      "##يید": 7028,
      "میکردم": 7029,
      "بدانید": 7030,
      "##cri": 7031,
      "فرماندهی": 7032,
      "حکایت": 7033,
      "نک": 7034,
      "##خواهی": 7035,
      "داغ": 7036,
      "سپت": 7037,
      "معاملاتی": 7038,
      "##پوش": 7039,
      "انحص": 7040,
      "سرمایهگذاران": 7041,
      "حاکمیت": 7042,
      "حساسیت": 7043,
      "##ايی": 7044,
      "اپارت": 7045,
      "اتصال": 7046,
      "کارمندان": 7047,
      "##هزار": 7048,
      "نمیدهد": 7049,
      "اوست": 7050,
      "سوالات": 7051,
      "خواهان": 7052,
      "مهارت": 7053,
      "##التی": 7054,
      "کارنامه": 7055,
      "زنگنه": 7056,
      "بارسل": 7057,
      "پیمانک": 7058,
      "استعد": 7059,
      "تخفیف": 7060,
      "##cript": 7061,
      "نمیکرد": 7062,
      "کاربردی": 7063,
      "بگوییم": 7064,
      "##ur": 7065,
      "یکسان": 7066,
      "مناظ": 7067,
      "حریف": 7068,
      "ترجمه": 7069,
      "بازنشستگی": 7070,
      "جغ": 7071,
      "مراقبت": 7072,
      "سپتامبر": 7073,
      "نایب": 7074,
      "خوراکی": 7075,
      "نتوانست": 7076,
      "مبادلات": 7077,
      "##ونههای": 7078,
      "نگار": 7079,
      "اسیایی": 7080,
      "##کیک": 7081,
      "تنهایی": 7082,
      "پنهان": 7083,
      "خورشید": 7084,
      "جوانی": 7085,
      "ارس": 7086,
      "کریم": 7087,
      "##اپی": 7088,
      "تحرک": 7089,
      "##زاد": 7090,
      "مجله": 7091,
      "ادرس": 7092,
      "مطبوعات": 7093,
      "محورهای": 7094,
      "اعضا": 7095,
      "هشتم": 7096,
      "##age": 7097,
      "بزند": 7098,
      "تهمت": 7099,
      "##سیل": 7100,
      "پلاسکو": 7101,
      "ارومیه": 7102,
      "ریاستجمهوری": 7103,
      "ضریب": 7104,
      "سهمیه": 7105,
      "تبلت": 7106,
      "##هور": 7107,
      "انکار": 7108,
      "##۱۸": 7109,
      "فاض": 7110,
      "داراییهای": 7111,
      "قهرمانان": 7112,
      "##ذیب": 7113,
      "فاج": 7114,
      "##انو": 7115,
      "##باع": 7116,
      "استقرار": 7117,
      "سواری": 7118,
      "##وایی": 7119,
      "##شایی": 7120,
      "داوطلبان": 7121,
      "##یلی": 7122,
      "##et": 7123,
      "رنو": 7124,
      "عسل": 7125,
      "ممنوعیت": 7126,
      "بدست": 7127,
      "على": 7128,
      "میانه": 7129,
      "تجاوز": 7130,
      "تکیه": 7131,
      "امری": 7132,
      "زلز": 7133,
      "جانشین": 7134,
      "ایستنا": 7135,
      "گم": 7136,
      "صفحات": 7137,
      "##گا": 7138,
      "سلامتی": 7139,
      "عظ": 7140,
      "بیمهای": 7141,
      "##۱۹": 7142,
      "##ابند": 7143,
      "دايمی": 7144,
      "اسامی": 7145,
      "علیرغم": 7146,
      "شاع": 7147,
      "اتومبیل": 7148,
      "##حص": 7149,
      "حجاب": 7150,
      "اثبات": 7151,
      "برساند": 7152,
      "محافظ": 7153,
      "الوده": 7154,
      "اسن": 7155,
      "استخدام": 7156,
      "عبدالله": 7157,
      "نامن": 7158,
      "گلستان": 7159,
      "##دل": 7160,
      "متفاوتی": 7161,
      "##۳۳": 7162,
      "مرزهای": 7163,
      "ایانا": 7164,
      "##یتان": 7165,
      "##نگری": 7166,
      "ارتقاء": 7167,
      "قدرد": 7168,
      "بگذارد": 7169,
      "زیرساختهای": 7170,
      "شایسته": 7171,
      "سیستان": 7172,
      "##فل": 7173,
      "خودکار": 7174,
      "قضاوت": 7175,
      "جانبه": 7176,
      "##طفی": 7177,
      "##مس": 7178,
      "۱۹۸": 7179,
      "عادل": 7180,
      "بردار": 7181,
      "۶۴": 7182,
      "ببینید": 7183,
      "##پس": 7184,
      "دولتها": 7185,
      "##وابط": 7186,
      "برون": 7187,
      "زمستان": 7188,
      "زلزله": 7189,
      "متمرکز": 7190,
      "فرسوده": 7191,
      "پارسی": 7192,
      "نسبی": 7193,
      "##الحی": 7194,
      "##نایی": 7195,
      "مجید": 7196,
      "یاداوری": 7197,
      "العاده": 7198,
      "معیار": 7199,
      "نگرفته": 7200,
      "الکت": 7201,
      "فای": 7202,
      "##ازن": 7203,
      "اقتصادتهران": 7204,
      "تروریستها": 7205,
      "قطعنامه": 7206,
      "راضی": 7207,
      "کویت": 7208,
      "گردشگران": 7209,
      "ضوابط": 7210,
      "انگشت": 7211,
      "ضمان": 7212,
      "خاتمی": 7213,
      "متولی": 7214,
      "مسدود": 7215,
      "هرمز": 7216,
      "بخت": 7217,
      "پارلمان": 7218,
      "انتی": 7219,
      "##شکل": 7220,
      "تحقیقاتی": 7221,
      "صوتی": 7222,
      "انبار": 7223,
      "##یای": 7224,
      "جرای": 7225,
      "۸۹": 7226,
      "زیارت": 7227,
      "چوب": 7228,
      "اثرات": 7229,
      "تظ": 7230,
      "روحی": 7231,
      "ناظر": 7232,
      "ماندن": 7233,
      "رقمی": 7234,
      "مغزی": 7235,
      "صندلی": 7236,
      "حید": 7237,
      "جغرافی": 7238,
      "میافز": 7239,
      "شتاب": 7240,
      "ادغام": 7241,
      "نشر": 7242,
      "امتحان": 7243,
      "مکر": 7244,
      "اهواز": 7245,
      "گنج": 7246,
      "کیلومتری": 7247,
      "هزاران": 7248,
      "اندیش": 7249,
      "وین": 7250,
      "اصرار": 7251,
      "سوار": 7252,
      "۲۵۰": 7253,
      "ون": 7254,
      "##زیک": 7255,
      "خانههای": 7256,
      "معنوی": 7257,
      "الحسن": 7258,
      "بهزیستی": 7259,
      "راهکارهای": 7260,
      "ثبتنام": 7261,
      "##ریش": 7262,
      "##لیتهای": 7263,
      "##us": 7264,
      "الای": 7265,
      "معمولی": 7266,
      "نداشتند": 7267,
      "##ردی": 7268,
      "##اعد": 7269,
      "اقشار": 7270,
      "البوم": 7271,
      "درحال": 7272,
      "##سین": 7273,
      "سیاستگذاری": 7274,
      "بگذارید": 7275,
      "تصمیمگیری": 7276,
      "گزارشها": 7277,
      "مستمر": 7278,
      "خودرویی": 7279,
      "زه": 7280,
      "عاشق": 7281,
      "##av": 7282,
      "قه": 7283,
      "باخت": 7284,
      "حین": 7285,
      "تراز": 7286,
      "##اجد": 7287,
      "##is": 7288,
      "خبرگان": 7289,
      "میگ": 7290,
      "مدرک": 7291,
      "##یدند": 7292,
      "خرج": 7293,
      "هماهنگ": 7294,
      "ناس": 7295,
      "##طبی": 7296,
      "##عهای": 7297,
      "سازمانی": 7298,
      "ردیف": 7299,
      "مشا": 7300,
      "تعلق": 7301,
      "تکذیب": 7302,
      "غلط": 7303,
      "میگذار": 7304,
      "مهد": 7305,
      "۸۲": 7306,
      "عموم": 7307,
      "##ac": 7308,
      "متصل": 7309,
      "میبینیم": 7310,
      "معتاد": 7311,
      "مدلهای": 7312,
      "هاست": 7313,
      "کتابخانه": 7314,
      "فرصتهای": 7315,
      "##دری": 7316,
      "لیبی": 7317,
      "##گویید": 7318,
      "ارتقا": 7319,
      "سطوح": 7320,
      "خانوادگی": 7321,
      "باشم": 7322,
      "زخمی": 7323,
      "پایداری": 7324,
      "شایع": 7325,
      "##طیلی": 7326,
      "تیمی": 7327,
      "برتری": 7328,
      "اختلافات": 7329,
      "##الاسلام": 7330,
      "جدایی": 7331,
      "نرمافزار": 7332,
      "میشویم": 7333,
      "##مایش": 7334,
      "طال": 7335,
      "##هنگ": 7336,
      "میبایست": 7337,
      "اگ": 7338,
      "مراتب": 7339,
      "اردبیل": 7340,
      "مساجد": 7341,
      "اقساط": 7342,
      "##فتد": 7343,
      "مهاجرت": 7344,
      "فروخته": 7345,
      "سلولهای": 7346,
      "##عودی": 7347,
      "کما": 7348,
      "سهشنبه": 7349,
      "ساختمانی": 7350,
      "فلسطینی": 7351,
      "مشترکان": 7352,
      "دهها": 7353,
      "تلفنی": 7354,
      "ایراد": 7355,
      "منتقدان": 7356,
      "##منان": 7357,
      "دغدغه": 7358,
      "ژانویه": 7359,
      "##شور": 7360,
      "بلیت": 7361,
      "##دول": 7362,
      "تبیین": 7363,
      "نحوی": 7364,
      "ماس": 7365,
      "خوانده": 7366,
      "بویژه": 7367,
      "اکثری": 7368,
      "##گستری": 7369,
      "۸۶": 7370,
      "وابستگی": 7371,
      "هذ": 7372,
      "ذوب": 7373,
      "رب": 7374,
      "ظهور": 7375,
      "##اسد": 7376,
      "بوشهر": 7377,
      "طیف": 7378,
      "بیانیهای": 7379,
      "کردید": 7380,
      "ویروس": 7381,
      "اقلام": 7382,
      "ماهانه": 7383,
      "##دال": 7384,
      "منحصر": 7385,
      "خوراک": 7386,
      "رگ": 7387,
      "##وتین": 7388,
      "امین": 7389,
      "داوری": 7390,
      "ارقام": 7391,
      "شیعه": 7392,
      "عزت": 7393,
      "شگفت": 7394,
      "te": 7395,
      "نقاشی": 7396,
      "صالحی": 7397,
      "چاه": 7398,
      "جور": 7399,
      "##خودرو": 7400,
      "رصد": 7401,
      "##اگاه": 7402,
      "لوکس": 7403,
      "##جانبه": 7404,
      "قضیه": 7405,
      "##بخ": 7406,
      "الحج": 7407,
      "میگویم": 7408,
      "داوطلب": 7409,
      "کات": 7410,
      "فروند": 7411,
      "خلاصه": 7412,
      "خامنهای": 7413,
      "تعطیلی": 7414,
      "شانس": 7415,
      "طیب": 7416,
      "دس": 7417,
      "پردیس": 7418,
      "##اطر": 7419,
      "سوالی": 7420,
      "الحسنه": 7421,
      "میافزاید": 7422,
      "##۳۵": 7423,
      "دمای": 7424,
      "جانب": 7425,
      "##۳۲": 7426,
      "مدنظر": 7427,
      "شام": 7428,
      "خرم": 7429,
      "اسکن": 7430,
      "توانمند": 7431,
      "بدانند": 7432,
      "##ust": 7433,
      "جرایم": 7434,
      "نیروگاه": 7435,
      "دادگستری": 7436,
      "بازگرد": 7437,
      "احیای": 7438,
      "دما": 7439,
      "بلوچ": 7440,
      "وبس": 7441,
      "مارس": 7442,
      "چراغ": 7443,
      "تث": 7444,
      "کلین": 7445,
      "نشریه": 7446,
      "هدی": 7447,
      "رسول": 7448,
      "خواننده": 7449,
      "ابهای": 7450,
      "کودکی": 7451,
      "برشم": 7452,
      "میخواهم": 7453,
      "##il": 7454,
      "##میمی": 7455,
      "حمایتی": 7456,
      "نرخهای": 7457,
      "##ستگان": 7458,
      "یکبار": 7459,
      "ببرد": 7460,
      "اکثریت": 7461,
      "مهلت": 7462,
      "مشاغل": 7463,
      "گردان": 7464,
      "روحیه": 7465,
      "ایمان": 7466,
      "نوش": 7467,
      "۱۴۰": 7468,
      "بکار": 7469,
      "معص": 7470,
      "دهان": 7471,
      "فاجعه": 7472,
      "تفکیک": 7473,
      "نظرسنجی": 7474,
      "مازاد": 7475,
      "پنجمین": 7476,
      "جمعا": 7477,
      "صبر": 7478,
      "عمان": 7479,
      "کلمه": 7480,
      "فتح": 7481,
      "تحمیل": 7482,
      "یکسال": 7483,
      "گستردهای": 7484,
      "ضبط": 7485,
      "##ریت": 7486,
      "دادس": 7487,
      "پیکر": 7488,
      "جعف": 7489,
      "کتابهای": 7490,
      "رویه": 7491,
      "##امیز": 7492,
      "رسانده": 7493,
      "جوی": 7494,
      "تجار": 7495,
      "مهمتر": 7496,
      "بطور": 7497,
      "پذیرفت": 7498,
      "فناوریهای": 7499,
      "##۹۹": 7500,
      "بنابر": 7501,
      "##خورد": 7502,
      "محاسبات": 7503,
      "تلخ": 7504,
      "نوسانات": 7505,
      "ازادسازی": 7506,
      "جناب": 7507,
      "مصطفی": 7508,
      "میدانیم": 7509,
      "طلایی": 7510,
      "اسک": 7511,
      "##قابل": 7512,
      "وبسایت": 7513,
      "جنج": 7514,
      "مزایای": 7515,
      "عمران": 7516,
      "میسازد": 7517,
      "مکت": 7518,
      "بودهاست": 7519,
      "طلبان": 7520,
      "##پیوند": 7521,
      "ژن": 7522,
      "##۴۵": 7523,
      "میخواهید": 7524,
      "اپارتمان": 7525,
      "میماند": 7526,
      "تثبیت": 7527,
      "فین": 7528,
      "پتان": 7529,
      "تعمیر": 7530,
      "طرفداران": 7531,
      "میدانید": 7532,
      "تسویه": 7533,
      "متنوع": 7534,
      "استناد": 7535,
      "اتحاد": 7536,
      "بخواهیم": 7537,
      "شوهر": 7538,
      "همسرش": 7539,
      "قدردانی": 7540,
      "نوت": 7541,
      "اراده": 7542,
      "۲۰۱۱": 7543,
      "هواپیماهای": 7544,
      "##قب": 7545,
      "گیاهی": 7546,
      "همگی": 7547,
      "ناصر": 7548,
      "افریقا": 7549,
      "##یدم": 7550,
      "##الث": 7551,
      "##کردن": 7552,
      "معضل": 7553,
      "عقیده": 7554,
      "ضمانت": 7555,
      "بخشنامه": 7556,
      "معاف": 7557,
      "میادین": 7558,
      "سي": 7559,
      "کاروان": 7560,
      "نظریه": 7561,
      "مناظره": 7562,
      "##الیایی": 7563,
      "عرص": 7564,
      "نمیتوانیم": 7565,
      "نسبتا": 7566,
      "مالزی": 7567,
      "##الدین": 7568,
      "ژوين": 7569,
      "وکیل": 7570,
      "امت": 7571,
      "##مهای": 7572,
      "حجتالاسلام": 7573,
      "##ولا": 7574,
      "اشکال": 7575,
      "بازنگری": 7576,
      "تدریج": 7577,
      "جزء": 7578,
      "مری": 7579,
      "چهرههای": 7580,
      "پیمان": 7581,
      "پرهی": 7582,
      "پادشاه": 7583,
      "اچ": 7584,
      "موسوم": 7585,
      "##روح": 7586,
      "رهبران": 7587,
      "بدهیم": 7588,
      "##تیک": 7589,
      "##اتل": 7590,
      "حلقه": 7591,
      "نخواهند": 7592,
      "حریم": 7593,
      "خشم": 7594,
      "دامن": 7595,
      "بکن": 7596,
      "##کب": 7597,
      "ریلی": 7598,
      "پاسخگویی": 7599,
      "استخوان": 7600,
      "نادیده": 7601,
      "ابتکار": 7602,
      "اماری": 7603,
      "##برگ": 7604,
      "فاضل": 7605,
      "هادی": 7606,
      "مهرماه": 7607,
      "خروجی": 7608,
      "میباشند": 7609,
      "محر": 7610,
      "##اشته": 7611,
      "ناجا": 7612,
      "تقدیم": 7613,
      "فرصتی": 7614,
      "##ظی": 7615,
      "##لند": 7616,
      "طولان": 7617,
      "##جهای": 7618,
      "مثبتی": 7619,
      "برقی": 7620,
      "افترا": 7621,
      "image": 7622,
      "عام": 7623,
      "شهروند": 7624,
      "##وما": 7625,
      "غذای": 7626,
      "درخ": 7627,
      "کسری": 7628,
      "موصل": 7629,
      "مخفی": 7630,
      "لحظات": 7631,
      "تذکر": 7632,
      "جستجو": 7633,
      "##۴۲": 7634,
      "پایی": 7635,
      "ایمی": 7636,
      "اخراج": 7637,
      "##۶۵": 7638,
      "غی": 7639,
      "اطلاعرسانی": 7640,
      "##نوعی": 7641,
      "عارف": 7642,
      "##وات": 7643,
      "میپردازد": 7644,
      "##نید": 7645,
      "اظه": 7646,
      "خاطرات": 7647,
      "##pe": 7648,
      "##day": 7649,
      "مرتضی": 7650,
      "زنجان": 7651,
      "ریزش": 7652,
      "خبرداغ": 7653,
      "تراکتورسازی": 7654,
      "نرس": 7655,
      "میکشد": 7656,
      "##ویسد": 7657,
      "اذعان": 7658,
      "حسابهای": 7659,
      "سپردههای": 7660,
      "قوا": 7661,
      "تاکسی": 7662,
      "##۴۸": 7663,
      "ارزشهای": 7664,
      "عروس": 7665,
      "غیره": 7666,
      "نمک": 7667,
      "گردن": 7668,
      "اندک": 7669,
      "گیم": 7670,
      "۱۱۰": 7671,
      "واژه": 7672,
      "##وردی": 7673,
      "کلام": 7674,
      "منصوب": 7675,
      "رسم": 7676,
      "امپ": 7677,
      "رایزنی": 7678,
      "انز": 7679,
      "جزی": 7680,
      "ماد": 7681,
      "انتهای": 7682,
      "غف": 7683,
      "##روزی": 7684,
      "ناص": 7685,
      "##اهو": 7686,
      "au": 7687,
      "بگوید": 7688,
      "دیجیتال": 7689,
      "پایینتر": 7690,
      "##توجه": 7691,
      "لپ": 7692,
      "حمایتهای": 7693,
      "دراز": 7694,
      "##ایز": 7695,
      "کشیدن": 7696,
      "تضمینی": 7697,
      "تجمع": 7698,
      "احساسات": 7699,
      "رییسجمهور": 7700,
      "مردی": 7701,
      "۶۸": 7702,
      "بلوچستان": 7703,
      "خصوصیات": 7704,
      "طرحی": 7705,
      "اهدا": 7706,
      "##ig": 7707,
      "نمیش": 7708,
      "دانسته": 7709,
      "##احتی": 7710,
      "کمکهای": 7711,
      "مطهری": 7712,
      "پراید": 7713,
      "امدند": 7714,
      "محاک": 7715,
      "##ox": 7716,
      "فض": 7717,
      "تاسیسات": 7718,
      "پرتاب": 7719,
      "گواهی": 7720,
      "سایتهای": 7721,
      "طراح": 7722,
      "ریاض": 7723,
      "ارم": 7724,
      "جعفری": 7725,
      "بدهیهای": 7726,
      "نیک": 7727,
      "احکام": 7728,
      "ایمیلی": 7729,
      "افراطی": 7730,
      "##یتری": 7731,
      "۲۰۰۸": 7732,
      "۱۳۰": 7733,
      "برابری": 7734,
      "##اتوری": 7735,
      "رفتند": 7736,
      "##گرفته": 7737,
      "عمق": 7738,
      "##وپ": 7739,
      "انجایی": 7740,
      "بستگی": 7741,
      "عالم": 7742,
      "قوت": 7743,
      "نواوری": 7744,
      "بساز": 7745,
      "##ثیری": 7746,
      "##اتور": 7747,
      "هزینهها": 7748,
      "فاطمه": 7749,
      "##وشی": 7750,
      "##ir": 7751,
      "بهشتی": 7752,
      "##ناف": 7753,
      "هلال": 7754,
      "##۷۷": 7755,
      "سازمانها": 7756,
      "برشمرد": 7757,
      "میشدند": 7758,
      "سرهنگ": 7759,
      "شاغل": 7760,
      "دق": 7761,
      "پیامی": 7762,
      "اربع": 7763,
      "اي": 7764,
      "ازار": 7765,
      "موت": 7766,
      "##سازان": 7767,
      "دیابت": 7768,
      "مشاوران": 7769,
      "کول": 7770,
      "نادرست": 7771,
      "##۶۲": 7772,
      "##ارداشت": 7773,
      "سپه": 7774,
      "رج": 7775,
      "پرهیز": 7776,
      "مالکیت": 7777,
      "##بالی": 7778,
      "##سا": 7779,
      "بدهید": 7780,
      "اسات": 7781,
      "گشایش": 7782,
      "##ویض": 7783,
      "پرداختی": 7784,
      "##ستها": 7785,
      "جنگی": 7786,
      "##شماری": 7787,
      "دامپ": 7788,
      "بزرگر": 7789,
      "نمادهای": 7790,
      "تابل": 7791,
      "##ینا": 7792,
      "رایج": 7793,
      "اقامت": 7794,
      "میدانم": 7795,
      "رسما": 7796,
      "ایرانیها": 7797,
      "سپاهان": 7798,
      "بازنشستگان": 7799,
      "کاش": 7800,
      "فیبر": 7801,
      "مهاجم": 7802,
      "بروند": 7803,
      "خورشیدی": 7804,
      "گیگابایت": 7805,
      "برف": 7806,
      "پلا": 7807,
      "ماب": 7808,
      "کارایی": 7809,
      "##مود": 7810,
      "اظهارداشت": 7811,
      "اگهی": 7812,
      "نفره": 7813,
      "ارای": 7814,
      "ارزشی": 7815,
      "تخصص": 7816,
      "باقیم": 7817,
      "محمول": 7818,
      "##سک": 7819,
      "برایش": 7820,
      "##شکر": 7821,
      "نخب": 7822,
      "کشتار": 7823,
      "سفرهای": 7824,
      "ناخالص": 7825,
      "متخ": 7826,
      "دیدم": 7827,
      "میکردیم": 7828,
      "بص": 7829,
      "ريیسی": 7830,
      "##وسته": 7831,
      "رایانهای": 7832,
      "هندی": 7833,
      "شوم": 7834,
      "بلندمدت": 7835,
      "سلمان": 7836,
      "دامنه": 7837,
      "نقلیه": 7838,
      "##ولیک": 7839,
      "تفسیر": 7840,
      "پروتيین": 7841,
      "##۶۹": 7842,
      "جزیی": 7843,
      "عادت": 7844,
      "##اورده": 7845,
      "br": 7846,
      "روانه": 7847,
      "گیاهان": 7848,
      "فرنگی": 7849,
      "مجروح": 7850,
      "##پای": 7851,
      "اربعین": 7852,
      "خوشحال": 7853,
      "فلسفه": 7854,
      "##ویژه": 7855,
      "اضطراب": 7856,
      "##هاى": 7857,
      "لطف": 7858,
      "متعهد": 7859,
      "روستاها": 7860,
      "##انکو": 7861,
      "جاذ": 7862,
      "مظل": 7863,
      "اوک": 7864,
      "##۶۸": 7865,
      "کلینتون": 7866,
      "اصناف": 7867,
      "ویدی": 7868,
      "ريال": 7869,
      "اشتی": 7870,
      "##اهرات": 7871,
      "کنکور": 7872,
      "هیچگاه": 7873,
      "۹۹": 7874,
      "ناپ": 7875,
      "توتال": 7876,
      "یکم": 7877,
      "مدنی": 7878,
      "##۳۸": 7879,
      "##يه": 7880,
      "مصوبات": 7881,
      "پهل": 7882,
      "۲۰۰۰": 7883,
      "استث": 7884,
      "کلمات": 7885,
      "طرحها": 7886,
      "##عیان": 7887,
      "##۳۹": 7888,
      "بغد": 7889,
      "##امده": 7890,
      "منطق": 7891,
      "in": 7892,
      "جناح": 7893,
      "گذاشتن": 7894,
      "مجموعهای": 7895,
      "##سانی": 7896,
      "دفاتر": 7897,
      "گناه": 7898,
      "پوتین": 7899,
      "##id": 7900,
      "۹۰۰": 7901,
      "پارسیان": 7902,
      "راهبرد": 7903,
      "ابری": 7904,
      "صداوس": 7905,
      "##ab": 7906,
      "بیفتد": 7907,
      "سیمان": 7908,
      "فیلمی": 7909,
      "##زر": 7910,
      "پیامد": 7911,
      "##ودر": 7912,
      "##زیه": 7913,
      "دادم": 7914,
      "هایش": 7915,
      "فروشنده": 7916,
      "تسری": 7917,
      "وجوه": 7918,
      "هموط": 7919,
      "مناق": 7920,
      "گویا": 7921,
      "مطلع": 7922,
      "دواز": 7923,
      "فرهنگیان": 7924,
      "اختلالات": 7925,
      "غیرقابل": 7926,
      "##ولت": 7927,
      "میدادند": 7928,
      "راهنما": 7929,
      "شادی": 7930,
      "عرف": 7931,
      "رحم": 7932,
      "##لر": 7933,
      "##کلت": 7934,
      "ایرباس": 7935,
      "انهایی": 7936,
      "امو": 7937,
      "برا": 7938,
      "نامزدهای": 7939,
      "اینچی": 7940,
      "##ازل": 7941,
      "اپراتورهای": 7942,
      "انصاری": 7943,
      "خریدار": 7944,
      "مداخ": 7945,
      "سینه": 7946,
      "اساتید": 7947,
      "محدودیتهای": 7948,
      "##باق": 7949,
      "اعتدال": 7950,
      "بهدلیل": 7951,
      "متغیر": 7952,
      "مجت": 7953,
      "ایند": 7954,
      "نتوانسته": 7955,
      "اولویتهای": 7956,
      "شیشه": 7957,
      "##زمینی": 7958,
      "##ايلی": 7959,
      "بهویژه": 7960,
      "کاندیدا": 7961,
      "تعدیل": 7962,
      "اقتدار": 7963,
      "##۴۹": 7964,
      "پیامکی": 7965,
      "##ضاح": 7966,
      "تاج": 7967,
      "خودکشی": 7968,
      "##ستهای": 7969,
      "ذیل": 7970,
      "منصوریان": 7971,
      "مواقع": 7972,
      "جنبه": 7973,
      "منشا": 7974,
      "گفتن": 7975,
      "نیمی": 7976,
      "کامیون": 7977,
      "##ربع": 7978,
      "کارگری": 7979,
      "ريیسه": 7980,
      "##پذیرد": 7981,
      "سپری": 7982,
      "کاظ": 7983,
      "نهایتا": 7984,
      "##دولتی": 7985,
      "نخبگان": 7986,
      "مخل": 7987,
      "بورسی": 7988,
      "ونز": 7989,
      "اظهارنظر": 7990,
      "واع": 7991,
      "ماهیت": 7992,
      "خدماتی": 7993,
      "غافل": 7994,
      "ساختن": 7995,
      "جمعاوری": 7996,
      "برترین": 7997,
      "تیمش": 7998,
      "مدرس": 7999,
      "ثمر": 8000,
      "احتیاط": 8001,
      "مبارز": 8002,
      "ژاپنی": 8003,
      "فش": 8004,
      "##ضباط": 8005,
      "مقداری": 8006,
      "##وگ": 8007,
      "انتظارات": 8008,
      "ایلام": 8009,
      "صدها": 8010,
      "بزرگراه": 8011,
      "حامیان": 8012,
      "دای": 8013,
      "عصبی": 8014,
      "طرفین": 8015,
      "##جویان": 8016,
      "مسايلی": 8017,
      "سنگینی": 8018,
      "زور": 8019,
      "##یمتر": 8020,
      "اندرویدی": 8021,
      "سمنان": 8022,
      "کیه": 8023,
      "##بانک": 8024,
      "شخصیتهای": 8025,
      "چرخه": 8026,
      "فیلمها": 8027,
      "دانشاموزان": 8028,
      "تضعیف": 8029,
      "زای": 8030,
      "ونزوي": 8031,
      "حفاری": 8032,
      "اقیان": 8033,
      "کارگاه": 8034,
      "کاف": 8035,
      "نامش": 8036,
      "قراردادی": 8037,
      "بصورت": 8038,
      "نشدن": 8039,
      "خب": 8040,
      "منا": 8041,
      "کالایی": 8042,
      "پوشاک": 8043,
      "وصول": 8044,
      "##ازار": 8045,
      "٢٠": 8046,
      "میرسید": 8047,
      "نوامبر": 8048,
      "##نس": 8049,
      "##استفاده": 8050,
      "##فروشی": 8051,
      "تحر": 8052,
      "اصلیترین": 8053,
      "الجز": 8054,
      "جاب": 8055,
      "##ریکی": 8056,
      "نمیدانم": 8057,
      "امریکای": 8058,
      "دهی": 8059,
      "##ذی": 8060,
      "کاندیدای": 8061,
      "شکلی": 8062,
      "کرو": 8063,
      "رفتاری": 8064,
      "مشخصی": 8065,
      "هدیه": 8066,
      "نرسیده": 8067,
      "بارسلونا": 8068,
      "ببرند": 8069,
      "صالح": 8070,
      "##کوک": 8071,
      "تسلی": 8072,
      "ممل": 8073,
      "##xt": 8074,
      "##ابادی": 8075,
      "قشر": 8076,
      "شرکتی": 8077,
      "بعدها": 8078,
      "۲۰۱۰": 8079,
      "اری": 8080,
      "مترمک": 8081,
      "کسبوکار": 8082,
      "متخلف": 8083,
      "نشسته": 8084,
      "دبیرخانه": 8085,
      "تعجب": 8086,
      "زهرا": 8087,
      "زعفر": 8088,
      "ایفای": 8089,
      "یاری": 8090,
      "ریاضی": 8091,
      "شایعات": 8092,
      "اصغر": 8093,
      "رسیدند": 8094,
      "مایع": 8095,
      "گفتمان": 8096,
      "خم": 8097,
      "باقیمانده": 8098,
      "نظم": 8099,
      "زین": 8100,
      "مصنوعی": 8101,
      "بدانیم": 8102,
      "بستری": 8103,
      "بروید": 8104,
      "نقشی": 8105,
      "برانکو": 8106,
      "بهروز": 8107,
      "اوریل": 8108,
      "##جمله": 8109,
      "هفتههای": 8110,
      "##عاتی": 8111,
      "مهمان": 8112,
      "اینطور": 8113,
      "سیمکارتهای": 8114,
      "##شناخت": 8115,
      "منظر": 8116,
      "ربی": 8117,
      "علل": 8118,
      "##وام": 8119,
      "نوبخت": 8120,
      "وص": 8121,
      "ظاهری": 8122,
      "##خانی": 8123,
      "نمیشد": 8124,
      "جوامع": 8125,
      "سلی": 8126,
      "اشی": 8127,
      "صداوسیما": 8128,
      "رام": 8129,
      "ناراحت": 8130,
      "##یهای": 8131,
      "سونی": 8132,
      "تغییری": 8133,
      "یادگیری": 8134,
      "دربارهی": 8135,
      "قراي": 8136,
      "کارهایی": 8137,
      "معوق": 8138,
      "تکف": 8139,
      "الحجة": 8140,
      "خاطره": 8141,
      "sh": 8142,
      "##ولان": 8143,
      "میرساند": 8144,
      "دلیلی": 8145,
      "اورژانس": 8146,
      "جیب": 8147,
      "۷۳": 8148,
      "کوش": 8149,
      "کارش": 8150,
      "##پارچه": 8151,
      "برانگی": 8152,
      "بازپرداخت": 8153,
      "تفاهمنامه": 8154,
      "کوب": 8155,
      "فقره": 8156,
      "مدتها": 8157,
      "برایتان": 8158,
      "لات": 8159,
      "هرمزگان": 8160,
      "مردادماه": 8161,
      "بدنی": 8162,
      "دوش": 8163,
      "پدرش": 8164,
      "مادرید": 8165,
      "فدرال": 8166,
      "کارامد": 8167,
      "##لین": 8168,
      "##بایی": 8169,
      "قايل": 8170,
      "ترکیبی": 8171,
      "معتقدم": 8172,
      "ونزويلا": 8173,
      "ویديو": 8174,
      "یکپارچه": 8175,
      "بپیوند": 8176,
      "مهران": 8177,
      "##راست": 8178,
      "اسکار": 8179,
      "اردوغان": 8180,
      "نامناسب": 8181,
      "##لک": 8182,
      "##ونگ": 8183,
      "اکتبر": 8184,
      "##ia": 8185,
      "فراگیر": 8186,
      "گرفتار": 8187,
      "فور": 8188,
      "نیستم": 8189,
      "پاسداران": 8190,
      "عاط": 8191,
      "ژنتی": 8192,
      "##ستیک": 8193,
      "بپردازند": 8194,
      "معده": 8195,
      "اینچ": 8196,
      "کمپین": 8197,
      "شناسه": 8198,
      "مینویسد": 8199,
      "یکصد": 8200,
      "بمان": 8201,
      "میزبانی": 8202,
      "نصر": 8203,
      "گروهها": 8204,
      "سازندگان": 8205,
      "نیت": 8206,
      "فرید": 8207,
      "مکمل": 8208,
      "انضباط": 8209,
      "روانشناسی": 8210,
      "##اتک": 8211,
      "رمان": 8212,
      "قابلیتهای": 8213,
      "چرب": 8214,
      "الش": 8215,
      "خاموش": 8216,
      "احیا": 8217,
      "قرانی": 8218,
      "استیضاح": 8219,
      "استراحت": 8220,
      "ترور": 8221,
      "راز": 8222,
      "پژوهشهای": 8223,
      "شهروندی": 8224,
      "##فیه": 8225,
      "کارگزار": 8226,
      "قسم": 8227,
      "دود": 8228,
      "غیردولتی": 8229,
      "##چیان": 8230,
      "میشوید": 8231,
      "برسند": 8232,
      "##تع": 8233,
      "دسامبر": 8234,
      "گمرکی": 8235,
      "قاطع": 8236,
      "قاسم": 8237,
      "اخوندی": 8238,
      "فراخوان": 8239,
      "##۲۵": 8240,
      "سرمایههای": 8241,
      "##هنی": 8242,
      "شریک": 8243,
      "نداشتن": 8244,
      "نقص": 8245,
      "شهرت": 8246,
      "ماهواره": 8247,
      "زمینهای": 8248,
      "##کسل": 8249,
      "حیوانات": 8250,
      "تداب": 8251,
      "برسیم": 8252,
      "هواشناسی": 8253,
      "بشود": 8254,
      "اونس": 8255,
      "رفتم": 8256,
      "خواهر": 8257,
      "پرچم": 8258,
      "گرافیک": 8259,
      "الخ": 8260,
      "هیچگونه": 8261,
      "رهن": 8262,
      "ایتالیایی": 8263,
      "ندید": 8264,
      "وری": 8265,
      "##ادله": 8266,
      "مترمکعب": 8267,
      "رانندگان": 8268,
      "##انگ": 8269,
      "۱۰۰۰": 8270,
      "١٣": 8271,
      "هورم": 8272,
      "هدفمند": 8273,
      "تغییراتی": 8274,
      "گویی": 8275,
      "میامد": 8276,
      "نیستیم": 8277,
      "دایی": 8278,
      "فیلتر": 8279,
      "عس": 8280,
      "##اقت": 8281,
      "اساسا": 8282,
      "##مات": 8283,
      "##جوی": 8284,
      "میگفتند": 8285,
      "##بوک": 8286,
      "جانبی": 8287,
      "مربیان": 8288,
      "گز": 8289,
      "حت": 8290,
      "خواص": 8291,
      "همهی": 8292,
      "اسفندماه": 8293,
      "برکن": 8294,
      "بخوانید": 8295,
      "فرمودند": 8296,
      "هواوی": 8297,
      "فیلمنامه": 8298,
      "##شیر": 8299,
      "##رماه": 8300,
      "فاضلاب": 8301,
      "##ستمی": 8302,
      "##خانهای": 8303,
      "ثالث": 8304,
      "نبودن": 8305,
      "بیند": 8306,
      "تدار": 8307,
      "گرانی": 8308,
      "##۷۱": 8309,
      "بپردازد": 8310,
      "سرویسهای": 8311,
      "بوجود": 8312,
      "ببینیم": 8313,
      "##سو": 8314,
      "مینماید": 8315,
      "اصولگرا": 8316,
      "شلیک": 8317,
      "##em": 8318,
      "مغازه": 8319,
      "##شمار": 8320,
      "تازهای": 8321,
      "مشورت": 8322,
      "##وجه": 8323,
      "امیری": 8324,
      "تپ": 8325,
      "##یدگی": 8326,
      "۷۸": 8327,
      "مود": 8328,
      "لرستان": 8329,
      "##یتا": 8330,
      "بعید": 8331,
      "رستوران": 8332,
      "ازجمله": 8333,
      "۶۹": 8334,
      "ارمنستان": 8335,
      "کادر": 8336,
      "##هرانی": 8337,
      "دیپلماتیک": 8338,
      "۷۶": 8339,
      "##ندر": 8340,
      "پایش": 8341,
      "رنگی": 8342,
      "ابوال": 8343,
      "تعرف": 8344,
      "اذرماه": 8345,
      "نکردهاند": 8346,
      "برگزیده": 8347,
      "بعضا": 8348,
      "##کوه": 8349,
      "حدودی": 8350,
      "تعویض": 8351,
      "دعا": 8352,
      "سوابق": 8353,
      "توانستند": 8354,
      "عصرب": 8355,
      "ابیاری": 8356,
      "aug": 8357,
      "تاثیرات": 8358,
      "شایعه": 8359,
      "عصربازار": 8360,
      "استک": 8361,
      "کیس": 8362,
      "قاره": 8363,
      "عرصههای": 8364,
      "پذیری": 8365,
      "پیوسته": 8366,
      "تمدن": 8367,
      "رقابتها": 8368,
      "وحشت": 8369,
      "سربازان": 8370,
      "متشکل": 8371,
      "مزار": 8372,
      "روستاهای": 8373,
      "کنی": 8374,
      "تاثیری": 8375,
      "یاران": 8376,
      "##عباس": 8377,
      "بکش": 8378,
      "تعبیر": 8379,
      "تار": 8380,
      "پروژهها": 8381,
      "##بورگ": 8382,
      "۱۹۵": 8383,
      "دورهای": 8384,
      "کلا": 8385,
      "##طن": 8386,
      "بازیها": 8387,
      "##۴۴": 8388,
      "گمان": 8389,
      "عقد": 8390,
      "چاب": 8391,
      "شکاف": 8392,
      "درخش": 8393,
      "شیوع": 8394,
      "وزرا": 8395,
      "بغداد": 8396,
      "حبس": 8397,
      "سرنشین": 8398,
      "مسيولی": 8399,
      "موثری": 8400,
      "مکل": 8401,
      "کوچکی": 8402,
      "اینجاست": 8403,
      "##کنه": 8404,
      "##یدرو": 8405,
      "##اداری": 8406,
      "جادهای": 8407,
      "میلیاردی": 8408,
      "برندهای": 8409,
      "تلفنهای": 8410,
      "حاجی": 8411,
      "توقی": 8412,
      "پرداختند": 8413,
      "##اپور": 8414,
      "بازه": 8415,
      "##کیا": 8416,
      "زعفران": 8417,
      "##صلی": 8418,
      "شل": 8419,
      "واض": 8420,
      "##الس": 8421,
      "ساکنان": 8422,
      "مبال": 8423,
      "گزینههای": 8424,
      "بازگشایی": 8425,
      "دوچر": 8426,
      "فروشگاه": 8427,
      "##شق": 8428,
      "خیلیها": 8429,
      "بیمههای": 8430,
      "قاتل": 8431,
      "صورتهای": 8432,
      "اسل": 8433,
      "صلو": 8434,
      "راهپیم": 8435,
      "جسد": 8436,
      "ایستاده": 8437,
      "هوشی": 8438,
      "معلمان": 8439,
      "##کین": 8440,
      "انتقادات": 8441,
      "چشمگیری": 8442,
      "شکار": 8443,
      "تمرینات": 8444,
      "جلسهای": 8445,
      "امشب": 8446,
      "نوشتن": 8447,
      "ربط": 8448,
      "رسالت": 8449,
      "##بای": 8450,
      "##مره": 8451,
      "تخلیه": 8452,
      "##وجود": 8453,
      "##ولین": 8454,
      "دیم": 8455,
      "##کف": 8456,
      "پرچمدار": 8457,
      "امارها": 8458,
      "مدد": 8459,
      "جسمی": 8460,
      "بگذارند": 8461,
      "پیشرو": 8462,
      "پلت": 8463,
      "##حسن": 8464,
      "انگار": 8465,
      "سرانه": 8466,
      "august": 8467,
      "قصه": 8468,
      "۶۶": 8469,
      "شاگردان": 8470,
      "فو": 8471,
      "معتر": 8472,
      "متهمان": 8473,
      "میدانی": 8474,
      "سرشماری": 8475,
      "##زده": 8476,
      "فروشندگان": 8477,
      "میبینید": 8478,
      "عذر": 8479,
      "ترافیکی": 8480,
      "هموطنان": 8481,
      "خسته": 8482,
      "ارجاع": 8483,
      "فراز": 8484,
      "بزنند": 8485,
      "##ندههای": 8486,
      "تماشای": 8487,
      "یاس": 8488,
      "پرف": 8489,
      "ریخت": 8490,
      "##درصد": 8491,
      "تجلیل": 8492,
      "ژنو": 8493,
      "١٤": 8494,
      "داوران": 8495,
      "سلیم": 8496,
      "##گونی": 8497,
      "جابه": 8498,
      "دارا": 8499,
      "بیاورد": 8500,
      "بردارد": 8501,
      "کبد": 8502,
      "##حر": 8503,
      "زرا": 8504,
      "صادرکنندگان": 8505,
      "تجربیات": 8506,
      "##یدان": 8507,
      "تیراندازی": 8508,
      "خوشح": 8509,
      "خالص": 8510,
      "##te": 8511,
      "محاکمه": 8512,
      "پوند": 8513,
      "فریب": 8514,
      "غیرن": 8515,
      "ذهنی": 8516,
      "اختیارات": 8517,
      "زنجیر": 8518,
      "بعنوان": 8519,
      "حاي": 8520,
      "ict": 8521,
      "##لان": 8522,
      "نرخی": 8523,
      "انصراف": 8524,
      "الجی": 8525,
      "جوایز": 8526,
      "موز": 8527,
      "##حساب": 8528,
      "##نیوز": 8529,
      "محرومیت": 8530,
      "زبال": 8531,
      "یونان": 8532,
      "پروندههای": 8533,
      "تسریع": 8534,
      "برویم": 8535,
      "عکاسی": 8536,
      "معای": 8537,
      "گوی": 8538,
      "##اعت": 8539,
      "معض": 8540,
      "فرمول": 8541,
      "بنگاه": 8542,
      "##عکس": 8543,
      "سوزی": 8544,
      "تشی": 8545,
      "ید": 8546,
      "فوقالع": 8547,
      "ساختاری": 8548,
      "مداوم": 8549,
      "افزاری": 8550,
      "پاداش": 8551,
      "نهادها": 8552,
      "تکفیری": 8553,
      "بارداری": 8554,
      "##ویز": 8555,
      "##غالی": 8556,
      "وعدههای": 8557,
      "نمره": 8558,
      "سویی": 8559,
      "بهرهوری": 8560,
      "هلند": 8561,
      "توط": 8562,
      "استانداری": 8563,
      "مکعب": 8564,
      "##۳۶": 8565,
      "هذه": 8566,
      "کیهان": 8567,
      "ازمایشی": 8568,
      "نوشید": 8569,
      "داروی": 8570,
      "صعودی": 8571,
      "رحمانی": 8572,
      "بزرگان": 8573,
      "خوشایند": 8574,
      "جغرافیایی": 8575,
      "ارایش": 8576,
      "فعالیتها": 8577,
      "سناری": 8578,
      "##شاهی": 8579,
      "منظم": 8580,
      "شاهر": 8581,
      "غبار": 8582,
      "بامد": 8583,
      "##ul": 8584,
      "شجا": 8585,
      "##لای": 8586,
      "۱۳۸۹": 8587,
      "سینا": 8588,
      "صادقی": 8589,
      "مایل": 8590,
      "نامگذاری": 8591,
      "میدهم": 8592,
      "نجومی": 8593,
      "زیرب": 8594,
      "دانشجوی": 8595,
      "##وچ": 8596,
      "گرفتم": 8597,
      "فوریه": 8598,
      "نرو": 8599,
      "تصدی": 8600,
      "القا": 8601,
      "کردهام": 8602,
      "ورشک": 8603,
      "کشی": 8604,
      "حبی": 8605,
      "##یع": 8606,
      "طعم": 8607,
      "مقامهای": 8608,
      "##ویچ": 8609,
      "##شکده": 8610,
      "زیستی": 8611,
      "##راز": 8612,
      "محرک": 8613,
      "میاورند": 8614,
      "سرشار": 8615,
      "نکردند": 8616,
      "تظاهرات": 8617,
      "سیاستها": 8618,
      "سيوال": 8619,
      "چشمگیر": 8620,
      "۷۹": 8621,
      "بازیگری": 8622,
      "نظرم": 8623,
      "اجتن": 8624,
      "پیامک": 8625,
      "مگاو": 8626,
      "مزیت": 8627,
      "تاپ": 8628,
      "وت": 8629,
      "جوش": 8630,
      "موتورسی": 8631,
      "نواز": 8632,
      "فرق": 8633,
      "نفری": 8634,
      "شکسته": 8635,
      "خیال": 8636,
      "توضیحات": 8637,
      "دلی": 8638,
      "متقابل": 8639,
      "خصوصا": 8640,
      "خستگی": 8641,
      "پیک": 8642,
      "بررسیها": 8643,
      "راجع": 8644,
      "زحمت": 8645,
      "غزه": 8646,
      "##مداران": 8647,
      "محکم": 8648,
      "ابن": 8649,
      "باکتری": 8650,
      "پهلوی": 8651,
      "نشانههای": 8652,
      "خزر": 8653,
      "##وود": 8654,
      "ویدي": 8655,
      "شوروی": 8656,
      "سالیانه": 8657,
      "ارژ": 8658,
      "بخصوص": 8659,
      "##ادمی": 8660,
      "##ونزی": 8661,
      "کسر": 8662,
      "مقدماتی": 8663,
      "فاک": 8664,
      "کارگزاری": 8665,
      "پرسید": 8666,
      "اوکراین": 8667,
      "طار": 8668,
      "##گوار": 8669,
      "گره": 8670,
      "ريیسجمهوری": 8671,
      "مکلف": 8672,
      "پلاک": 8673,
      "##wn": 8674,
      "##گیل": 8675,
      "دکتری": 8676,
      "اجتناب": 8677,
      "##ضه": 8678,
      "وسط": 8679,
      "هنرهای": 8680,
      "##کسوت": 8681,
      "##امهای": 8682,
      "پاپ": 8683,
      "##۲۲": 8684,
      "انحراف": 8685,
      "زندانی": 8686,
      "علمیه": 8687,
      "##قال": 8688,
      "پتانسیل": 8689,
      "بدل": 8690,
      "text": 8691,
      "##کول": 8692,
      "التح": 8693,
      "ناگهانی": 8694,
      "##۱۱": 8695,
      "##ماعیل": 8696,
      "مواجهه": 8697,
      "معاینه": 8698,
      "دلس": 8699,
      "##رال": 8700,
      "خراب": 8701,
      "نامیده": 8702,
      "ناام": 8703,
      "نمیشوند": 8704,
      "فیر": 8705,
      "خرده": 8706,
      "سازان": 8707,
      "۷۴": 8708,
      "بنادر": 8709,
      "درخشان": 8710,
      "نوشیدنی": 8711,
      "##بخشی": 8712,
      "والم": 8713,
      "افزایشی": 8714,
      "محوط": 8715,
      "صریح": 8716,
      "توقیف": 8717,
      "کردهاید": 8718,
      "بچههای": 8719,
      "باستان": 8720,
      "نوار": 8721,
      "سواحل": 8722,
      "فرهاد": 8723,
      "اصلاحطلب": 8724,
      "کارافرینی": 8725,
      "تدریس": 8726,
      "بدتر": 8727,
      "نمیکنم": 8728,
      "##۸۵": 8729,
      "لهستان": 8730,
      "توکلی": 8731,
      "پیشکسوت": 8732,
      "تهرانی": 8733,
      "لایه": 8734,
      "دوچرخه": 8735,
      "##مداری": 8736,
      "درود": 8737,
      "بامداد": 8738,
      "قص": 8739,
      "گیرند": 8740,
      "کفش": 8741,
      "##قول": 8742,
      "##گانهای": 8743,
      "برایشان": 8744,
      "تبع": 8745,
      "##جاج": 8746,
      "بزنید": 8747,
      "محتوا": 8748,
      "##ملی": 8749,
      "پرخ": 8750,
      "##iv": 8751,
      "عکسهای": 8752,
      "دادهایم": 8753,
      "بیایند": 8754,
      "میت": 8755,
      "بگویند": 8756,
      "نصف": 8757,
      "صدم": 8758,
      "تحلیلهای": 8759,
      "جاسوسی": 8760,
      "معاصر": 8761,
      "##الیف": 8762,
      "فیفا": 8763,
      "چهل": 8764,
      "قبر": 8765,
      "راهور": 8766,
      "خردادماه": 8767,
      "##الان": 8768,
      "واژ": 8769,
      "عزم": 8770,
      "اجباری": 8771,
      "تایل": 8772,
      "واگن": 8773,
      "راهپیمایی": 8774,
      "نکردن": 8775,
      "استودی": 8776,
      "واعظی": 8777,
      "طنز": 8778,
      "مخصوصا": 8779,
      "منز": 8780,
      "کردهاست": 8781,
      "ابادی": 8782,
      "درامدی": 8783,
      "علام": 8784,
      "##خیز": 8785,
      "##غه": 8786,
      "مناسبات": 8787,
      "نخواهیم": 8788,
      "کارمند": 8789,
      "##طلب": 8790,
      "استعداد": 8791,
      "خیانت": 8792,
      "##پز": 8793,
      "##رداد": 8794,
      "استخراج": 8795,
      "پسته": 8796,
      "پید": 8797,
      "زدند": 8798,
      "##یروش": 8799,
      "##ذب": 8800,
      "اژ": 8801,
      "نزولی": 8802,
      "سبزیجات": 8803,
      "زنجیره": 8804,
      "##میز": 8805,
      "توری": 8806,
      "تاسف": 8807,
      "۲۰۱۸": 8808,
      "اتفاقا": 8809,
      "درونی": 8810,
      "##ساب": 8811,
      "میکرو": 8812,
      "سخنانی": 8813,
      "گرفتیم": 8814,
      "اندونزی": 8815,
      "##عالی": 8816,
      "محافظت": 8817,
      "سطحی": 8818,
      "##طار": 8819,
      "گرامی": 8820,
      "جهادی": 8821,
      "بیانگر": 8822,
      "سرما": 8823,
      "اییننامه": 8824,
      "جعفر": 8825,
      "قیمتگذاری": 8826,
      "##iz": 8827,
      "ایستاد": 8828,
      "همینطور": 8829,
      "دادههای": 8830,
      "درحالیکه": 8831,
      "بیاور": 8832,
      "نکت": 8833,
      "بیاب": 8834,
      "##بو": 8835,
      "##شو": 8836,
      "وای": 8837,
      "اتباع": 8838,
      "##یرت": 8839,
      "شیعیان": 8840,
      "گال": 8841,
      "سلفی": 8842,
      "بیماریها": 8843,
      "مدام": 8844,
      "اقتصاددان": 8845,
      "پاییز": 8846,
      "ذیر": 8847,
      "جزییات": 8848,
      "##ورماه": 8849,
      "افزون": 8850,
      "مراقب": 8851,
      "بیدار": 8852,
      "غم": 8853,
      "کارد": 8854,
      "قهوه": 8855,
      "نحو": 8856,
      "مجر": 8857,
      "رایانه": 8858,
      "##۳۴": 8859,
      "کلیس": 8860,
      "واحدها": 8861,
      "بشار": 8862,
      "مصاف": 8863,
      "##لیق": 8864,
      "فینال": 8865,
      "ذیربط": 8866,
      "سکته": 8867,
      "اموزشهای": 8868,
      "شیوههای": 8869,
      "فرماندار": 8870,
      "الى": 8871,
      "دموکرات": 8872,
      "شهریورماه": 8873,
      "تنی": 8874,
      "نگ": 8875,
      "ازادر": 8876,
      "##ساله": 8877,
      "ایمن": 8878,
      "##زامی": 8879,
      "جهش": 8880,
      "بیکار": 8881,
      "ایکس": 8882,
      "اسماعیل": 8883,
      "عاطفی": 8884,
      "مکرر": 8885,
      "box": 8886,
      "منعقد": 8887,
      "مرتب": 8888,
      "تسلیم": 8889,
      "بهشت": 8890,
      "نصی": 8891,
      "استارت": 8892,
      "مادی": 8893,
      "نمیدهند": 8894,
      "الکتریکی": 8895,
      "گواه": 8896,
      "##ورند": 8897,
      "مطالبه": 8898,
      "ارژانت": 8899,
      "جلوه": 8900,
      "صفح": 8901,
      "نگرفت": 8902,
      "##برت": 8903,
      "نابود": 8904,
      "ویل": 8905,
      "##امدی": 8906,
      "##۶۶": 8907,
      "##وتا": 8908,
      "قاسمی": 8909,
      "وزنه": 8910,
      "الهام": 8911,
      "فاکتور": 8912,
      "کلانشهر": 8913,
      "عال": 8914,
      "کرسی": 8915,
      "فد": 8916,
      "بارز": 8917,
      "سایبری": 8918,
      "##چیز": 8919,
      "دب": 8920,
      "##البی": 8921,
      "of": 8922,
      "اتریش": 8923,
      "قویت": 8924,
      "گانه": 8925,
      "مریم": 8926,
      "وسیع": 8927,
      "اطلاعیه": 8928,
      "سکونت": 8929,
      "استح": 8930,
      "همدلی": 8931,
      "تصفیه": 8932,
      "۲۰۰۳": 8933,
      "انچ": 8934,
      "حتى": 8935,
      "قرايت": 8936,
      "نبودند": 8937,
      "حیث": 8938,
      "ساحل": 8939,
      "نابودی": 8940,
      "میپردازند": 8941,
      "##گرمی": 8942,
      "مقی": 8943,
      "محمدعلی": 8944,
      "تازهترین": 8945,
      "خواهم": 8946,
      "میوههای": 8947,
      "ادارات": 8948,
      "اندی": 8949,
      "طبیعتا": 8950,
      "##پاشی": 8951,
      "تعقیب": 8952,
      "جایگزینی": 8953,
      "##سام": 8954,
      "استد": 8955,
      "لبنیات": 8956,
      "بختیاری": 8957,
      "مداخله": 8958,
      "چاپی": 8959,
      "شماری": 8960,
      "مولف": 8961,
      "تایمز": 8962,
      "امکانپذیر": 8963,
      "شکن": 8964,
      "عمدهای": 8965,
      "درب": 8966,
      "دراورد": 8967,
      "ورزشکاران": 8968,
      "مهارتهای": 8969,
      "بشناس": 8970,
      "سويد": 8971,
      "حلب": 8972,
      "##یتون": 8973,
      "توسعهای": 8974,
      "##نمایی": 8975,
      "نمایشی": 8976,
      "پان": 8977,
      "کوچکتر": 8978,
      "متوالی": 8979,
      "تحلیلگران": 8980,
      "an": 8981,
      "کاراگاه": 8982,
      "میگذارند": 8983,
      "محص": 8984,
      "گفتهاند": 8985,
      "عبارتند": 8986,
      "فوتبالی": 8987,
      "بازدهی": 8988,
      "اکتش": 8989,
      "##oo": 8990,
      "تلفات": 8991,
      "توافقنامه": 8992,
      "روال": 8993,
      "پراک": 8994,
      "ربیعی": 8995,
      "خدایا": 8996,
      "کاهشی": 8997,
      "هیل": 8998,
      "منچ": 8999,
      "۱۶۰": 9000,
      "بینداز": 9001,
      "۲۰۰۹": 9002,
      "ترش": 9003,
      "براى": 9004,
      "بحرانی": 9005,
      "اوردند": 9006,
      "نمیرسد": 9007,
      "کب": 9008,
      "پژوهشگران": 9009,
      "نما": 9010,
      "##پد": 9011,
      "قرص": 9012,
      "کالری": 9013,
      "اجتماع": 9014,
      "خال": 9015,
      "معیشت": 9016,
      "۶۱": 9017,
      "۹۸": 9018,
      "زار": 9019,
      "هسته": 9020,
      "مختص": 9021,
      "ربات": 9022,
      "سالجاری": 9023,
      "شنید": 9024,
      "شیرینی": 9025,
      "چاقی": 9026,
      "مارک": 9027,
      "تها": 9028,
      "لم": 9029,
      "خسرو": 9030,
      "##مری": 9031,
      "##رق": 9032,
      "حملون": 9033,
      "##۲۹": 9034,
      "ناراحتی": 9035,
      "سلول": 9036,
      "رونالد": 9037,
      "کلاسی": 9038,
      "جداگانه": 9039,
      "حايز": 9040,
      "##مردان": 9041,
      "سلطانی": 9042,
      "شنیدن": 9043,
      "پارسال": 9044,
      "مرتکب": 9045,
      "##تش": 9046,
      "انهاست": 9047,
      "مزد": 9048,
      "رسان": 9049,
      "میزد": 9050,
      "##اسط": 9051,
      "دموکراسی": 9052,
      "مطلق": 9053,
      "نواحی": 9054,
      "##یسازی": 9055,
      "مقوله": 9056,
      "##اسازی": 9057,
      "##گهای": 9058,
      "نمونههای": 9059,
      "برایم": 9060,
      "##وارهای": 9061,
      "روحانیت": 9062,
      "##وها": 9063,
      "میفرمای": 9064,
      "بسیجی": 9065,
      "بدترین": 9066,
      "تدابیر": 9067,
      "بگویید": 9068,
      "بخشها": 9069,
      "بخار": 9070,
      "پانز": 9071,
      "##لسی": 9072,
      "فریاد": 9073,
      "ازادراه": 9074,
      "حیاتی": 9075,
      "نشین": 9076,
      "مجاهد": 9077,
      "کشورش": 9078,
      "تدارک": 9079,
      "افشا": 9080,
      "##حاب": 9081,
      "مجتبی": 9082,
      "تايید": 9083,
      "میانداز": 9084,
      "فیسبوک": 9085,
      "فقه": 9086,
      "همگانی": 9087,
      "##گام": 9088,
      "the": 9089,
      "استکبار": 9090,
      "محبت": 9091,
      "کارفرمای": 9092,
      "اوت": 9093,
      "نکنیم": 9094,
      "ملاحظ": 9095,
      "فاش": 9096,
      "کشاورز": 9097,
      "مصرفکنندگان": 9098,
      "شرعی": 9099,
      "فلزی": 9100,
      "شدگان": 9101,
      "احسان": 9102,
      "تالاب": 9103,
      "##تمام": 9104,
      "کنسول": 9105,
      "ولى": 9106,
      "سادگی": 9107,
      "یق": 9108,
      "امروزی": 9109,
      "ارزوی": 9110,
      "مابقی": 9111,
      "اسکناس": 9112,
      "##اثر": 9113,
      "محبوبیت": 9114,
      "دوی": 9115,
      "۸۷": 9116,
      "انتخابی": 9117,
      "تسلیت": 9118,
      "عفونت": 9119,
      "بزرگسال": 9120,
      "مصالح": 9121,
      "باق": 9122,
      "درختان": 9123,
      "##وقت": 9124,
      "جمهوریخواه": 9125,
      "تیتر": 9126,
      "تجزیه": 9127,
      "نشوند": 9128,
      "دامپزشکی": 9129,
      "پایبند": 9130,
      "ملاحظه": 9131,
      "امان": 9132,
      "اتشن": 9133,
      "تعلیق": 9134,
      "ممت": 9135,
      "طباط": 9136,
      "پارلمانی": 9137,
      "شواهد": 9138,
      "##افقی": 9139,
      "برو": 9140,
      "زندانیان": 9141,
      "منکر": 9142,
      "قربانیان": 9143,
      "داشتهایم": 9144,
      "ty": 9145,
      "##گرامی": 9146,
      "خونی": 9147,
      "مطمينا": 9148,
      "##im": 9149,
      "استانبول": 9150,
      "حملونقل": 9151,
      "سوءاستفاده": 9152,
      "ترانه": 9153,
      "فرستاده": 9154,
      "انحصار": 9155,
      "##پل": 9156,
      "تبعات": 9157,
      "واردکنندگان": 9158,
      "جنین": 9159,
      "تصادفات": 9160,
      "##پوشان": 9161,
      "تحریر": 9162,
      "انصار": 9163,
      "##بیان": 9164,
      "تشک": 9165,
      "##ايو": 9166,
      "غیرنفتی": 9167,
      "یهودی": 9168,
      "قزاق": 9169,
      "نظامیان": 9170,
      "##فهم": 9171,
      "ایه": 9172,
      "ابراه": 9173,
      "اماکن": 9174,
      "همگان": 9175,
      "اتهامات": 9176,
      "خوی": 9177,
      "دز": 9178,
      "##وض": 9179,
      "##وزیر": 9180,
      "##کانی": 9181,
      "پله": 9182,
      "سالگرد": 9183,
      "##ap": 9184,
      "رانت": 9185,
      "بازارها": 9186,
      "قلی": 9187,
      "شاعر": 9188,
      "شباه": 9189,
      "مشمولان": 9190,
      "روانشناس": 9191,
      "دوستانه": 9192,
      "انداخته": 9193,
      "نگذ": 9194,
      "فرماندهان": 9195,
      "کیروش": 9196,
      "تصمیمی": 9197,
      "بایستی": 9198,
      "##ent": 9199,
      "##شانی": 9200,
      "##اندی": 9201,
      "##سکو": 9202,
      "##انلاین": 9203,
      "##طانی": 9204,
      "صی": 9205,
      "##باران": 9206,
      "##مجم": 9207,
      "رساندن": 9208,
      "عباسی": 9209,
      "##خوش": 9210,
      "نهاده": 9211,
      "##غیب": 9212,
      "جویی": 9213,
      "شریعت": 9214,
      "تفری": 9215,
      "صادرکننده": 9216,
      "ناز": 9217,
      "بخواهند": 9218,
      "نجفی": 9219,
      "##مار": 9220,
      "عاملی": 9221,
      "فشارهای": 9222,
      "##کیف": 9223,
      "خاتمه": 9224,
      "دیپلمات": 9225,
      "تبعی": 9226,
      "جراي": 9227,
      "##احلی": 9228,
      "درسی": 9229,
      "تصرف": 9230,
      "مکزیک": 9231,
      "##شیان": 9232,
      "##بیا": 9233,
      "ازادگان": 9234,
      "فیلی": 9235,
      "سازندگی": 9236,
      "دامد": 9237,
      "میگنا": 9238,
      "دربی": 9239,
      "چشماند": 9240,
      "توافقی": 9241,
      "ریخته": 9242,
      "اردوی": 9243,
      "##ارستان": 9244,
      "تطبی": 9245,
      "ناگهان": 9246,
      "سلطه": 9247,
      "دوری": 9248,
      "کلاهبرداری": 9249,
      "##if": 9250,
      "کناره": 9251,
      "انعقاد": 9252,
      "احمر": 9253,
      "تشکلهای": 9254,
      "افریقای": 9255,
      "پیاز": 9256,
      "##نگاری": 9257,
      "هاف": 9258,
      "بره": 9259,
      "کالی": 9260,
      "گامهای": 9261,
      "خانمها": 9262,
      "پیشبرد": 9263,
      "##ضر": 9264,
      "پری": 9265,
      "sty": 9266,
      "نشاط": 9267,
      "ناه": 9268,
      "##۸۹": 9269,
      "سنین": 9270,
      "پیامدهای": 9271,
      "##اوین": 9272,
      "قراردادها": 9273,
      "مجامع": 9274,
      "زیرزمینی": 9275,
      "لاتین": 9276,
      "استدلال": 9277,
      "شناور": 9278,
      "فیروز": 9279,
      "دستیار": 9280,
      "پلتفر": 9281,
      "##نشینی": 9282,
      "قبولی": 9283,
      "اسمارت": 9284,
      "پرویز": 9285,
      "فردوسی": 9286,
      "میبینند": 9287,
      "حرکات": 9288,
      "حجاج": 9289,
      "##rc": 9290,
      "ابادان": 9291,
      "برن": 9292,
      "بنز": 9293,
      "کربلا": 9294,
      "بوي": 9295,
      "معضلات": 9296,
      "دشت": 9297,
      "قطب": 9298,
      "کیم": 9299,
      "اواسط": 9300,
      "توفیق": 9301,
      "کلانتری": 9302,
      "فیلمبرداری": 9303,
      "طرز": 9304,
      "##احمد": 9305,
      "واضح": 9306,
      "انتن": 9307,
      "قید": 9308,
      "گرایی": 9309,
      "##اصره": 9310,
      "##ارو": 9311,
      "خواستههای": 9312,
      "جیم": 9313,
      "سلطان": 9314,
      "قن": 9315,
      "رادیویی": 9316,
      "عذرخواهی": 9317,
      "##کونیوز": 9318,
      "ببریم": 9319,
      "محوریت": 9320,
      "گلایه": 9321,
      "عزیزان": 9322,
      "type": 9323,
      "ببینند": 9324,
      "##اقی": 9325,
      "داروها": 9326,
      "میبیند": 9327,
      "ترانز": 9328,
      "۶۳": 9329,
      "نداشتیم": 9330,
      "تندرو": 9331,
      "انتصاب": 9332,
      "منس": 9333,
      "##گزار": 9334,
      "بپیوندید": 9335,
      "پاور": 9336,
      "عناوین": 9337,
      "منصور": 9338,
      "محرم": 9339,
      "محاصره": 9340,
      "##چین": 9341,
      "اقلیم": 9342,
      "شکلگیری": 9343,
      "قدرتهای": 9344,
      "پاسخگوی": 9345,
      "مفاد": 9346,
      "استعفا": 9347,
      "حوا": 9348,
      "##رفت": 9349,
      "درمورد": 9350,
      "ثروتمند": 9351,
      "##ایقی": 9352,
      "ختم": 9353,
      "حرکتی": 9354,
      "دکل": 9355,
      "##يون": 9356,
      "فقدان": 9357,
      "اشتغالزایی": 9358,
      "۸۳": 9359,
      "روزنامههای": 9360,
      "ملکی": 9361,
      "خلاقیت": 9362,
      "پیوستن": 9363,
      "دادسرای": 9364,
      "تیپ": 9365,
      "شناختی": 9366,
      "گردیده": 9367,
      "style": 9368,
      "##احافظ": 9369,
      "اراک": 9370,
      "##رون": 9371,
      "فلزات": 9372,
      "مسیرهای": 9373,
      "##فون": 9374,
      "همسای": 9375,
      "پنجره": 9376,
      "طرفدار": 9377,
      "درصدد": 9378,
      "##ادو": 9379,
      "١٠": 9380,
      "باراک": 9381,
      "##۴۶": 9382,
      "##اهری": 9383,
      "##۵۵": 9384,
      "سويی": 9385,
      "پروازهای": 9386,
      "یاز": 9387,
      "مسوولیت": 9388,
      "صراحت": 9389,
      "خداحافظ": 9390,
      "تونل": 9391,
      "تقلید": 9392,
      "نویسندگان": 9393,
      "##ظری": 9394,
      "خبرها": 9395,
      "فیها": 9396,
      "محوطه": 9397,
      "جذابیت": 9398,
      "##رها": 9399,
      "خند": 9400,
      "مگاوات": 9401,
      "دولتمردان": 9402,
      "پشتوانه": 9403,
      "حرارت": 9404,
      "دلایلی": 9405,
      "المسلمین": 9406,
      "التهاب": 9407,
      "##are": 9408,
      "ندارید": 9409,
      "عبارتی": 9410,
      "ماندگار": 9411,
      "بام": 9412,
      "دقیقی": 9413,
      "##راق": 9414,
      "۱۸۰": 9415,
      "طارمی": 9416,
      "عصرخودرو": 9417,
      "کرامت": 9418,
      "ببرید": 9419,
      "تعالی": 9420,
      "جانباز": 9421,
      "محرمانه": 9422,
      "زیرمجم": 9423,
      "پورت": 9424,
      "عینا": 9425,
      "##میع": 9426,
      "داران": 9427,
      "میشناس": 9428,
      "منافق": 9429,
      "کمپ": 9430,
      "پاسخگو": 9431,
      "کاسپین": 9432,
      "##هایشان": 9433,
      "پهنای": 9434,
      "جرايم": 9435,
      "توانستیم": 9436,
      "##شههای": 9437,
      "نیج": 9438,
      "##ut": 9439,
      "مقصر": 9440,
      "سالروز": 9441,
      "##وعا": 9442,
      "اصولی": 9443,
      "تروریستهای": 9444,
      "بپذیر": 9445,
      "چیزهایی": 9446,
      "کوچه": 9447,
      "جع": 9448,
      "مفاهیم": 9449,
      "تابع": 9450,
      "عده": 9451,
      "الام": 9452,
      "##یدهای": 9453,
      "مبانی": 9454,
      "سواد": 9455,
      "فوقالعاده": 9456,
      "لیزین": 9457,
      "فروشگاههای": 9458,
      "میگرد": 9459,
      "بهکار": 9460,
      "شناسنامه": 9461,
      "اقیانوس": 9462,
      "میدانست": 9463,
      "بندرعباس": 9464,
      "شوک": 9465,
      "لیس": 9466,
      "پارکینگ": 9467,
      "کارگزاران": 9468,
      "##لوبی": 9469,
      "اللهم": 9470,
      "حضوری": 9471,
      "##طهای": 9472,
      "گوجه": 9473,
      "سويیس": 9474,
      "اصحاب": 9475,
      "دوگانه": 9476,
      "ششمین": 9477,
      "دغدغههای": 9478,
      "انیمی": 9479,
      "درمی": 9480,
      "##اقض": 9481,
      "اضافی": 9482,
      "کهن": 9483,
      "بروم": 9484,
      "ناچار": 9485,
      "##ايه": 9486,
      "شخصیتی": 9487,
      "کابل": 9488,
      "باشگاههای": 9489,
      "کیفری": 9490,
      "مگاپی": 9491,
      "غد": 9492,
      "بوک": 9493,
      "بنای": 9494,
      "سانتی": 9495,
      "بلا": 9496,
      "نقره": 9497,
      "راهاهن": 9498,
      "##میلیون": 9499,
      "اعصاب": 9500,
      "##عشی": 9501,
      "عواملی": 9502,
      "خیابانهای": 9503,
      "##پزشکی": 9504,
      "##رند": 9505,
      "اسیای": 9506,
      "پررنگ": 9507,
      "تسل": 9508,
      "بهت": 9509,
      "حکومتی": 9510,
      "نهض": 9511,
      "مطبوعاتی": 9512,
      "طباطبایی": 9513,
      "تمه": 9514,
      "ترکمنستان": 9515,
      "نمیکنیم": 9516,
      "دفع": 9517,
      "اسرايیلی": 9518,
      "تامل": 9519,
      "سازد": 9520,
      "##um": 9521,
      "رش": 9522,
      "نکونیوز": 9523,
      "زیتون": 9524,
      "میعان": 9525,
      "۶۷": 9526,
      "چابهار": 9527,
      "گوسف": 9528,
      "بات": 9529,
      "##بالله": 9530,
      "حرفی": 9531,
      "ادی": 9532,
      "نگرش": 9533,
      "دخانی": 9534,
      "نجف": 9535,
      "اسلحه": 9536,
      "گوشه": 9537,
      "ip": 9538,
      "ظلم": 9539,
      "تساوی": 9540,
      "##يیس": 9541,
      "غول": 9542,
      "بازتاب": 9543,
      "الدین": 9544,
      "اهدای": 9545,
      "صدام": 9546,
      "بويینگ": 9547,
      "اکر": 9548,
      "شکم": 9549,
      "فرهادی": 9550,
      "مخابراتی": 9551,
      "جلد": 9552,
      "وک": 9553,
      "میعانات": 9554,
      "سرنگ": 9555,
      "هیچکس": 9556,
      "معین": 9557,
      "فال": 9558,
      "یوسف": 9559,
      "##مادی": 9560,
      "jav": 9561,
      "##ضایتی": 9562,
      "شست": 9563,
      "چشمانداز": 9564,
      "##پایه": 9565,
      "مخلوط": 9566,
      "اوی": 9567,
      "اکادمی": 9568,
      "اثری": 9569,
      "برم": 9570,
      "واکس": 9571,
      "موتورسیکلت": 9572,
      "روزمره": 9573,
      "میلیونها": 9574,
      "بازنشسته": 9575,
      "سوپر": 9576,
      "تحلیلگر": 9577,
      "##ارگ": 9578,
      "سلاحهای": 9579,
      "پیمانکاران": 9580,
      "سرکوب": 9581,
      "برهم": 9582,
      "توي": 9583,
      "پیگیر": 9584,
      "معاونان": 9585,
      "دامی": 9586,
      "خبرانلاین": 9587,
      "بیس": 9588,
      "میدارد": 9589,
      "تعرفههای": 9590,
      "##نل": 9591,
      "مجوزهای": 9592,
      "خیریه": 9593,
      "کاراگاهان": 9594,
      "شوخی": 9595,
      "دیه": 9596,
      "##کسلی": 9597,
      "سایز": 9598,
      "مصدوم": 9599,
      "##نال": 9600,
      "تاثیرگذاری": 9601,
      "مسیری": 9602,
      "تایلند": 9603,
      "گذاشتند": 9604,
      "نمیاید": 9605,
      "وات": 9606,
      "##ers": 9607,
      "مستح": 9608,
      "خنده": 9609,
      "برخورداری": 9610,
      "پیامهای": 9611,
      "ترسیم": 9612,
      "میرسند": 9613,
      "ستون": 9614,
      "چم": 9615,
      "غیبت": 9616,
      "باستانی": 9617,
      "مسم": 9618,
      "##یافت": 9619,
      "نانو": 9620,
      "مادرش": 9621,
      "گریه": 9622,
      "توم": 9623,
      "ترغیب": 9624,
      "دايم": 9625,
      "انشا": 9626,
      "درنظر": 9627,
      "##یها": 9628,
      "ناکار": 9629,
      "دارندگان": 9630,
      "زیرمجموعه": 9631,
      "حسب": 9632,
      "قزاقستان": 9633,
      "##چال": 9634,
      "گور": 9635,
      "پیشروی": 9636,
      "میگوییم": 9637,
      "ايین": 9638,
      "افراط": 9639,
      "اسبق": 9640,
      "ساختمانهای": 9641,
      "دانه": 9642,
      "سانت": 9643,
      "نشینی": 9644,
      "src": 9645,
      "موضوعاتی": 9646,
      "ایوان": 9647,
      "راهبر": 9648,
      "script": 9649,
      "حواشی": 9650,
      "اقبال": 9651,
      "ساحلی": 9652,
      "##۸۸": 9653,
      "تصاویری": 9654,
      "۷۱": 9655,
      "اردن": 9656,
      "کرهای": 9657,
      "مساعد": 9658,
      "بالق": 9659,
      "معط": 9660,
      "استم": 9661,
      "ارض": 9662,
      "بدر": 9663,
      "am": 9664,
      "##na": 9665,
      "شدیدی": 9666,
      "نیش": 9667,
      "رقبای": 9668,
      "تماشاگران": 9669,
      "برپایی": 9670,
      "##ascript": 9671,
      "javascript": 9672,
      "al": 9673,
      "اسح": 9674,
      "دشواری": 9675,
      "وامهای": 9676,
      "والمسلمین": 9677,
      "الزامات": 9678,
      "سیبنا": 9679,
      "رونالدو": 9680,
      "۸۱": 9681,
      "zwn": 9682,
      "تمیز": 9683,
      "کارفرمایان": 9684,
      "یکسری": 9685,
      "بازرگان": 9686,
      "فضاهای": 9687,
      "وحید": 9688,
      "شاخه": 9689,
      "انسجام": 9690,
      "وصل": 9691,
      "اساسنامه": 9692,
      "هفتهای": 9693,
      "احتساب": 9694,
      "تفریح": 9695,
      "انرا": 9696,
      "وخ": 9697,
      "احراز": 9698,
      "دادستانی": 9699,
      "زخم": 9700,
      "الک": 9701,
      "برسانند": 9702,
      "تمهید": 9703,
      "بخشهایی": 9704,
      "##۳۱": 9705,
      "بهم": 9706,
      "پیکان": 9707,
      "پدرم": 9708,
      "نمیگیرد": 9709,
      "##راکم": 9710,
      "ایات": 9711,
      "بهرام": 9712,
      "##شاری": 9713,
      "۱۳۸۸": 9714,
      "روده": 9715,
      "پردازش": 9716,
      "مبالغ": 9717,
      "zwnj": 9718,
      "##اقب": 9719,
      "مشکوک": 9720,
      "تيوری": 9721,
      "بیژن": 9722,
      "بعداز": 9723,
      "گلوله": 9724,
      "##ظور": 9725,
      "اصولا": 9726,
      "الات": 9727,
      "همیش": 9728,
      "بحثهای": 9729,
      "بشری": 9730,
      "قسمتهای": 9731,
      "نرسید": 9732,
      "##سور": 9733,
      "بیه": 9734,
      "##کیفیت": 9735,
      "علاقهم": 9736,
      "ببیند": 9737,
      "نارضایتی": 9738,
      "هیدرو": 9739,
      "تلفیق": 9740,
      "کارل": 9741,
      "اوار": 9742,
      "سلس": 9743,
      "کرای": 9744,
      "فرک": 9745,
      "##اتا": 9746,
      "قسمتی": 9747,
      "بهنظر": 9748,
      "ابزاری": 9749,
      "ریل": 9750,
      "سلیمانی": 9751,
      "سوق": 9752,
      "رحیمی": 9753,
      "جلال": 9754,
      "انیمیشن": 9755,
      "کاسته": 9756,
      "##راع": 9757,
      "راهنمای": 9758,
      "طوی": 9759,
      "##رافت": 9760,
      "محموله": 9761,
      "##رتان": 9762,
      "۷۷": 9763,
      "قفل": 9764,
      "۲۰۰۶": 9765,
      "بهطوری": 9766,
      "پژوهشکده": 9767,
      "اسرایی": 9768,
      "قدری": 9769,
      "کارخانههای": 9770,
      "##رج": 9771,
      "##ژیک": 9772,
      "گردهم": 9773,
      "##مانده": 9774,
      "امی": 9775,
      "کارفر": 9776,
      "غلامرضا": 9777,
      "ارج": 9778,
      "حیدری": 9779,
      "فراری": 9780,
      "دهستان": 9781,
      "گفتوگوی": 9782,
      "قرارگاه": 9783,
      "هایشان": 9784,
      "راحتتر": 9785,
      "تشکیلات": 9786,
      "میرزا": 9787,
      "عظیمی": 9788,
      "نیجریه": 9789,
      "هزینهای": 9790,
      "ارکان": 9791,
      "مقالات": 9792,
      "ملزم": 9793,
      "تورمی": 9794,
      "پنجاه": 9795,
      "دیدبان": 9796,
      "مهیا": 9797,
      "علامت": 9798,
      "ch": 9799,
      "ملا": 9800,
      "##oc": 9801,
      "الوم": 9802,
      "گارد": 9803,
      "##واس": 9804,
      "##اعة": 9805,
      "##تای": 9806,
      "همیشگی": 9807,
      "مواز": 9808,
      "شلو": 9809,
      "اعلامی": 9810,
      "فرستاد": 9811,
      "تعاملات": 9812,
      "فیزیک": 9813,
      "راک": 9814,
      "صرافی": 9815,
      "موشکهای": 9816,
      "قریب": 9817,
      "دردس": 9818,
      "۱۳۸۵": 9819,
      "۲۰۰۷": 9820,
      "بیرونی": 9821,
      "معافیت": 9822,
      "نهضت": 9823,
      "درهم": 9824,
      "سهمی": 9825,
      "##ظمی": 9826,
      "کانونهای": 9827,
      "##کسالی": 9828,
      "فون": 9829,
      "نخستوزیر": 9830,
      "هف": 9831,
      "##ارا": 9832,
      "جریانهای": 9833,
      "خشن": 9834,
      "بستههای": 9835,
      "##زیست": 9836,
      "غلبه": 9837,
      "پایبندی": 9838,
      "ذو": 9839,
      "کوچکترین": 9840,
      "خداحافظی": 9841,
      "کلاسیک": 9842,
      "ملاک": 9843,
      "##جیک": 9844,
      "اینک": 9845,
      "##ورید": 9846,
      "##تین": 9847,
[...]
